unsigned char model[] = {32,0,0,0,84,70,76,51,0,0,0,0,20,0,32,0,28,0,24,0,20,0,16,0,12,0,0,0,8,0,4,0,20,0,0,0,28,0,0,0,152,0,0,0,240,0,0,0,252,62,1,0,12,63,1,0,116,74,1,0,3,0,0,0,1,0,0,0,16,0,0,0,0,0,10,0,16,0,12,0,8,0,4,0,10,0,0,0,12,0,0,0,28,0,0,0,60,0,0,0,15,0,0,0,115,101,114,118,105,110,103,95,100,101,102,97,117,108,116,0,1,0,0,0,4,0,0,0,144,255,255,255,16,0,0,0,4,0,0,0,9,0,0,0,100,101,110,115,101,95,50,53,56,0,0,0,1,0,0,0,4,0,0,0,186,191,254,255,4,0,0,0,15,0,0,0,100,101,110,115,101,95,50,53,53,95,105,110,112,117,116,0,2,0,0,0,52,0,0,0,4,0,0,0,220,255,255,255,19,0,0,0,4,0,0,0,19,0,0,0,67,79,78,86,69,82,83,73,79,78,95,77,69,84,65,68,65,84,65,0,8,0,12,0,8,0,4,0,8,0,0,0,18,0,0,0,4,0,0,0,19,0,0,0,109,105,110,95,114,117,110,116,105,109,101,95,118,101,114,115,105,111,110,0,20,0,0,0,8,62,1,0,0,62,1,0,220,61,1,0,104,60,1,0,60,59,1,0,104,51,1,0,232,50,1,0,20,43,1,0,232,41,1,0,204,0,0,0,196,0,0,0,188,0,0,0,180,0,0,0,172,0,0,0,164,0,0,0,156,0,0,0,148,0,0,0,140,0,0,0,108,0,0,0,4,0,0,0,134,192,254,255,4,0,0,0,88,0,0,0,12,0,0,0,8,0,14,0,8,0,4,0,8,0,0,0,16,0,0,0,40,0,0,0,0,0,6,0,8,0,4,0,6,0,0,0,4,0,0,0,1,0,0,0,235,3,0,0,0,0,10,0,16,0,12,0,8,0,4,0,10,0,0,0,2,0,0,0,2,0,0,0,4,0,0,0,6,0,0,0,50,46,49,53,46,48,0,0,234,192,254,255,4,0,0,0,16,0,0,0,49,46,49,52,46,48,0,0,0,0,0,0,0,0,0,0,196,192,254,255,200,192,254,255,204,192,254,255,208,192,254,255,212,192,254,255,216,192,254,255,220,192,254,255,224,192,254,255,38,193,254,255,4,0,0,0,9,41,1,0,230,228,234,6,4,0,9,219,249,248,247,236,16,253,0,223,241,243,251,8,11,25,22,0,2,254,222,17,12,233,12,18,0,17,230,3,14,254,246,0,3,0,215,229,15,18,226,231,24,15,0,215,19,227,224,22,29,8,5,0,219,230,228,5,4,247,255,224,0,242,17,245,0,227,227,10,2,0,222,18,220,241,214,229,12,21,0,2,215,9,10,213,252,4,251,0,218,255,10,2,253,7,255,10,0,229,12,9,226,234,6,248,1,0,221,246,224,231,212,19,255,12,0,254,246,8,11,213,243,247,9,0,223,226,1,252,249,234,249,5,0,241,12,243,222,217,254,0,252,0,15,3,237,3,244,236,254,255,0,222,21,21,223,214,9,237,223,1,12,252,230,243,0,227,242,4,1,230,231,6,247,230,21,255,254,1,253,2,13,4,213,2,251,246,1,18,19,24,224,16,13,9,0,1,15,226,229,16,0,9,13,247,1,10,249,3,230,248,219,248,6,1,243,232,229,245,251,239,12,15,1,244,248,22,247,237,24,22,249,1,223,20,234,2,255,11,11,246,1,218,7,4,14,25,234,30,2,1,17,17,215,233,234,240,17,3,1,11,0,234,235,7,14,26,17,1,226,18,223,3,34,255,8,1,0,5,226,246,15,26,238,25,17,0,232,1,233,245,22,254,5,8,0,241,239,241,243,12,222,25,1,0,226,9,3,8,6,5,2,26,0,237,23,12,13,238,9,16,20,0,14,233,4,16,9,243,17,255,255,16,248,3,15,20,10,8,0,255,222,17,255,234,244,17,23,17,255,224,8,247,245,245,11,28,255,255,239,252,236,239,14,21,4,3,255,5,235,25,246,229,243,6,13,255,13,241,4,10,11,254,29,4,255,18,12,13,250,227,12,21,246,255,220,244,17,235,229,27,7,249,255,225,242,222,250,249,242,255,0,255,233,239,236,229,226,248,254,8,255,224,0,245,5,254,12,2,7,255,218,255,225,249,240,22,12,0,255,229,251,233,18,233,235,0,248,255,229,5,248,250,248,231,4,11,0,254,17,225,231,218,247,6,248,0,225,11,231,234,221,13,245,11,0,237,22,254,247,16,253,249,255,0,236,229,0,235,224,25,246,2,0,229,10,2,249,3,219,254,252,0,224,13,253,19,248,217,2,13,1,5,250,227,236,254,17,8,15,1,255,218,2,241,254,255,252,248,0,220,218,229,20,244,218,3,3,1,21,221,229,9,1,232,9,3,0,255,5,247,18,230,15,246,253,1,5,9,247,23,21,252,244,16,1,244,238,218,2,221,253,1,254,0,242,247,251,14,223,235,248,11,0,224,2,1,226,9,231,245,5,1,252,229,0,234,224,11,12,1,0,224,13,235,235,252,9,3,250,1,243,6,245,227,224,229,252,2,0,222,16,239,226,16,230,247,5,0,14,20,24,229,21,240,254,249,1,223,255,3,247,15,206,253,233,0,241,238,218,0,229,5,0,1,1,13,228,247,237,11,250,255,254,1,4,246,237,230,17,255,17,253,1,245,18,232,252,21,225,15,1,1,251,233,2,222,219,1,5,5,1,252,238,236,228,255,239,3,9,1,222,215,8,246,241,229,9,3,1,230,6,17,20,25,236,9,253,1,226,246,23,233,5,245,21,253,1,13,15,229,247,253,241,27,9,1,255,240,23,246,6,240,22,12,1,14,253,253,225,4,237,13,250,1,10,16,214,249,238,215,14,2,0,5,240,238,12,20,235,18,7,0,1,247,219,253,37,238,16,2,0,219,238,4,19,3,249,12,11,0,8,9,223,220,10,223,17,0,0,11,226,3,221,3,253,12,5,0,243,233,254,13,229,215,29,3,255,235,6,228,221,14,1,3,248,0,252,216,241,7,9,26,24,252,255,223,221,246,235,250,13,24,253,0,250,228,238,215,254,234,3,9,0,14,22,237,226,5,4,1,5,0,21,229,215,15,7,219,12,11,0,12,11,0,2,240,20,20,251,0,237,22,251,5,235,24,9,8,0,249,232,221,238,12,249,7,14,0,239,248,7,232,10,247,15,4,0,13,19,13,237,213,251,8,0,0,220,0,7,215,224,27,254,3,0,1,241,241,245,233,251,0,253,0,247,15,226,17,2,0,6,9,0,225,22,229,248,228,3,19,12,0,238,230,224,255,227,232,11,254,0,12,252,15,240,239,235,12,253,0,1,255,252,233,248,225,10,7,0,233,4,20,255,219,1,16,11,0,8,221,234,246,232,248,18,5,0,249,228,226,224,6,237,12,2,0,17,243,219,219,224,0,1,252,0,234,240,23,239,15,253,10,5,0,220,251,15,238,231,20,10,9,0,10,250,246,20,240,229,9,7,0,222,231,215,231,16,224,16,252,0,10,3,12,22,227,11,3,2,0,240,17,10,240,18,11,246,3,0,12,7,238,250,24,22,3,5,0,230,1,232,230,13,221,248,254,0,25,14,26,13,17,254,244,5,0,5,249,221,8,20,8,255,249,0,248,15,240,2,253,2,246,3,0,247,255,242,243,218,223,250,254,0,14,248,247,19,249,222,247,0,0,227,250,21,243,213,9,254,9,0,8,16,2,227,215,245,245,12,0,228,6,247,235,246,25,246,2,0,10,4,241,240,253,232,244,3,0,19,0,0,223,244,7,246,2,0,20,254,255,229,228,233,247,254,0,11,13,246,246,236,245,247,255,0,229,1,241,226,230,227,247,1,0,232,245,233,2,237,224,250,4,0,242,248,254,225,17,244,253,1,1,11,223,26,238,235,17,13,32,0,1,255,240,3,4,241,3,251,0,231,244,0,10,27,2,254,6,0,229,220,247,218,10,31,0,11,0,17,241,254,8,20,5,0,5,0,14,245,228,242,8,0,4,5,0,4,8,8,235,0,23,253,4,1,21,221,23,238,32,29,16,247,0,232,6,250,221,27,252,11,255,0,3,0,8,238,29,2,249,12,0,17,239,7,4,236,243,250,251,0,237,248,250,235,7,249,7,255,0,8,242,12,1,246,8,11,11,0,230,241,19,243,252,18,12,8,0,230,236,8,230,242,12,3,14,0,249,6,16,237,247,8,13,14,0,16,232,254,251,13,254,8,3,0,232,11,16,237,23,240,15,11,0,241,223,252,247,250,1,2,2,0,246,224,12,237,239,9,10,12,0,21,255,8,242,226,24,4,7,0,223,20,234,234,234,15,252,0,0,251,7,12,226,20,230,13,17,0,5,3,226,5,228,8,252,14,0,4,227,7,240,1,235,249,249,0,230,253,16,252,8,251,250,6,0,229,21,246,241,5,230,2,248,0,250,22,25,234,2,223,9,4,0,17,225,16,254,222,247,232,3,0,228,5,15,240,237,14,248,6,0,232,3,227,8,248,234,253,7,0,21,5,6,241,251,252,252,6,0,2,250,252,243,15,221,3,7,0,245,250,13,250,247,231,6,4,0,227,246,5,254,247,14,1,8,0,251,6,16,17,227,26,4,7,0,249,17,251,13,20,253,4,2,0,223,238,243,235,242,10,253,12,0,0,236,239,23,237,220,2,253,0,1,6,239,7,234,252,0,7,0,232,234,4,244,232,16,3,253,0,240,14,246,27,28,215,252,255,0,222,4,253,25,237,232,251,8,0,253,242,27,239,7,14,2,7,0,2,242,229,241,249,253,253,255,0,16,246,238,27,18,240,252,2,0,230,252,28,23,10,226,255,13,0,241,222,242,9,233,255,0,4,0,1,19,232,251,32,5,253,0,0,11,239,229,7,250,232,0,5,0,223,230,234,5,12,216,254,0,0,5,226,242,254,243,237,3,10,0,229,252,254,17,25,21,3,7,0,237,20,246,228,244,216,9,7,255,238,242,248,253,17,241,255,10,0,21,247,228,248,247,237,254,3,0,15,22,17,19,244,242,0,3,0,250,248,25,10,2,8,0,3,0,253,241,254,4,1,223,8,8,0,241,17,234,16,247,241,251,251,0,240,25,5,239,3,15,1,255,0,3,233,20,251,230,23,11,249,0,226,13,7,18,18,8,5,1,0,20,251,25,2,25,254,7,249,0,3,7,8,222,250,13,2,11,0,253,255,240,253,251,254,12,253,0,1,12,2,236,234,17,11,7,0,226,22,0,242,242,34,9,9,0,236,251,15,0,20,1,3,245,0,249,1,240,245,249,249,10,9,0,7,10,229,5,235,26,6,3,0,231,229,229,233,227,8,4,8,0,255,14,14,240,230,2,254,9,0,10,14,233,8,218,6,254,9,0,234,7,255,245,10,245,252,9,0,16,9,246,236,0,32,3,6,0,245,4,230,11,3,16,248,4,1,224,242,251,246,9,240,253,10,0,20,235,15,4,241,233,255,0,0,225,221,238,231,9,15,1,12,0,230,225,246,6,13,28,0,7,0,20,255,236,249,246,6,254,8,0,239,23,28,229,5,234,253,6,0,248,233,17,22,10,255,2,7,1,246,18,248,237,225,25,2,8,1,252,247,21,232,226,12,1,5,1,238,248,9,240,13,226,5,3,0,247,224,17,22,4,22,4,255,1,2,15,19,251,22,248,253,0,1,244,8,240,19,15,16,1,4,1,11,236,246,22,13,248,0,254,1,230,222,10,249,239,230,1,5,0,243,2,244,6,5,254,255,4,0,10,22,11,22,10,239,0,2,0,1,248,1,251,243,237,255,2,1,248,11,253,18,21,9,0,1,1,21,24,7,8,240,230,255,4,0,19,246,236,241,243,254,254,5,1,13,5,227,16,6,224,252,5,0,242,244,22,253,232,251,253,255,0,247,242,248,248,243,24,0,2,0,16,247,241,2,12,15,35,39,255,8,235,254,250,33,11,36,29,255,36,13,237,230,251,48,40,48,255,36,20,15,250,10,35,33,16,255,237,240,232,239,8,48,50,34,255,236,2,236,0,252,37,28,31,0,224,22,1,236,38,50,5,29,255,34,245,255,35,250,11,11,244,255,10,29,21,34,1,25,254,35,0,8,236,34,21,8,16,244,25,0,234,25,0,29,240,248,224,13,0,36,239,23,11,225,235,245,254,0,17,240,239,12,211,246,222,14,1,27,13,252,229,251,20,202,22,1,25,20,245,232,226,240,203,254,2,251,23,251,230,232,4,191,249,3,24,29,2,233,241,220,224,14,3,23,241,241,236,226,225,199,244,4,244,254,241,3,251,217,184,9,4,245,31,251,244,213,240,219,227,5,238,224,36,235,199,239,216,210,5,12,242,234,4,11,216,229,247,5,246,243,228,213,203,192,184,255,5,22,7,6,216,12,203,249,219,6,4,4,242,239,219,222,245,214,6,246,26,248,251,247,216,228,4,7,252,230,32,253,227,247,214,224,7,10,240,27,231,225,176,232,245,8,8,249,255,9,228,206,196,249,8,32,28,28,242,213,201,221,238,8,16,253,16,31,7,177,205,227,8,224,235,8,255,217,203,200,1,8,16,233,231,45,231,200,210,237,9,20,227,8,47,211,220,237,251,9,232,1,238,28,244,205,6,9,9,5,240,240,4,220,206,1,232,10,25,20,20,8,214,215,233,250,10,255,8,12,26,4,235,250,223,10,233,24,238,11,227,233,237,241,9,251,248,240,10,226,4,210,244,9,20,13,244,1,28,27,4,252,8,10,245,13,22,16,251,9,18,8,254,17,23,213,249,246,235,20,7,11,253,26,242,5,18,230,224,6,225,236,25,252,17,28,25,234,5,7,219,6,1,42,255,4,224,4,5,243,251,231,17,13,37,21,3,4,225,5,232,47,11,14,9,1,248,236,254,221,16,25,24,254,0,24,253,220,201,20,52,41,0,255,247,219,238,246,39,26,37,233,255,4,255,223,219,39,0,42,232,254,234,32,253,253,47,10,40,12,253,251,232,239,9,46,254,66,248,252,22,2,33,227,55,37,48,7,251,226,234,34,35,38,247,56,12,250,243,245,2,35,48,7,47,251,249,252,24,30,233,48,245,20,12,249,27,0,222,7,252,46,4,244,248,0,245,13,13,52,11,36,23,248,224,0,239,232,247,23,26,247,249,237,2,238,9,246,45,28,29,249,31,6,1,1,25,248,42,237,250,28,2,246,253,43,8,17,235,251,222,32,21,217,33,232,28,14,252,249,26,2,243,21,10,27,237,253,232,28,252,255,239,22,19,4,253,7,244,29,0,251,11,10,242,253,30,229,248,236,10,37,22,240,253,227,251,10,205,46,20,255,234,252,3,232,15,13,4,33,3,253,252,236,28,13,221,242,247,33,245,251,226,32,241,221,36,2,37,8,251,254,37,250,243,18,5,40,253,250,243,14,32,3,9,6,9,241,250,24,225,237,8,33,234,21,23,250,4,225,16,214,248,221,7,223,249,248,247,227,9,236,14,252,0,249,243,3,12,252,235,27,217,8,249,252,36,10,3,19,245,214,229,249,218,24,17,5,27,222,250,234,249,12,252,17,246,228,17,208,25,250,27,235,226,206,214,224,226,0,250,234,231,35,8,242,19,236,232,251,223,235,224,248,199,17,222,23,252,3,12,232,7,213,214,253,20,253,14,234,30,249,240,248,240,236,255,248,253,16,246,224,16,208,227,0,244,223,0,219,0,215,246,235,1,25,245,18,241,246,3,229,233,2,9,241,225,20,251,20,19,243,3,217,8,242,247,223,5,222,233,3,18,222,248,24,250,213,247,226,4,254,3,14,21,13,217,30,230,4,13,248,238,232,6,228,251,230,4,223,230,22,16,11,213,235,250,3,238,250,1,25,11,255,0,6,3,8,252,34,35,248,249,14,229,2,17,251,226,35,243,243,15,16,1,251,17,234,12,8,228,19,29,0,2,240,27,3,24,251,252,27,255,233,229,2,21,243,227,11,14,255,225,224,12,229,14,15,9,26,255,16,227,11,2,16,239,233,17,255,244,18,243,226,248,16,8,16,0,19,251,31,228,27,239,239,11,0,237,11,253,1,254,255,3,17,0,23,234,237,250,18,234,240,21,0,21,14,231,13,2,7,236,15,0,2,10,250,25,0,20,11,45,0,240,20,13,236,1,31,25,21,0,255,34,25,31,0,9,3,21,0,234,36,224,4,28,0,20,18,0,2,5,31,232,246,229,8,36,0,11,11,27,11,249,246,21,39,255,24,231,249,38,249,22,253,44,0,21,6,225,37,228,5,245,20,0,2,235,229,8,7,33,248,48,0,251,4,222,10,21,247,254,25,0,24,230,248,30,239,22,5,250,0,15,10,28,30,224,21,5,250,0,28,2,16,238,7,246,252,252,0,6,247,23,30,12,225,245,247,0,23,2,242,247,253,18,248,253,0,26,246,247,253,10,245,2,244,0,17,13,24,252,21,215,248,1,0,13,228,227,20,231,11,240,239,0,27,1,233,246,9,229,245,247,0,2,238,6,235,1,16,1,252,0,255,240,22,237,239,240,15,246,0,224,20,239,244,25,13,16,0,0,234,4,243,4,27,12,11,252,0,241,22,30,29,46,29,18,2,0,1,228,26,248,26,225,13,252,0,15,235,232,17,255,10,6,0,0,26,242,223,21,246,24,4,255,0,12,24,15,37,20,23,3,255,0,227,29,5,252,31,227,0,239,0,229,252,25,41,34,33,4,253,0,249,243,233,32,38,250,251,4,0,20,245,245,4,10,235,1,17,0,246,9,242,9,6,0,251,254,0,251,235,11,30,15,8,241,0,0,237,6,28,244,6,235,8,255,0,254,232,239,255,229,243,3,5,0,241,0,23,15,22,236,8,13,0,254,12,228,238,233,240,10,254,0,229,5,250,239,239,5,9,248,0,238,5,239,250,1,226,254,250,0,23,31,243,240,10,232,10,249,0,22,16,3,23,247,218,243,244,0,239,27,247,235,224,10,249,250,0,15,233,9,14,241,235,236,252,0,233,233,222,8,224,6,242,245,0,239,9,0,231,224,233,234,5,0,12,239,244,227,1,253,229,243,0,7,244,230,239,230,9,232,239,0,227,29,249,2,23,253,233,0,0,23,16,3,9,253,227,241,4,0,1,25,24,233,244,243,241,250,0,242,229,10,231,245,14,250,6,0,245,15,20,14,243,234,241,8,0,32,15,239,13,15,253,235,2,0,236,30,238,225,246,251,244,1,0,25,6,223,229,240,6,248,0,0,246,238,1,228,250,236,2,252,0,240,25,28,235,240,252,252,4,0,25,4,6,24,232,17,246,13,0,2,31,21,10,4,13,0,6,0,17,2,12,244,10,241,253,0,0,6,240,222,253,248,6,4,9,0,230,18,12,240,4,236,248,251,0,235,237,250,17,4,1,238,239,0,16,227,18,20,243,11,2,242,0,234,27,224,249,225,254,240,242,0,235,4,229,254,239,227,244,242,0,15,233,246,13,216,31,252,248,0,3,244,28,5,251,15,241,253,0,17,12,236,236,218,255,255,246,0,2,230,28,230,241,6,5,251,0,11,250,25,246,217,254,1,244,0,7,225,237,252,213,254,246,247,0,19,236,16,247,7,1,254,255,0,247,19,1,214,9,0,1,241,0,243,226,243,225,249,26,3,249,0,5,5,230,3,253,235,254,250,0,250,227,230,218,231,19,244,236,0,255,252,2,247,217,247,255,241,0,6,29,6,236,233,243,3,255,0,26,8,0,234,242,13,247,246,0,234,13,242,0,242,38,236,252,0,253,30,16,250,219,12,2,247,0,225,230,29,235,228,11,2,4,0,245,238,251,232,231,234,252,247,0,252,242,16,255,243,12,244,248,0,24,15,251,0,251,223,223,6,0,245,5,239,24,254,3,0,10,0,6,227,223,19,224,246,230,252,0,251,237,254,4,243,227,246,246,0,5,23,255,39,21,212,234,11,0,248,251,29,247,223,239,235,9,0,25,240,12,6,28,6,232,248,0,20,21,24,26,241,250,244,244,0,251,233,235,41,28,207,244,249,0,22,17,235,252,33,246,243,244,0,1,4,28,5,249,202,250,246,0,15,234,252,232,247,4,254,251,0,5,16,249,234,24,205,251,252,0,9,13,233,245,247,6,240,240,0,0,252,14,2,10,225,252,245,0,8,22,10,15,7,230,10,4,0,27,243,7,11,253,210,250,4,0,246,22,254,236,28,9,245,248,0,15,230,238,242,24,232,8,243,0,22,225,228,220,22,230,255,248,0,227,234,252,254,234,19,252,247,0,229,224,12,229,234,8,1,250,0,230,227,235,222,23,19,251,246,0,239,254,228,14,1,24,253,244,0,247,255,224,254,3,235,253,246,0,14,25,8,10,31,20,252,250,0,239,227,220,224,242,15,11,249,0,15,241,233,14,7,253,255,247,0,4,22,6,250,27,30,255,250,0,229,3,244,241,250,20,2,254,0,4,13,245,19,20,2,0,0,0,251,6,245,1,2,15,4,252,0,20,26,22,6,251,6,255,254,0,25,250,236,26,238,23,253,254,0,1,21,6,12,24,31,248,250,0,17,232,9,252,250,31,254,246,0,11,29,255,11,253,8,255,249,0,23,19,243,18,245,4,1,255,0,9,0,243,24,239,16,251,248,0,247,234,25,6,254,230,255,253,0,14,239,9,29,25,13,252,251,0,4,255,224,3,240,249,0,248,0,255,15,252,230,7,1,249,251,0,236,0,227,231,15,16,6,39,254,224,235,23,25,30,35,13,0,254,227,10,6,254,13,242,42,38,254,27,236,18,232,238,8,20,253,254,224,235,4,11,11,254,31,18,254,22,237,244,237,241,20,10,16,254,231,4,232,241,8,7,5,22,254,248,8,35,19,239,255,7,28,254,32,14,5,251,222,243,11,24,254,18,226,21,229,249,14,220,253,254,250,35,28,11,12,7,234,39,254,236,228,32,255,16,255,220,23,255,33,242,10,238,14,229,245,253,0,20,246,37,6,225,20,251,10,1,253,8,235,240,235,254,212,4,2,11,227,32,18,222,19,206,1,3,17,4,248,235,228,26,187,245,4,13,236,2,240,12,4,212,12,4,19,247,24,239,255,229,212,254,5,233,242,7,9,254,253,206,9,5,34,22,239,23,4,4,204,247,5,237,231,18,23,209,24,224,214,5,15,21,18,26,1,15,244,248,5,32,248,224,7,227,13,6,221,5,223,221,24,2,230,25,224,214,6,8,250,253,254,30,234,220,243,6,242,16,232,241,225,244,27,7,6,231,223,26,16,1,27,31,231,6,221,242,249,246,235,220,33,243,6,243,12,243,255,248,238,33,229,5,239,26,12,23,251,232,48,232,5,11,22,10,251,18,23,7,235,4,2,245,223,8,242,8,241,247,4,26,20,223,234,249,25,24,248,3,3,29,232,13,52,11,13,10,2,26,24,5,31,2,247,3,252,2,246,245,35,5,50,240,12,23,1,18,13,31,0,24,223,16,248,1,35,10,225,13,37,239,33,25,1,23,225,238,234,62,6,19,247,0,25,227,13,222,43,229,28,7,0,224,30,5,245,42,248,41,0,0,13,23,30,244,4,249,60,1,0,22,250,23,11,57,25,12,32,0,10,238,2,224,39,10,36,244,0,223,25,15,243,42,250,59,247,0,20,32,240,0,20,250,41,21,255,245,16,13,241,248,15,36,18,254,229,17,240,229,18,6,26,234,253,242,229,31,244,241,244,13,22,253,225,28,247,255,36,38,2,250,252,251,29,229,7,12,238,28,229,252,243,228,3,36,235,30,45,245,251,26,253,28,251,26,30,48,22,251,24,2,1,246,3,43,55,19,250,242,3,237,247,29,21,11,8,250,0,2,8,10,240,241,47,19,249,7,18,227,2,16,246,22,249,249,251,246,251,18,230,15,13,14,249,4,19,13,36,7,14,245,252,250,32,33,242,244,221,30,233,16,251,236,253,248,255,205,250,229,250,251,6,232,238,238,213,33,250,243,252,5,19,4,2,242,21,230,241,253,229,6,242,235,12,4,213,10,254,26,35,28,2,240,10,220,22,254,225,252,250,241,8,231,218,1,255,240,0,255,207,214,230,229,9,255,246,225,233,254,207,238,197,8,0,229,225,247,1,205,222,254,228,1,26,245,229,4,209,225,213,224,2,17,243,234,239,14,188,194,254,3,230,33,26,3,3,184,247,210,4,237,252,231,245,224,229,4,246,4,28,233,15,249,231,246,243,213,5,16,6,4,5,211,188,216,246,5,20,5,15,237,235,238,214,3,6,25,7,228,21,221,206,210,242,6,29,219,232,246,229,204,244,217,7,242,251,228,234,232,237,250,233,7,4,222,12,244,242,241,239,10,7,10,223,229,17,239,184,247,210,7,14,31,255,2,232,244,251,238,7,28,224,251,35,41,189,236,2,6,229,253,31,1,239,208,0,244,6,31,24,236,41,12,201,230,236,5,225,28,226,2,51,202,243,209,5,238,220,24,221,29,189,11,246,5,251,236,233,16,38,213,240,250,5,233,255,248,25,15,228,240,251,5,26,222,13,221,254,243,24,222,5,253,27,214,224,242,7,9,225,5,230,234,217,7,237,236,249,240,6,226,241,254,221,240,1,33,250,6,2,32,23,223,29,254,4,248,6,225,20,254,4,239,20,17,231,6,12,247,220,223,12,241,54,232,6,21,0,21,234,31,18,32,244,5,245,235,248,17,3,230,71,222,5,0,224,254,9,31,17,77,11,4,17,19,223,223,254,12,64,6,3,30,231,14,228,12,9,71,243,2,222,223,224,14,32,29,88,7,1,221,28,230,5,252,46,56,9,0,228,227,19,17,243,248,66,255,0,251,30,28,241,19,35,46,22,0,9,247,19,229,26,35,62,6,1,247,6,226,232,30,21,80,2,1,23,21,19,7,248,16,75,0,2,4,253,20,225,18,20,93,9,2,246,11,221,243,34,247,33,245,1,2,226,252,246,10,14,74,252,1,241,236,235,231,15,247,53,250,1,4,22,1,248,21,37,52,9,0,26,2,31,254,0,250,22,252,0,224,24,246,254,230,16,58,243,0,0,24,247,2,232,20,9,8,0,1,236,220,24,3,9,36,5,0,9,1,2,252,233,253,45,12,0,11,247,31,249,249,235,4,247,0,239,7,234,13,23,16,6,1,0,18,234,6,253,234,8,11,2,0,7,0,228,248,6,253,12,245,0,226,0,21,244,255,241,16,250,0,12,16,223,251,26,254,27,255,0,22,237,16,21,5,251,18,251,0,231,242,246,25,255,225,2,17,0,232,236,247,239,28,255,17,253,0,15,226,19,254,49,242,18,3,0,245,243,242,2,50,5,22,247,0,255,19,26,33,29,24,33,255,0,18,24,21,32,54,5,36,6,0,234,234,225,34,27,20,30,2,255,251,250,236,46,43,253,36,253,255,254,14,13,45,17,226,36,4,255,21,244,224,29,1,19,27,254,255,246,253,242,23,38,28,25,0,255,11,228,252,13,15,5,41,19,255,20,253,14,18,243,220,26,0,255,15,247,3,16,254,229,29,8,255,8,13,5,0,5,21,27,254,255,20,3,248,252,4,242,18,255,255,12,27,246,22,6,21,20,254,255,5,8,233,245,235,14,11,12,255,29,33,231,243,5,251,17,1,255,7,252,237,242,249,225,249,247,255,18,245,237,12,223,237,6,252,255,29,2,15,4,7,240,252,4,255,7,238,1,248,246,220,237,249,255,15,243,254,243,228,218,3,252,255,3,248,4,239,221,221,8,255,255,245,236,250,26,228,224,247,249,255,236,239,251,232,210,0,252,0,255,238,2,229,232,254,253,249,2,255,10,28,242,6,1,220,237,251,255,241,254,12,5,233,14,224,254,255,251,230,241,18,3,253,244,9,255,25,230,14,8,239,252,230,8,255,6,31,249,19,236,3,239,255,255,235,232,6,249,247,221,211,246,255,14,23,14,237,200,16,201,1,255,6,16,1,249,195,247,211,15,255,244,25,239,245,237,254,229,5,0,5,248,12,25,215,13,225,251,0,239,1,11,8,191,217,238,16,0,241,225,20,5,235,255,222,251,0,3,224,18,234,237,236,240,255,0,230,238,10,228,213,248,254,5,0,249,241,19,13,231,247,249,250,0,19,238,14,11,210,236,248,252,0,11,11,253,221,213,232,229,11,1,5,19,229,228,1,232,229,252,1,246,225,245,233,1,21,245,247,1,29,4,225,254,251,7,226,248,1,3,229,13,237,240,254,231,253,1,1,14,224,210,212,234,241,3,1,240,254,7,4,220,20,251,248,1,15,4,12,216,254,236,249,244,1,6,2,6,2,241,248,12,0,1,9,239,3,244,24,29,22,248,1,240,226,236,240,240,2,24,244,1,23,3,11,217,235,17,8,249,1,235,16,13,14,1,255,26,242,1,255,254,227,12,9,17,18,252,0,17,228,6,232,23,11,15,254,0,234,236,234,22,241,5,31,252,0,8,16,10,231,13,16,44,6,0,15,239,16,255,32,49,36,3,0,231,7,255,241,29,16,34,3,0,11,2,26,17,30,30,30,0,0,236,8,225,242,234,14,21,6,0,17,16,228,31,25,54,23,12,0,246,253,10,0,31,11,20,10,0,243,252,23,33,28,30,6,252,0,8,232,225,13,10,19,21,6,0,254,250,5,0,254,37,18,15,0,230,232,12,7,233,245,29,4,0,14,234,2,31,253,14,23,7,0,23,10,227,21,248,40,17,6,0,239,6,2,255,243,250,6,10,0,249,231,230,234,24,240,13,5,0,236,233,1,19,233,10,8,4,0,233,235,251,2,236,245,2,8,0,234,25,251,236,241,246,14,10,0,26,19,233,248,235,23,20,13,0,6,23,23,6,242,244,15,14,0,7,248,5,7,232,24,17,14,0,2,245,227,0,8,25,8,7,0,242,29,21,20,21,15,11,6,255,243,240,28,232,17,226,10,12,255,5,243,13,16,225,236,28,243,255,243,8,4,31,248,218,3,3,255,23,228,25,28,4,242,3,255,255,1,22,230,239,221,3,243,251,255,241,16,21,22,249,230,246,4,255,233,255,10,252,226,235,232,5,255,28,2,235,12,3,215,223,1,255,1,248,16,229,5,2,227,0,255,12,253,241,16,223,11,229,7,0,12,29,248,251,228,224,236,3,0,17,3,225,8,238,4,235,3,0,6,238,250,11,7,228,233,4,0,237,238,244,251,225,238,241,1,0,26,1,243,234,249,231,238,250,0,254,228,228,231,5,233,233,253,0,19,253,247,16,238,241,226,0,0,12,3,223,0,234,221,231,1,0,255,19,226,11,220,224,236,251,0,29,26,11,23,224,252,231,253,0,10,249,232,250,231,12,237,254,0,11,229,29,243,223,220,238,250,0,24,248,9,254,20,23,241,253,0,11,243,27,14,252,6,232,253,0,26,27,242,238,18,220,229,0,0,32,245,232,1,5,252,234,253,0,23,13,11,23,231,27,238,2,0,1,232,226,252,23,5,234,255,0,3,20,223,2,16,16,243,255,0,26,254,23,5,231,216,227,254,0,12,248,247,227,5,236,208,247,0,232,225,20,248,16,242,232,248,0,232,243,10,234,243,195,206,238,0,238,248,15,241,209,228,209,248,0,26,242,232,13,215,240,210,228,0,2,0,239,3,216,242,207,253,0,226,222,252,11,250,219,244,219,0,234,12,24,241,229,249,231,250,0,3,231,19,232,233,3,234,248,0,16,231,10,254,253,28,237,255,0,11,244,241,223,236,15,236,247,1,25,27,249,252,0,35,235,251,1,29,253,223,209,1,19,229,249,1,26,240,20,226,0,9,223,254,1,247,0,27,3,216,19,222,254,1,235,254,230,229,218,39,232,244,1,27,220,14,247,13,38,249,253,1,236,226,254,231,244,16,1,3,1,13,249,2,220,13,29,245,245,0,1,8,244,234,237,3,254,6,0,1,223,18,15,231,2,4,2,0,12,27,226,10,236,56,239,1,0,228,237,255,239,4,251,244,254,0,240,23,255,217,35,22,6,250,0,251,238,250,244,36,8,235,21,0,27,10,238,249,33,29,227,19,0,20,24,224,231,18,43,234,21,0,21,18,23,247,29,50,223,19,0,235,5,16,18,26,33,223,13,0,5,238,243,234,15,37,222,10,0,242,234,13,249,6,59,219,13,0,245,233,19,245,15,13,237,255,0,9,242,26,225,3,5,241,1,0,255,17,21,13,255,252,254,9,0,9,221,237,4,1,14,250,10,0,10,27,0,232,23,29,233,253,0,20,239,250,243,31,22,254,8,0,20,247,242,0,242,21,247,246,0,221,225,13,13,8,33,32,4,0,18,227,240,26,24,20,10,241,0,234,6,28,16,245,252,25,254,0,222,225,24,251,10,237,17,3,0,253,248,234,31,36,231,6,3,0,222,239,234,34,18,244,21,11,0,254,20,229,239,254,19,29,246,0,238,225,250,248,27,238,5,7,0,249,249,236,238,0,229,253,239,0,13,245,11,8,47,241,244,248,1,241,247,14,246,7,15,240,242,1,3,12,227,248,254,218,7,6,1,230,15,231,17,13,242,2,246,1,235,237,5,233,30,219,19,244,0,235,26,19,238,34,225,2,7,0,6,238,235,30,15,244,25,10,0,10,16,246,26,248,237,16,6,0,224,27,20,13,234,17,253,251,255,244,244,236,2,24,215,9,5,255,236,233,4,19,25,244,246,250,255,225,234,232,242,8,218,255,244,255,14,4,238,250,17,231,227,249,0,10,14,27,36,1,218,222,249,0,16,24,0,15,243,237,228,253,0,2,15,222,7,218,16,231,1,0,20,251,1,240,18,226,217,0,0,238,243,251,21,9,8,229,7,0,237,234,23,253,215,249,217,245,0,24,243,20,20,17,225,216,7,0,255,23,2,232,238,15,209,15,0,11,239,222,0,215,252,204,26,0,241,16,224,24,254,225,220,13,0,231,9,246,243,232,20,210,254,255,251,18,2,10,242,17,207,3,255,228,30,250,229,2,4,214,17,255,237,229,254,220,253,249,217,2,255,247,221,11,243,229,228,219,25,255,11,10,27,229,233,36,219,3,255,255,226,11,228,242,23,246,251,0,6,236,16,230,12,12,214,21,0,25,27,226,220,13,40,226,250,0,17,17,253,226,244,3,221,4,0,240,255,248,243,254,246,223,17,0,13,10,239,255,237,13,222,1,0,254,236,15,10,229,22,241,0,0,15,237,255,231,244,242,243,5,0,22,231,9,15,247,238,228,251,0,4,247,246,228,253,4,246,13,0,253,239,18,248,243,15,234,6,0,16,9,5,230,11,1,230,253,0,238,230,23,254,221,1,241,246,0,242,8,9,251,221,234,226,251,0,2,11,240,247,22,253,235,5,0,235,220,233,242,252,11,239,17,0,23,236,9,1,3,5,242,4,0,237,224,10,21,13,12,233,255,0,16,4,255,12,13,234,250,2,0,228,235,11,18,29,13,244,251,0,16,228,7,253,4,249,6,254,0,240,24,9,233,10,253,12,254,0,250,10,251,9,26,244,17,2,0,18,3,2,6,32,31,12,1,0,25,232,30,243,240,250,26,1,0,24,255,246,252,15,3,28,249,0,231,235,231,240,22,237,22,253,0,246,234,29,246,33,24,16,1,0,253,252,229,14,244,226,13,247,0,8,223,240,5,4,12,2,251,0,251,240,23,21,246,9,1,4,0,3,16,255,228,5,21,248,249,0,8,26,227,16,3,12,254,239,0,253,249,251,248,242,236,4,245,0,238,235,28,18,30,244,10,246,0,253,14,14,235,19,32,11,241,0,244,238,0,253,22,241,3,239,0,227,251,21,3,251,18,14,244,0,235,12,20,19,16,249,2,239,0,1,242,252,6,240,23,0,244,0,7,21,251,255,16,253,251,249,0,252,252,27,3,233,239,3,245,0,255,12,241,251,220,4,182,225,253,28,18,226,0,4,212,212,225,253,7,255,12,8,5,249,212,224,253,13,24,243,19,218,194,210,212,254,8,239,221,25,232,243,200,219,255,238,32,255,253,255,251,164,205,255,30,253,230,236,238,212,203,234,0,23,16,24,11,232,224,249,3,1,16,25,29,224,232,2,201,224,2,4,225,14,0,226,223,217,247,3,25,240,222,223,215,248,221,230,4,33,247,22,242,2,25,232,237,5,232,27,243,210,254,240,232,253,5,21,222,255,252,249,7,219,243,6,9,10,224,246,17,237,222,255,6,18,227,27,225,254,31,251,247,6,246,20,0,3,239,255,237,252,6,247,235,10,242,25,38,237,251,5,247,29,14,236,246,10,8,31,5,229,0,253,8,254,39,5,235,5,247,246,19,217,239,25,28,254,5,17,232,5,3,240,64,241,28,4,251,21,231,11,239,58,25,9,4,4,32,15,239,15,16,240,7,4,255,29,21,10,4,19,13,2,3,15,231,254,233,34,54,21,17,3,0,31,226,10,10,52,216,25,2,16,1,12,229,5,43,249,37,2,9,17,4,1,31,56,209,254,2,232,33,15,15,35,49,182,28,2,225,246,34,18,251,39,204,253,2,221,229,2,20,244,20,201,233,2,248,28,14,223,26,51,208,251,2,9,234,11,225,231,255,225,6,2,27,236,2,232,255,3,211,242,3,251,237,245,239,13,26,208,244,3,234,254,230,21,222,253,208,10,3,16,232,0,248,255,31,246,241,4,254,23,21,246,214,36,205,252,4,14,16,230,22,21,16,7,235,4,238,11,251,8,238,20,254,249,4,9,228,231,240,240,4,249,255,4,219,245,249,30,236,10,230,6,4,242,13,227,229,33,2,225,10,3,25,234,21,24,27,14,214,12,3,4,16,228,243,7,19,214,236,2,233,235,238,15,25,254,217,243,2,22,227,255,26,23,13,237,1,1,247,224,236,32,19,18,222,233,1,253,12,10,2,14,216,251,10,0,249,29,25,10,8,251,8,20,0,0,23,30,16,5,214,5,244,0,2,240,236,240,37,225,29,7,255,229,15,11,19,22,207,5,250,255,18,6,5,4,8,18,10,255,255,15,255,2,248,43,19,240,247,254,26,32,254,5,33,221,221,5,254,16,4,2,18,38,241,238,15,254,224,12,13,25,29,225,239,254,254,227,249,249,24,1,236,243,16,254,21,224,14,33,32,4,240,8,254,235,21,241,243,14,7,220,249,254,240,246,252,1,233,252,208,19,254,19,252,9,9,243,223,242,242,254,23,255,236,28,31,232,226,24,254,219,5,246,244,249,14,231,11,254,225,29,9,236,248,8,1,248,254,220,17,241,23,11,232,230,41,254,4,27,221,33,244,5,248,30,253,235,222,235,38,243,16,221,28,253,227,225,241,246,7,41,247,21,253,237,249,20,19,6,250,229,33,253,254,223,236,13,225,252,219,14,253,21,11,243,2,5,3,231,19,253,241,230,14,229,238,2,239,13,253,255,4,255,236,23,22,222,17,253,7,250,222,224,2,250,250,11,254,226,31,240,223,217,11,223,4,255,233,0,10,237,244,46,235,246,255,249,27,25,21,7,48,234,2,0,12,241,27,212,19,40,229,29,0,227,23,244,240,13,38,233,22,0,244,28,3,18,211,54,218,22,1,237,223,0,220,217,45,202,16,1,232,23,249,222,212,37,7,30,1,15,247,22,1,237,24,226,244,1,14,251,25,229,14,14,238,236,2,233,240,35,252,242,23,230,15,2,244,19,255,4,224,48,234,10,2,3,252,224,243,253,43,214,242,3,226,11,20,1,238,37,222,240,3,218,232,6,253,3,20,221,248,3,232,1,28,42,218,248,204,253,4,223,222,27,23,236,41,221,5,4,7,218,5,20,253,11,241,0,4,226,251,243,17,23,242,218,0,4,24,251,237,10,236,37,239,2,5,221,242,27,4,254,17,254,232,5,228,246,247,26,244,1,252,7,5,19,24,3,45,229,27,231,17,5,251,230,227,14,230,234,244,249,5,222,12,229,234,5,229,5,247,4,237,14,15,248,32,253,249,242,4,249,11,248,238,3,9,244,242,4,249,223,14,238,14,20,247,233,4,9,7,3,26,20,15,237,246,4,15,3,13,34,5,11,214,245,4,238,220,17,243,224,219,207,246,4,222,253,3,227,238,250,209,241,4,226,243,234,235,221,255,221,245,3,22,11,1,4,4,248,226,252,3,240,237,225,0,241,21,227,243,3,247,233,22,19,7,25,208,245,3,9,232,254,28,14,238,212,236,2,2,254,11,228,230,22,228,244,2,229,254,255,1,251,235,217,6,2,11,10,21,235,17,239,219,11,2,19,227,0,16,243,243,215,246,2,254,15,19,238,236,238,246,6,2,235,11,6,238,6,252,241,249,0,6,15,247,250,218,240,240,247,255,9,11,17,231,246,215,240,247,0,249,234,252,244,233,220,240,247,0,19,244,249,10,231,209,240,247,0,244,244,12,250,231,218,241,247,0,254,0,254,249,214,219,242,248,0,233,5,234,244,246,249,246,251,0,232,243,10,240,239,215,245,249,0,5,8,249,246,227,237,254,252,0,238,251,251,227,226,251,253,251,0,252,244,239,0,8,246,254,254,0,233,7,1,249,222,20,255,254,0,9,12,224,236,226,15,254,254,0,2,252,239,244,12,240,255,254,0,228,13,13,234,254,28,255,254,0,14,230,241,240,2,35,1,0,0,233,247,254,232,251,241,1,0,0,245,247,255,234,243,26,2,250,0,14,7,225,254,28,253,3,255,1,14,11,225,241,237,28,8,252,1,243,244,244,247,10,0,0,7,0,1,253,2,243,243,42,4,3,0,251,12,239,234,244,7,2,2,1,232,247,228,242,238,22,0,4,1,233,8,7,248,255,21,8,9,0,2,5,13,230,2,10,250,4,1,228,241,16,255,21,42,247,0,0,234,232,246,3,236,8,245,2,1,242,240,230,255,232,6,236,5,1,13,246,20,3,246,34,239,3,1,248,14,19,235,240,20,243,254,1,236,10,252,234,244,45,244,1,0,15,238,247,253,5,9,243,0,0,239,246,242,5,0,44,241,253,1,0,233,241,230,216,25,243,1,0,245,4,234,255,245,10,241,2,1,240,254,229,254,236,15,247,253,1,7,12,245,2,237,25,253,3,1,2,240,17,13,238,6,254,255,1,229,9,239,251,235,26,255,2,1,9,14,231,15,6,7,251,254,1,238,240,233,2,16,2,250,255,1,240,239,4,4,254,4,250,254,1,7,241,14,11,12,247,248,1,1,236,238,2,255,2,242,250,251,1,1,236,245,1,14,213,255,254,1,1,252,231,252,8,211,249,251,1,238,255,249,242,5,254,252,252,1,9,11,0,0,39,248,1,0,0,14,232,7,254,7,224,3,0,0,253,232,20,3,39,242,5,255,0,3,253,247,12,27,224,3,255,0,231,13,16,254,17,198,2,253,0,245,8,243,248,29,215,3,3,0,12,245,13,247,26,218,255,0,0,14,238,242,250,249,220,254,255,255,238,14,244,1,231,228,252,1,255,236,2,237,8,232,220,254,255,0,251,246,241,19,231,208,0,254,0,241,3,237,22,1,236,253,255,255,236,243,1,19,12,247,251,1,255,235,228,228,16,8,230,252,0,255,245,235,8,250,234,16,254,0,0,3,228,255,17,245,236,255,1,255,14,17,8,247,248,5,254,1,0,241,244,243,18,233,250,255,2,0,0,245,226,245,234,15,252,4,255,4,255,240,6,242,241,252,4,0,241,245,14,4,245,15,234,9,0,11,244,234,16,9,32,250,6,255,11,16,232,255,18,27,253,5,255,237,247,2,245,3,17,243,0,255,11,15,3,3,9,5,247,6,255,248,249,232,6,251,25,250,5,255,238,230,243,251,242,15,246,5,255,13,228,14,245,252,5,248,1,255,243,243,8,252,250,11,12,9,255,242,17,240,248,218,34,248,2,255,242,16,230,229,216,14,253,3,255,10,0,248,237,222,11,252,4,0,241,1,7,246,214,50,246,6,0,237,253,0,5,230,13,245,3,0,246,240,6,229,248,26,244,6,0,254,241,239,238,253,45,246,9,0,0,10,1,248,230,25,249,4,0,245,15,246,2,218,29,252,4,1,236,254,18,239,217,42,249,2,1,8,241,1,237,255,20,247,2,0,250,254,21,242,227,4,247,2,0,244,254,8,252,223,43,246,2,0,5,247,244,25,246,31,254,4,0,14,245,14,10,2,37,246,5,0,10,9,2,7,223,34,244,3,1,249,254,254,30,236,25,244,3,1,10,9,230,17,226,237,249,3,1,2,250,230,12,9,11,251,255,1,8,12,1,22,242,245,248,0,0,0,13,247,21,255,242,247,1,1,254,228,242,31,1,239,245,3,0,16,0,242,2,237,228,246,255,1,250,254,235,11,239,1,250,254,0,251,244,19,17,17,4,251,255,0,245,254,7,23,1,226,255,251,1,7,250,8,13,18,236,253,251,0,16,225,246,9,15,218,250,251,1,242,239,6,4,250,226,244,251,0,10,0,252,243,251,253,248,250,0,4,225,11,0,228,237,245,250,1,249,243,239,9,226,220,247,251,0,3,11,11,252,237,252,249,250,1,14,230,248,250,228,245,249,250,0,255,225,236,236,230,229,248,251,0,2,253,244,12,1,1,251,250,1,6,227,16,233,5,6,250,251,0,3,254,248,252,227,244,248,251,0,255,2,15,4,12,225,251,252,0,6,8,249,255,230,16,251,252,0,8,15,7,11,246,13,251,252,0,240,5,18,240,246,245,14,235,0,11,222,12,3,35,248,254,255,0,6,223,12,252,29,25,0,229,0,6,233,246,5,244,251,6,245,255,19,227,18,7,26,32,13,4,255,2,239,22,5,227,27,255,250,255,12,252,253,234,244,1,1,234,255,27,27,240,241,231,238,16,254,254,242,14,246,15,217,10,50,0,254,12,237,221,254,4,18,236,4,255,232,17,251,241,243,9,227,8,255,29,20,25,3,207,31,229,3,0,224,4,18,219,214,24,239,12,0,228,4,242,9,203,218,249,3,1,0,220,23,243,218,15,2,5,2,254,252,0,216,218,4,4,8,2,3,0,229,4,241,239,12,245,3,230,232,16,242,3,230,24,3,4,7,25,251,220,14,12,3,26,4,3,27,22,2,225,9,23,35,5,24,232,16,207,35,253,32,33,5,6,237,19,209,35,255,53,40,4,235,221,9,10,253,42,48,13,4,238,28,226,220,12,248,34,13,4,26,254,237,249,2,248,19,6,4,252,236,7,234,20,58,59,246,3,12,224,249,219,6,46,29,245,3,242,28,24,6,251,21,64,12,2,249,3,22,226,50,46,55,1,1,250,13,3,214,40,54,47,239,0,223,254,5,217,50,76,97,248,255,246,237,248,223,49,44,87,20,254,244,250,246,225,19,74,70,30,253,15,0,37,253,1,53,77,16,252,221,243,251,251,33,42,55,254,251,9,233,6,239,38,56,69,250,251,6,7,245,6,29,13,66,239,250,26,18,22,238,19,254,45,4,249,225,235,242,231,24,38,41,16,249,227,27,30,232,247,247,59,26,248,222,225,1,9,244,20,44,24,248,245,22,247,28,247,234,46,6,248,221,241,37,242,217,30,45,7,249,253,31,31,12,249,31,32,20,250,26,12,5,15,239,232,9,250,250,16,5,229,17,220,234,9,2,251,7,222,251,38,246,245,251,25,252,229,30,243,34,199,18,5,12,253,240,228,12,28,220,3,253,22,254,229,243,229,252,245,236,3,7,255,227,255,11,18,193,11,239,3,0,233,247,248,24,248,231,234,9,1,233,222,12,238,190,239,249,18,3,253,2,246,239,219,246,240,30,5,24,238,35,231,202,242,235,16,7,225,11,232,241,6,244,254,16,8,219,10,239,1,245,252,6,13,10,3,236,232,249,230,11,42,22,10,238,229,23,47,21,217,30,14,9,248,13,249,39,26,1,3,13,8,250,10,5,34,7,1,2,5,6,247,19,243,61,39,5,18,8,4,235,227,2,64,244,11,244,29,2,29,237,33,53,251,233,243,16,1,224,255,250,35,23,8,245,27,0,24,21,235,6,249,223,1,34,0,230,20,231,21,13,238,3,38,0,235,229,8,8,30,213,43,26,0,10,231,8,59,34,188,253,246,0,237,20,18,7,5,187,49,5,0,1,4,23,10,247,213,28,241,0,251,223,226,239,36,245,42,8,0,24,227,227,24,28,201,34,228,0,249,13,244,10,7,226,250,12,0,241,239,234,17,25,239,24,243,1,231,3,29,246,234,214,51,236,1,11,222,32,7,31,228,26,5,1,255,33,16,3,233,24,31,240,2,234,225,242,239,248,22,78,1,2,21,235,248,222,1,35,53,244,2,240,231,222,6,248,41,47,15,2,228,245,243,10,4,239,83,0,2,25,244,21,241,249,15,73,21,2,2,230,18,242,22,39,58,18,1,250,3,21,234,60,6,50,233,0,232,16,250,237,57,24,59,235,0,16,249,24,26,251,59,77,255,255,22,35,249,8,39,251,50,10,254,32,232,37,240,37,30,65,11,254,7,244,32,17,32,22,52,9,253,21,237,11,27,236,37,32,6,252,12,26,16,252,233,47,29,13,251,29,9,245,5,1,54,9,15,251,12,21,246,0,241,18,11,3,250,26,235,25,236,4,25,13,20,250,238,4,32,229,17,14,0,16,250,32,22,245,15,225,30,248,31,251,1,250,247,235,5,46,245,26,251,31,4,247,249,250,35,27,22,252,14,255,233,24,252,253,14,250,253,228,226,242,231,252,8,15,31,254,227,231,28,246,204,6,240,15,255,22,30,11,225,244,231,235,21,0,241,22,10,233,228,37,253,249,0,29,238,238,228,241,4,229,243,1,2,241,25,22,244,227,241,251,1,229,239,3,19,23,25,22,242,1,1,237,21,2,254,245,29,250,1,21,0,26,248,241,242,31,251,0,10,234,36,17,233,19,1,254,1,235,241,24,248,225,248,245,2,1,229,247,40,18,2,12,10,5,1,20,250,36,222,221,19,11,10,1,255,222,33,233,231,221,8,247,1,26,27,16,7,238,5,6,5,1,250,252,12,237,21,20,25,5,1,29,5,230,23,26,5,17,6,1,6,226,19,240,20,1,10,234,1,34,248,253,252,6,7,26,239,1,236,13,246,29,252,214,0,10,0,243,1,247,5,222,254,235,247,0,25,26,234,28,229,249,5,6,0,4,3,252,243,8,253,241,240,0,234,251,237,15,5,224,251,249,0,0,243,17,242,237,254,243,1,0,23,244,229,12,15,4,246,246,0,229,249,223,221,232,222,246,228,0,248,252,222,247,17,235,247,244,0,230,246,4,244,250,240,245,244,0,247,254,224,253,233,224,246,6,0,241,237,247,224,25,232,8,255,0,10,16,2,2,9,13,254,8,0,238,26,2,221,7,8,8,0,0,251,236,222,15,252,228,9,7,0,229,25,4,248,24,13,4,254,0,225,8,240,15,243,31,0,2,0,234,241,21,28,255,29,2,8,0,12,238,233,8,252,234,251,252,0,253,14,219,11,246,255,11,1,0,16,22,251,13,12,239,251,8,0,223,241,233,251,17,26,6,254,0,245,8,238,31,255,244,14,255,0,252,0,3,248,253,41,6,247,0,249,243,28,244,225,240,250,9,0,7,29,26,250,242,252,14,20,0,231,24,0,17,233,40,251,25,0,245,246,253,26,227,244,6,15,0,19,254,248,249,8,42,26,255,0,10,250,22,6,11,254,8,8,0,230,10,236,225,233,42,1,15,0,19,1,19,25,23,240,17,20,0,6,0,6,247,242,14,248,6,255,5,13,18,253,25,9,14,0,255,17,26,253,249,0,19,11,17,255,4,227,242,13,32,244,11,237,255,1,20,18,221,1,12,3,19,255,227,25,254,255,32,4,10,15,255,17,237,235,4,31,15,242,20,255,9,250,19,229,9,21,4,248,255,246,243,4,229,5,248,17,7,255,5,16,223,248,255,244,4,3,255,236,21,24,235,26,238,21,252,255,222,254,26,254,242,240,2,9,255,254,15,238,0,24,238,15,16,255,24,22,6,22,11,19,11,253,255,3,254,250,19,32,228,23,20,255,222,1,28,13,240,245,10,5,255,12,26,224,4,235,19,243,252,255,4,240,17,242,215,255,237,252,255,10,246,5,36,243,211,252,17,255,4,232,250,33,4,212,255,252,255,251,252,26,4,250,3,9,6,255,9,255,248,33,5,252,239,1,255,13,14,11,11,0,227,252,0,0,12,224,29,249,4,231,249,8,0,0,237,2,7,237,253,237,255,0,228,252,10,226,12,223,232,1,0,250,237,228,223,231,21,235,3,0,4,27,224,13,217,239,250,10,0,223,247,255,236,247,252,0,255,0,16,251,1,4,218,2,254,2,0,254,231,26,218,17,233,243,249,1,229,7,247,252,12,0,237,6,1,18,222,226,228,10,243,238,249,1,12,7,226,246,17,1,230,10,1,237,17,0,3,250,246,244,251,1,225,222,3,232,243,0,238,237,1,249,230,24,217,205,5,234,8,1,7,245,225,216,220,220,239,5,1,251,243,9,221,14,251,223,3,1,24,240,26,253,239,19,236,9,1,4,1,232,237,18,8,233,254,1,234,248,5,227,211,242,231,255,1,250,15,9,243,8,238,235,5,1,12,24,242,8,247,247,241,2,1,235,231,6,8,13,210,222,16,1,236,242,246,239,4,251,243,11,1,245,226,255,239,243,225,227,252,1,13,242,25,12,8,211,251,0,1,26,218,252,19,240,234,245,10,1,243,219,247,27,250,17,240,241,1,242,254,247,40,230,210,252,0,1,233,226,226,242,237,3,240,241,1,249,11,249,243,32,231,0,11,1,20,242,232,21,255,211,4,14,1,240,1,241,1,12,5,6,250,1,244,240,229,236,25,239,250,11,1,236,250,25,251,21,221,255,9,1,19,240,224,237,43,227,241,247,1,228,23,16,14,23,208,5,247,0,1,22,3,231,19,226,253,5,0,244,20,249,218,27,16,251,246,0,2,229,237,249,11,12,14,6,0,245,10,5,219,236,238,11,255,0,245,251,8,219,232,238,254,9,0,11,242,3,6,255,28,26,2,0,250,241,7,216,1,13,15,2,0,241,250,238,3,29,0,17,2,0,227,233,14,218,5,32,20,249,0,240,234,21,252,6,2,18,253,0,19,16,226,251,233,25,13,245,0,8,229,248,8,235,34,6,246,0,230,11,238,6,15,24,3,251,0,7,241,252,12,227,5,11,7,0,235,20,3,2,245,11,9,243,0,3,14,224,17,26,33,13,240,0,226,20,1,22,5,8,4,2,0,235,16,254,236,248,238,5,243,0,6,228,22,25,229,13,13,243,0,14,239,232,18,231,230,10,244,0,239,21,0,248,247,13,17,239,0,253,14,15,246,32,223,6,253,0,243,245,20,233,246,17,16,245,0,226,16,251,251,23,19,6,2,0,255,18,7,238,236,13,4,242,0,25,223,233,24,7,227,10,250,0,16,1,219,230,12,22,9,2,0,21,5,233,241,251,3,1,5,0,10,23,247,17,249,5,248,23,254,7,28,20,22,18,236,2,13,254,25,28,20,255,14,38,22,29,254,32,250,22,27,249,35,243,0,255,9,235,237,27,253,4,3,18,255,32,0,12,224,229,25,255,250,255,9,223,20,5,4,250,30,249,254,11,15,25,228,8,26,26,29,254,22,253,33,243,24,241,252,17,254,19,29,24,228,22,38,226,2,255,244,6,11,18,14,239,210,252,255,254,236,231,33,231,237,233,245,0,35,239,227,222,222,5,224,23,1,229,232,37,8,244,251,213,1,2,34,22,249,0,235,18,201,253,3,224,22,29,220,228,0,201,242,4,16,13,18,3,11,241,217,243,5,10,233,254,228,253,219,222,241,5,4,253,24,238,19,242,218,235,5,27,6,14,206,3,241,230,224,5,25,226,248,4,209,237,251,249,5,11,241,236,3,216,1,226,244,5,12,224,3,237,247,233,221,227,5,245,226,0,253,237,197,238,255,5,26,21,7,237,225,202,245,251,5,228,32,233,216,11,247,245,225,5,230,0,3,12,221,211,217,3,5,18,234,27,22,213,238,236,226,6,240,1,5,251,5,187,202,0,6,252,220,29,227,224,205,183,239,6,222,27,221,35,211,232,180,253,7,14,29,252,5,1,188,168,254,7,243,236,3,16,220,216,211,14,8,246,241,2,38,203,205,200,12,9,7,225,17,0,234,244,229,3,9,245,244,250,13,230,2,233,17,11,21,14,247,24,242,248,250,234,12,222,26,248,7,231,15,232,249,13,251,247,222,16,234,7,26,7,14,1,17,21,30,211,34,250,5,15,220,245,230,35,10,7,7,250,15,12,221,254,8,211,0,249,252,15,5,240,241,2,219,29,10,241,15,5,19,255,248,1,221,238,246,15,252,242,250,220,245,29,251,248,14,19,12,226,252,11,242,244,2,14,32,253,249,0,255,14,244,229,13,227,254,222,223,5,28,39,243,12,245,252,248,249,52,251,36,10,10,223,18,225,210,32,223,43,242,9,226,226,252,229,32,228,49,225,7,3,223,239,8,61,9,30,21,5,233,28,246,223,47,228,32,13,4,221,12,229,218,39,21,53,7,2,24,1,7,220,6,12,11,236,0,4,251,226,245,34,253,25,14,254,0,32,3,20,251,38,1,1,252,248,226,0,34,14,17,1,241,250,14,27,30,41,240,6,1,248,249,7,8,25,13,40,32,252,252,248,17,13,8,23,234,15,12,22,248,8,12,3,242,36,30,249,12,248,22,33,230,36,251,228,12,241,248,31,22,237,31,8,38,21,8,249,12,34,227,243,37,13,37,241,249,224,247,8,2,16,229,4,252,249,255,229,252,1,26,3,39,18,249,25,23,31,237,49,0,245,28,248,21,29,240,239,33,26,7,250,247,29,31,248,16,242,255,27,27,246,25,238,240,221,240,36,4,26,245,224,1,223,24,45,20,42,1,244,30,0,10,13,27,6,249,28,243,7,8,16,230,49,10,9,44,242,5,234,3,246,14,24,19,14,241,227,235,1,235,241,34,14,42,240,242,1,228,9,1,13,8,240,239,23,26,230,214,35,19,238,252,238,232,243,234,217,20,43,251,249,238,10,2,224,233,13,10,250,27,237,3,1,230,205,231,63,252,17,237,246,243,19,248,15,51,232,41,238,29,22,249,190,247,2,216,23,238,239,6,236,225,232,22,13,251,239,225,27,245,213,190,48,254,251,241,239,22,33,224,182,62,237,38,243,244,234,10,12,182,248,215,22,244,25,247,250,12,198,32,225,255,247,15,15,3,221,232,21,224,0,249,6,33,250,32,184,23,1,12,251,223,224,240,253,242,40,231,23,252,15,238,243,33,204,21,230,243,253,216,243,18,5,9,251,229,16,254,246,237,4,4,9,27,241,11,255,26,233,32,16,240,0,209,244,255,232,33,38,46,1,252,227,4,255,233,30,233,248,226,7,201,248,254,231,250,3,248,6,254,249,242,254,5,29,3,25,18,17,232,251,253,247,241,29,35,26,12,241,32,253,217,249,240,48,232,251,249,23,253,0,231,241,3,237,23,247,27,253,28,11,4,35,240,225,231,9,253,22,255,20,18,240,17,235,15,254,219,224,8,251,231,6,5,254,254,224,251,227,41,23,11,220,1,254,247,14,252,2,218,242,252,40,254,224,4,32,9,216,242,189,251,254,5,239,1,7,14,233,233,2,254,254,21,235,234,216,20,242,23,254,241,232,27,249,239,255,254,2,254,247,27,7,35,22,226,249,1,255,253,251,243,237,240,27,240,21,255,241,0,14,17,3,222,246,247,255,230,27,37,32,7,24,18,16,255,255,219,241,20,5,9,246,2,255,234,31,0,37,5,4,234,254,255,20,12,33,6,220,250,239,250,0,236,9,2,242,4,225,255,245,0,15,14,37,233,230,221,10,15,255,16,12,234,7,8,222,10,15,0,237,6,250,252,17,225,11,13,0,240,233,7,249,235,237,11,11,0,25,224,7,3,28,32,0,8,0,237,9,22,238,8,20,6,9,0,9,6,13,248,1,225,7,9,1,222,230,14,1,241,229,224,241,0,14,3,8,16,14,12,2,16,0,25,21,9,235,250,13,249,12,1,234,19,233,244,11,27,2,15,0,228,226,250,236,220,221,247,253,1,17,221,19,222,15,235,249,8,0,22,223,225,234,211,247,252,5,0,237,231,249,249,250,19,244,2,1,3,9,235,13,227,236,248,255,1,21,25,9,4,211,246,248,247,1,2,247,241,240,222,255,249,255,1,22,26,245,13,244,226,248,233,1,224,235,255,10,18,25,246,4,1,9,12,243,248,251,220,249,250,1,9,232,243,4,23,237,237,238,1,223,9,14,8,238,15,248,240,1,18,17,4,247,21,233,250,246,1,245,243,253,247,21,22,255,247,1,5,3,5,22,231,8,1,17,1,19,9,1,18,223,236,14,247,1,24,233,7,24,23,229,9,250,1,245,251,222,3,6,242,6,252,1,26,232,226,24,243,237,21,249,0,10,254,11,227,8,244,20,248,0,254,233,9,9,15,248,4,10,0,232,247,15,244,24,250,8,10,0,219,22,246,253,10,253,18,20,0,6,13,219,233,39,5,12,245,0,236,12,239,24,13,243,18,255,255,253,251,27,12,1,15,24,6,255,1,9,233,250,17,251,5,247,255,240,223,219,5,4,229,17,251,255,9,219,221,8,2,236,19,8,255,23,16,14,240,7,5,5,4,255,232,232,6,5,32,231,11,245,255,222,16,239,17,27,14,19,246,255,243,18,225,243,28,11,17,7,255,252,255,3,235,22,230,12,6,255,253,245,253,2,252,19,17,13,0,12,11,6,236,19,228,8,24,0,251,3,27,251,4,21,13,12,0,239,248,239,236,20,224,5,2,0,8,22,1,11,240,232,254,2,0,9,24,25,234,229,31,7,4,0,20,29,0,26,18,19,8,3,0,225,26,243,254,19,240,10,9,0,21,245,25,13,243,23,10,11,0,14,237,17,228,233,2,11,11,0,1,18,18,31,26,19,7,14,1,13,222,20,227,251,13,6,252,0,249,5,251,250,18,18,0,249,0,244,242,246,6,7,20,1,1,0,7,238,0,248,246,221,253,7,0,20,28,241,254,18,242,2,17,0,254,27,24,9,10,220,2,252,0,11,221,12,15,238,225,252,16,0,7,255,9,27,9,219,252,14,0,5,3,223,255,227,245,246,11,0,255,250,4,249,18,13,251,15,0,9,222,253,16,9,244,255,11,0,13,255,5,243,252,223,248,9,0,229,25,10,225,247,229,3,0,0,4,3,239,236,217,248,248,254,0,226,5,18,1,5,250,237,0,0,221,243,21,242,16,207,246,247,0,7,252,220,251,254,233,247,10,0,226,250,22,220,231,205,2,1,0,224,16,17,14,215,245,5,7,0,225,11,221,236,218,225,6,245,0,22,239,9,234,217,237,240,19,0,6,248,19,23,239,210,239,253,0,0,16,13,250,6,2,245,8,0,238,245,18,251,225,4,254,253,0,21,8,246,242,247,239,248,1,0,236,17,252,2,252,1,8,3,0,2,4,16,237,11,230,1,255,0,245,220,221,240,243,208,1,252,0,24,20,4,8,30,218,2,245,0,19,250,20,239,254,231,3,247,0,231,5,26,0,13,11,5,250,0,19,233,250,236,17,4,1,248,0,244,244,232,235,246,238,252,250,0,20,230,221,228,247,246,1,1,0,250,225,239,230,1,218,255,255,0,247,25,6,8,25,13,14,253,0,231,27,219,12,1,246,250,2,0,241,225,250,215,240,2,8,5,0,221,8,1,226,247,245,10,4,0,17,18,229,7,22,14,6,253,0,24,16,248,241,249,20,7,2,0,10,223,244,16,0,220,1,7,0,7,225,9,1,28,240,20,0,0,239,224,15,248,241,18,6,1,0,11,237,250,224,0,253,21,5,0,22,247,255,239,230,17,9,9,0,230,222,241,248,13,233,12,9,0,235,244,24,243,251,3,16,10,0,238,16,226,6,247,18,19,3,0,220,220,1,228,11,254,10,7,0,8,3,253,0,10,252,21,10,0,23,2,249,4,237,253,14,13,0,229,228,218,252,243,33,22,9,0,241,252,253,11,24,231,19,2,0,249,223,11,225,16,242,11,254,0,237,231,17,228,224,18,12,14,0,15,6,23,22,237,21,13,2,0,14,230,219,247,246,2,15,0,1,220,28,17,21,239,224,9,8,1,13,255,251,244,29,21,13,1,0,237,227,5,238,235,29,12,2,1,6,220,25,244,226,30,12,14,0,236,237,16,240,249,15,12,10,1,238,243,1,250,14,236,1,5,0,1,20,250,255,11,20,248,15,0,10,221,1,19,235,223,251,255,0,229,1,4,15,18,20,253,6,0,251,238,240,10,2,11,250,11,0,3,243,240,1,226,24,251,3,0,228,229,231,16,247,239,246,11,0,18,2,241,24,23,223,25,10,0,241,16,21,3,6,232,247,2,0,235,229,11,235,254,252,254,250,0,16,221,10,253,24,245,249,255,0,13,23,21,0,18,3,251,255,0,16,222,16,8,228,244,254,5,0,228,10,8,23,3,221,255,7,0,1,225,240,249,246,24,252,2,0,221,227,7,246,232,227,249,4,0,9,17,239,5,22,232,251,1,0,235,8,244,17,3,9,247,6,0,10,11,21,4,9,9,251,231,0,231,221,251,2,10,14,244,1,0,222,239,23,8,248,254,250,2,0,241,9,254,6,230,251,250,251,0,224,24,11,15,216,1,247,254,0,237,223,15,15,21,18,246,251,0,11,223,231,18,217,17,241,255,0,1,247,237,240,248,230,227,3,0,21,254,246,230,224,3,237,13,0,229,16,240,8,11,222,252,7,0,254,8,225,229,248,226,241,4,0,12,10,223,234,248,12,242,255,0,253,12,7,246,214,212,229,5,0,23,7,220,252,17,8,234,253,0,237,235,253,23,236,254,233,9,0,19,240,221,239,4,244,240,1,1,17,0,223,244,247,9,246,255,0,1,24,251,13,217,233,245,253,1,14,234,230,250,243,1,253,8,1,245,231,0,0,225,232,0,255,1,231,228,248,250,18,252,252,11,1,20,244,17,9,12,2,255,4,1,9,251,230,0,3,251,2,7,0,24,14,251,252,245,246,253,4,0,8,227,1,2,230,233,253,10,0,22,218,228,235,22,245,4,251,0,20,226,222,243,12,248,18,1,0,253,219,5,230,1,251,21,12,0,247,235,6,15,26,15,3,247,0,1,10,235,12,250,224,8,6,0,234,239,220,242,250,253,13,10,0,12,224,2,16,28,222,13,2,0,23,253,5,18,2,15,11,2,0,9,254,249,251,250,234,7,6,0,16,254,222,243,38,225,9,2,0,224,0,221,236,37,232,7,5,0,12,248,3,237,3,13,9,4,255,15,18,13,240,35,251,9,10,0,11,236,24,231,17,240,15,251,255,247,23,233,15,4,20,0,6,255,246,253,225,246,19,1,7,10,255,11,226,245,234,18,5,254,255,0,244,226,7,12,254,250,249,251,255,5,21,248,223,242,24,253,253,255,15,221,234,250,226,236,255,3,255,254,241,14,224,9,21,252,2,0,6,229,231,252,223,235,0,251,0,8,23,9,239,250,0,253,254,255,254,19,221,230,244,254,0,253,255,226,247,5,12,240,229,241,248,255,6,0,249,238,14,18,2,254,0,232,15,244,18,232,254,20,2,0,4,251,22,18,249,247,249,1,0,248,251,253,9,249,25,247,10,0,241,226,0,7,219,239,241,6,0,250,246,225,246,9,13,247,5,0,227,253,23,246,217,249,244,5,0,226,221,18,233,219,25,241,3,0,245,222,22,223,233,248,251,17,0,229,229,16,0,234,22,252,11,0,242,247,218,226,244,4,241,253,0,11,21,18,229,236,242,230,5,0,240,240,234,245,250,243,238,0,0,3,221,23,10,7,8,242,4,0,15,241,222,231,10,255,239,0,0,15,8,0,1,232,216,242,2,0,251,18,245,4,246,215,238,254,0,225,254,6,18,231,221,235,1,0,22,14,223,236,7,223,246,255,0,9,233,0,19,11,1,239,3,0,3,21,4,11,2,8,246,6,0,240,239,222,20,252,14,252,254,0,9,253,222,11,247,252,246,0,0,235,255,222,8,250,223,252,0,0,17,14,243,24,19,229,255,248,0,228,235,25,13,224,247,254,2,0,17,5,222,15,245,20,252,254,0,6,23,229,6,10,255,252,248,0,244,229,230,225,226,243,248,253,0,250,223,219,22,2,13,3,254,0,249,4,10,231,252,226,1,5,0,253,227,13,224,17,235,249,3,0,7,11,22,23,239,234,2,0,0,226,241,15,21,251,246,1,251,0,16,227,223,239,241,19,6,1,0,3,253,237,251,3,235,3,254,0,6,244,4,240,234,246,7,6,0,245,236,22,15,10,8,255,254,0,229,6,246,16,237,8,255,6,0,238,2,21,230,240,240,0,3,0,7,230,242,255,243,246,8,4,0,223,234,2,0,25,240,11,252,0,246,255,219,2,230,250,11,5,0,13,224,253,241,14,19,7,2,0,244,11,6,6,21,9,6,253,0,15,239,233,20,247,220,3,0,0,12,7,5,231,243,243,2,3,0,8,235,251,245,228,220,0,254,0,238,14,13,254,22,7,1,253,0,244,24,236,251,4,223,0,6,0,245,16,1,6,2,237,252,252,0,10,223,220,226,238,9,75,9,3,254,239,4,31,11,46,62,19,3,230,11,18,12,14,13,72,43,2,20,0,245,244,56,28,50,47,1,12,1,254,24,22,64,69,51,0,226,237,36,11,33,37,58,13,255,239,253,23,236,10,30,70,6,254,16,248,2,51,41,30,244,5,253,7,236,244,251,55,25,54,15,253,250,33,231,53,4,19,58,14,252,2,25,23,39,14,248,41,21,252,16,6,229,22,40,223,58,1,251,14,13,236,45,249,252,38,27,251,23,0,241,46,4,227,19,18,251,36,10,239,244,238,213,59,2,251,28,27,249,51,226,1,58,23,251,225,254,8,248,29,6,42,23,251,25,19,239,24,27,212,35,21,251,227,24,241,240,239,196,3,229,252,246,252,5,22,247,0,11,2,252,16,29,243,4,3,211,247,3,252,240,32,240,6,15,210,28,244,252,248,21,21,246,243,214,250,239,252,29,1,23,31,216,209,15,230,253,228,252,11,20,242,207,30,246,253,247,15,232,6,249,242,47,229,253,253,233,8,15,248,209,25,251,254,20,242,5,42,22,233,19,220,254,231,29,236,44,251,251,40,237,254,14,8,219,240,2,231,71,1,254,227,31,18,241,0,252,38,8,254,231,3,241,26,249,229,44,254,253,231,248,20,16,244,219,33,237,253,27,224,250,1,34,0,28,227,252,18,9,30,27,31,194,56,8,251,21,16,249,1,240,241,30,10,250,227,10,247,28,6,200,2,255,249,240,22,26,251,17,207,16,247,249,8,245,28,233,255,209,23,252,248,27,24,250,239,220,208,229,2,248,25,38,232,253,211,253,199,10,248,233,0,232,244,208,231,204,239,247,36,246,12,33,2,220,237,15,247,235,254,19,32,204,6,240,13,247,234,9,30,24,250,35,249,233,247,39,0,237,23,245,35,223,253,247,20,227,240,247,227,24,236,14,248,249,255,230,217,240,30,252,254,248,244,237,251,21,237,42,23,36,249,12,243,224,225,195,28,8,2,250,1,241,11,15,236,253,245,19,251,22,6,235,245,219,38,240,6,253,240,255,6,242,203,18,223,236,254,21,232,229,227,241,57,236,255,0,17,236,17,219,224,40,210,249,1,15,19,233,216,216,48,255,238,3,1,0,25,226,21,52,242,233,3,29,21,245,232,213,0,7,19,4,249,250,16,229,251,249,32,17,5,236,252,238,18,239,47,12,16,6,244,225,16,7,255,12,55,249,6,241,255,33,1,34,235,40,248,6,243,10,224,215,2,251,21,235,6,238,252,246,240,250,38,68,247,6,0,239,16,230,247,37,29,16,6,23,15,244,241,245,23,73,253,6,2,250,222,2,14,7,73,15,7,14,245,240,7,254,23,62,246,7,30,7,13,236,19,244,74,242,7,25,242,13,233,26,6,28,4,7,25,229,249,224,28,254,48,4,7,26,16,237,245,3,229,50,0,7,32,9,233,223,9,14,53,225,7,225,232,0,35,38,231,76,241,6,225,15,0,9,19,233,36,254,6,27,24,231,254,16,18,85,1,6,232,239,18,251,250,250,50,20,6,238,32,237,14,33,215,2,228,6,230,33,250,9,9,255,74,4,6,236,25,13,16,52,240,76,6,5,252,238,31,237,17,224,36,229,4,22,6,4,7,4,254,74,244,3,15,1,29,235,51,236,92,250,3,32,30,226,227,238,255,48,245,2,3,240,245,21,40,222,74,227,1,20,29,20,28,3,3,30,14,0,242,22,237,231,7,212,37,233,255,26,251,235,238,242,218,23,13,254,239,39,27,237,46,232,70,2,254,246,20,19,255,252,7,48,236,253,27,253,247,11,229,215,45,22,252,33,22,254,248,227,10,63,3,252,235,25,6,226,224,243,41,253,252,240,37,235,236,4,239,45,11,252,34,231,226,218,220,238,36,246,251,12,12,10,230,218,10,34,243,251,252,39,32,232,16,0,33,19,251,8,2,13,221,243,232,242,251,251,252,255,17,253,218,245,232,250,251,9,241,9,21,240,235,2,18,250,255,30,245,234,205,30,0,26,250,224,237,27,231,15,31,7,11,251,245,9,221,32,205,7,245,0,251,238,242,15,14,247,254,228,5,252,9,9,0,251,233,13,241,27,252,228,23,241,255,213,31,236,25,253,30,248,22,32,225,250,251,13,253,28,38,253,34,226,16,247,18,253,22,29,223,243,226,21,249,31,253,13,34,30,4,28,249,228,43,253,23,4,248,234,216,253,247,31,253,33,254,245,16,233,243,19,8,253,240,9,31,19,226,15,19,25,253,13,247,238,20,246,244,21,36,254,28,237,229,0,252,247,13,38,254,0,237,250,2,3,251,17,11,254,27,249,254,0,230,237,245,15,254,13,2,248,22,238,252,17,28,254,230,246,231,10,247,224,13,22,253,232,8,24,232,252,12,20,14,0,7,9,15,0,7,37,21,15,0,6,230,13,237,243,249,22,15,0,17,8,248,2,14,42,20,15,0,7,12,15,240,0,8,24,17,0,240,252,240,229,15,13,22,15,0,255,241,19,249,254,23,20,18,0,10,10,7,17,6,32,30,13,0,230,6,232,239,233,9,21,11,0,245,6,1,9,238,24,3,9,0,246,252,227,240,6,11,3,9,0,251,243,252,2,232,244,255,5,0,253,2,16,5,222,241,0,4,0,229,250,239,247,6,251,2,5,0,7,254,249,238,215,216,1,4,0,15,235,241,245,244,249,1,4,0,235,233,0,252,234,210,255,4,0,239,249,239,232,231,0,2,2,0,240,228,227,4,252,210,254,232,0,228,0,0,2,238,230,1,3,0,231,1,4,5,216,254,253,7,0,233,236,6,6,226,214,9,0,0,236,231,1,238,244,219,7,2,0,245,8,228,243,17,221,3,255,0,235,3,8,5,245,232,5,252,0,230,226,228,237,6,232,12,250,0,232,16,236,11,254,239,17,254,0,253,3,14,240,243,229,24,254,0,242,227,3,254,15,254,24,251,0,3,226,242,9,251,239,33,253,0,3,17,248,234,253,237,35,252,0,248,246,234,245,255,246,24,7,255,248,10,1,252,7,234,21,1,255,238,4,244,231,13,248,20,2,255,238,15,7,247,13,247,20,254,255,252,226,225,245,248,246,24,7,255,0,247,251,6,8,232,24,4,255,13,10,5,249,30,1,20,5,255,250,18,3,243,249,245,16,253,255,0,4,245,237,251,227,11,2,255,251,16,254,246,252,240,8,3,255,253,7,243,5,239,245,9,5,255,249,245,5,240,242,8,13,3,255,255,8,228,1,0,249,15,5,255,246,226,253,243,226,11,16,3,255,255,241,15,231,10,24,12,5,255,15,236,234,245,224,245,6,12,255,5,242,235,237,254,251,18,10,255,16,6,0,12,255,25,15,9,0,10,240,15,10,249,249,11,9,0,232,18,226,4,245,11,11,9,0,253,230,0,241,234,246,3,5,0,253,8,245,237,224,24,5,7,0,230,234,239,14,8,16,4,9,0,254,241,236,2,240,242,5,6,1,3,246,250,240,222,34,8,9,0,0,241,254,251,15,247,13,9,0,9,3,235,3,232,29,20,7,1,242,232,2,253,14,239,14,11,1,8,241,236,7,245,28,11,8,1,234,0,2,255,228,255,4,7,1,5,239,236,252,12,229,6,3,1,242,242,241,251,238,222,5,6,1,230,240,21,10,5,233,255,5,0,9,13,237,244,241,220,254,5,0,3,234,227,247,254,212,1,3,1,249,229,12,241,229,211,253,2,1,250,241,16,3,240,253,3,254,1,10,245,4,6,230,251,1,0,1,9,239,5,2,244,208,26,249,1,246,241,245,252,0,234,7,249,1,8,0,1,242,221,244,5,251,1,10,251,8,0,249,226,10,6,1,6,249,2,250,246,206,5,252,1,235,5,247,9,6,252,7,253,1,247,232,255,8,20,240,9,250,1,251,242,246,245,14,228,5,8,1,235,8,227,15,0,220,1,0,1,230,253,249,253,251,236,12,0,1,7,227,10,255,6,247,13,255,1,244,226,241,6,20,215,12,255,1,238,2,12,7,248,226,20,249,1,14,226,240,239,241,221,23,252,0,241,233,251,19,12,220,20,1,0,233,254,229,252,24,228,13,1,0,3,252,227,254,245,220,26,253,0,10,5,248,6,246,2,14,5,0,248,238,4,11,16,228,17,2,0,13,240,232,246,31,215,15,255,0,245,15,241,5,16,245,13,3,0,241,246,246,239,26,3,18,2,255,234,242,236,232,5,249,38,252,255,246,236,239,2,240,228,11,1,0,3,231,222,227,4,14,9,2,0,242,16,3,234,18,233,9,2,0,250,247,249,220,251,7,6,3,0,248,254,1,2,238,222,11,8,0,5,250,252,219,5,1,7,5,0,0,232,5,225,224,6,7,3,0,248,232,3,243,244,229,15,1,0,8,16,10,220,247,14,13,7,0,8,0,238,251,241,250,7,7,0,230,237,227,220,255,15,5,8,0,233,248,240,249,5,254,5,4,0,251,0,228,7,4,14,6,5,0,247,2,1,232,15,12,13,2,0,232,8,223,10,245,244,19,1,0,2,0,234,233,250,253,20,2,0,4,16,242,8,236,11,20,2,0,233,0,240,249,9,235,19,1,0,237,8,222,229,0,227,11,1,0,9,243,18,12,244,248,12,2,0,249,18,228,0,7,235,14,0,0,240,244,231,251,0,6,12,3,0,255,232,237,9,243,242,13,2,0,232,254,231,2,252,255,15,2,0,238,11,232,233,236,232,11,0,0,244,3,244,238,8,2,14,1,0,238,234,6,229,253,16,13,1,0,241,17,248,249,5,217,220,253,254,11,240,252,7,225,6,232,228,255,1,234,4,229,249,239,211,241,255,4,24,238,8,255,2,1,234,255,7,226,17,233,229,236,0,13,255,247,245,244,6,252,253,12,8,0,234,226,34,25,248,234,238,217,0,27,247,228,254,35,249,10,4,0,9,238,34,233,254,215,242,251,0,242,15,248,34,31,216,235,250,1,32,9,2,38,36,226,4,221,1,0,34,30,251,5,247,241,2,1,12,255,28,229,49,245,25,0,1,25,230,20,12,248,255,21,8,1,0,223,18,17,17,21,254,8,1,241,2,8,27,50,38,246,245,1,249,17,11,249,49,19,7,26,1,235,0,252,230,19,32,5,246,1,225,27,29,37,25,231,254,22,1,25,228,8,19,37,26,22,250,1,245,1,243,11,252,7,35,239,1,6,244,18,22,19,226,250,49,1,236,20,14,250,226,234,8,7,1,18,248,242,27,17,229,15,13,1,25,11,252,224,239,238,227,32,1,34,22,8,21,24,0,212,28,2,16,227,235,242,17,17,218,251,2,235,246,13,14,247,253,219,1,2,251,22,221,5,208,213,169,28,3,16,255,220,250,236,251,149,1,3,5,236,11,254,2,211,172,246,4,36,24,0,229,229,244,209,23,5,15,3,222,34,221,219,244,6,5,23,35,0,36,213,250,222,20,6,14,237,32,21,207,217,205,15,6,250,2,225,244,245,14,188,225,7,22,230,5,16,251,11,239,28,7,5,25,240,236,197,248,249,7,7,233,29,15,234,188,242,232,247,8,249,244,28,228,196,242,227,6,8,18,19,241,3,232,4,215,5,7,234,246,9,2,209,249,225,246,7,4,20,24,6,201,5,210,233,6,30,3,5,26,7,235,216,237,6,1,5,18,219,243,15,243,223,5,22,230,245,233,212,241,205,19,4,26,241,226,12,254,16,227,252,3,237,235,231,11,227,223,203,21,2,16,23,15,222,16,217,225,226,1,229,253,28,226,35,222,15,227,0,28,221,247,231,17,24,24,3,255,5,229,236,218,235,216,22,6,254,252,241,17,253,48,226,18,241,253,14,230,253,222,10,252,248,250,253,233,255,224,14,45,252,233,8,252,28,0,10,231,20,215,7,11,251,4,235,250,11,249,230,223,0,250,20,13,242,235,233,226,231,241,250,254,17,216,236,18,232,17,5,250,9,251,244,245,41,9,233,19,250,254,240,245,240,242,227,254,18,250,0,5,246,8,32,30,31,14,251,20,25,244,251,24,11,243,3,252,20,23,218,221,239,12,1,238,252,231,226,25,245,43,237,22,15,253,2,23,247,18,13,51,32,2,253,238,236,233,1,9,20,47,27,253,33,13,224,238,38,16,30,15,253,12,28,239,37,33,53,25,4,253,231,1,244,228,248,63,222,11,253,26,13,1,241,10,34,42,33,253,244,21,5,240,24,40,54,42,253,2,252,229,231,44,35,40,30,253,8,1,16,242,3,39,20,29,252,245,14,13,237,34,65,46,45,252,244,239,24,25,19,43,23,15,251,238,29,8,20,11,35,21,26,250,33,254,15,231,4,255,243,236,250,231,243,254,13,233,252,18,34,250,5,7,10,242,4,45,4,39,250,222,25,240,250,225,0,19,12,250,33,236,21,228,234,2,252,6,250,219,9,247,5,204,60,215,39,251,4,244,255,237,10,255,246,17,252,22,0,240,254,249,39,223,42,253,250,23,229,243,197,16,218,32,254,237,238,234,232,245,27,240,40,255,234,6,229,29,242,55,224,17,0,4,251,31,243,220,45,236,11,0,255,247,235,31,228,244,214,41,1,1,228,1,236,196,10,205,3,2,20,239,25,9,10,237,217,9,2,221,219,34,5,210,36,230,25,3,24,4,2,41,221,254,235,22,3,233,26,236,6,225,2,212,247,3,232,27,239,239,6,242,203,253,3,4,25,39,20,218,7,228,4,3,10,25,247,30,223,245,226,1,3,221,25,232,50,15,245,185,14,3,10,11,242,11,238,9,202,8,3,23,17,236,35,2,19,217,24,3,10,11,234,15,235,218,195,249,2,251,223,32,41,29,212,200,9,2,254,5,28,250,216,247,238,236,2,16,21,230,253,0,218,214,9,1,31,15,247,40,227,250,189,26,1,26,217,237,235,6,253,206,250,1,23,232,232,11,20,2,197,27,1,238,3,15,7,237,205,208,253,0,242,255,225,17,24,246,194,34,0,250,16,9,21,255,10,245,10,0,229,234,25,225,16,215,189,6,0,244,237,35,231,231,4,220,254,0,227,7,223,35,254,219,228,248,0,1,244,223,31,2,22,229,15,255,19,234,242,24,27,226,206,17,0,15,251,227,249,236,23,227,13,0,230,244,28,15,12,24,228,7,0,2,244,252,253,243,238,198,246,0,239,5,15,231,32,3,9,20,252,0,11,1,239,26,7,16,15,253,2,242,10,230,8,14,20,12,254,27,232,246,19,4,19,16,13,253,19,249,25,234,237,30,8,18,252,32,13,233,236,233,242,8,18,253,250,229,3,237,232,31,0,8,254,20,3,6,242,235,252,253,5,254,240,27,243,26,235,241,236,11,254,229,12,4,3,8,31,225,6,255,249,8,244,11,230,15,241,13,255,241,22,12,1,3,242,247,2,0,19,255,9,243,251,26,241,0,0,15,5,6,226,218,6,237,255,2,3,20,15,246,216,249,229,252,2,25,237,244,222,250,6,226,254,2,245,24,12,5,252,8,219,249,3,233,17,17,239,211,240,230,254,4,22,1,255,254,218,230,250,222,4,240,11,233,229,226,221,228,243,4,249,3,248,224,226,218,209,1,4,231,18,245,12,235,251,217,236,4,232,226,28,248,12,13,215,239,4,243,232,28,233,5,4,227,236,4,23,255,2,235,221,224,230,244,5,250,252,230,21,234,234,232,4,5,20,17,34,20,238,222,0,4,5,4,231,24,247,29,7,2,3,5,22,252,9,244,238,222,5,8,5,243,253,15,32,25,235,13,248,5,16,4,232,252,19,220,1,255,5,22,232,236,25,20,229,245,248,5,13,230,21,240,23,225,239,247,6,29,26,33,18,30,239,242,253,6,25,22,254,248,2,248,2,245,6,8,238,237,31,251,255,0,252,5,254,230,250,245,5,231,0,0,5,239,26,244,250,28,241,19,245,5,245,4,2,247,45,229,15,5,5,10,243,241,12,18,8,6,252,5,255,253,9,241,20,241,10,245,4,6,248,241,236,45,5,11,0,3,251,17,30,244,53,0,16,1,3,2,230,247,234,27,12,1,250,2,22,26,233,254,15,27,26,10,2,27,4,250,231,5,38,14,240,1,4,232,25,4,53,8,21,254,0,238,26,238,235,43,28,31,2,255,235,248,253,5,37,40,15,251,255,248,3,238,2,5,38,7,253,255,251,32,22,11,15,244,19,2,254,0,243,14,244,48,42,33,245,254,0,15,11,239,50,20,45,243,254,28,6,253,2,1,254,55,2,253,238,9,242,255,51,45,49,2,252,28,255,12,248,22,29,46,3,251,6,248,245,14,247,43,35,2,250,249,14,27,6,253,236,28,248,250,247,20,25,0,245,13,13,6,250,2,234,239,27,251,32,3,0,250,240,16,31,21,219,40,1,5,250,2,14,21,243,250,35,243,6,250,15,18,17,246,223,28,246,5,250,242,244,27,15,232,12,241,5,250,19,9,17,13,13,245,238,8,251,244,22,21,247,12,245,233,7,251,12,241,234,222,231,234,242,1,251,237,253,25,225,233,0,223,230,252,242,2,6,253,211,1,228,245,253,243,246,4,247,222,235,214,245,254,236,25,254,251,212,194,214,245,255,246,28,249,247,14,202,226,235,255,240,31,255,222,240,185,240,240,0,2,23,251,235,255,198,246,242,0,18,21,24,217,220,185,246,244,1,6,20,238,1,7,190,226,242,1,235,235,19,234,232,230,223,1,2,11,10,14,234,249,224,213,239,2,17,11,254,229,20,210,225,239,3,236,252,255,254,228,231,222,241,3,233,12,24,16,226,185,231,240,4,236,242,254,255,248,221,225,248,4,22,12,251,240,235,181,229,236,4,246,243,241,30,14,209,229,229,4,21,247,17,5,28,209,238,235,4,3,18,8,246,253,197,230,228,4,235,20,3,237,15,186,233,231,5,251,232,4,17,20,210,226,244,5,242,250,252,255,233,241,235,251,6,244,4,243,227,234,233,242,229,7,4,234,249,239,33,249,245,231,7,2,232,244,233,242,6,246,236,8,245,30,10,223,245,211,237,237,8,8,19,2,219,248,5,2,246,7,231,19,224,250,242,217,12,239,7,255,242,241,12,40,231,5,236,7,236,17,248,253,0,255,16,241,6,243,249,21,243,30,239,25,244,6,240,12,225,254,0,37,41,243,6,250,28,244,244,20,15,39,248,5,249,8,16,16,12,5,48,242,4,2,2,239,254,28,22,60,248,4,239,232,235,255,39,44,56,2,2,13,28,237,252,34,11,22,9,2,10,5,250,4,23,11,37,10,1,9,250,232,235,252,12,45,8,2,20,3,243,226,248,4,61,0,2,245,253,14,9,23,4,46,1,3,239,23,247,18,13,12,54,2,4,244,11,233,237,38,27,58,3,5,233,241,233,0,0,254,45,2,3,228,10,236,251,12,236,47,0,3,16,233,234,240,33,22,46,6,5,238,20,27,247,254,37,40,4,5,16,232,245,7,26,18,41,5,4,12,4,1,11,244,28,30,6,2,240,0,252,1,254,13,15,9,2,230,31,25,238,34,26,19,9,2,11,246,22,33,253,232,26,9,2,9,242,1,236,9,10,230,231,0,253,8,10,13,255,213,229,210,1,247,20,239,10,10,189,228,214,1,3,22,1,6,231,239,221,225,1,226,13,239,247,211,191,221,219,1,5,21,226,18,239,189,239,236,1,232,11,10,238,14,198,227,219,1,250,247,10,248,225,215,238,248,1,242,249,3,237,15,243,255,232,1,6,22,8,251,242,240,30,232,1,1,231,248,228,252,243,31,236,0,8,245,252,226,36,231,39,252,0,238,243,232,229,53,243,47,251,255,229,241,238,245,44,237,45,253,254,20,249,254,26,7,12,49,252,253,235,232,2,242,16,20,54,255,252,10,26,18,250,23,234,58,4,251,246,28,225,38,25,11,52,2,250,248,254,4,33,56,243,55,36,250,3,232,17,250,22,17,45,16,249,250,232,232,8,6,40,43,7,249,248,235,10,255,8,52,32,18,249,0,27,232,18,29,250,42,24,249,247,14,230,28,12,30,33,5,249,17,245,3,6,36,43,30,26,249,12,32,229,13,17,35,28,241,248,15,233,247,19,253,13,13,10,248,8,26,241,236,0,16,14,12,249,253,17,26,232,2,2,16,7,249,23,25,254,245,237,27,11,251,250,239,30,241,252,249,43,18,9,250,22,246,250,240,24,7,31,8,251,12,241,24,3,232,18,4,13,251,23,29,234,2,4,18,254,251,252,0,234,18,7,8,29,238,18,252,254,7,225,9,7,25,237,8,253,19,17,13,12,249,14,230,4,253,243,23,3,2,244,0,233,11,254,242,251,246,230,231,20,232,8,254,2,11,19,249,236,245,251,14,254,250,9,239,239,0,11,243,253,255,17,28,238,3,238,26,220,10,255,2,250,6,30,4,12,242,254,255,244,255,250,2,239,14,255,246,255,226,3,230,1,222,235,228,247,255,238,12,10,8,232,220,235,11,255,12,243,248,10,205,250,222,251,255,5,9,245,248,209,251,209,245,0,229,248,251,23,209,210,225,1,0,230,10,6,10,232,214,241,3,0,236,8,244,4,209,245,233,248,1,230,226,246,252,245,253,229,4,1,252,230,24,237,208,241,222,4,1,246,9,250,252,220,207,198,243,2,10,5,11,247,197,221,215,246,2,253,3,15,252,206,230,217,255,3,228,224,250,210,251,250,221,252,3,6,243,241,224,3,227,231,253,4,240,227,7,243,233,13,244,243,4,229,24,228,8,25,13,248,253,4,243,237,8,0,238,255,246,1,4,240,226,226,4,20,223,11,1,3,6,0,234,224,12,16,245,254,3,227,11,240,239,27,249,5,252,2,1,233,1,14,254,229,7,15,2,250,230,237,27,12,21,3,248,1,227,242,234,246,39,36,6,8,1,226,226,231,38,8,240,254,4,1,245,237,17,41,14,245,1,246,1,0,27,6,33,244,36,248,2,1,23,233,250,43,11,10,4,3,1,244,252,19,10,17,1,1,3,1,3,245,25,29,18,42,229,20,1,25,247,2,5,11,3,235,11,1,253,251,24,0,12,45,249,2,1,236,15,242,13,255,2,0,11,1,2,27,223,33,225,12,2,245,1,229,23,231,249,27,252,31,247,1,242,250,14,22,250,41,16,11,1,255,13,244,239,3,31,25,254,1,17,249,236,34,231,253,17,12,1,20,246,7,10,19,9,12,4,1,244,2,27,255,16,12,5,14,1,21,12,1,32,39,24,243,1,1,1,232,246,23,238,56,13,8,1,237,13,240,12,31,39,7,12,1,24,229,245,239,29,7,9,9,1,5,246,233,254,16,27,11,0,0,251,7,10,239,244,48,251,17,0,255,0,0,28,32,46,254,8,0,244,1,26,23,238,253,240,13,0,18,2,27,2,17,3,225,11,0,11,235,241,23,8,31,244,12,0,230,6,231,255,229,35,229,252,255,243,11,246,31,5,5,237,1,255,233,28,241,25,242,249,240,14,255,237,24,32,19,227,28,246,255,255,231,252,238,242,229,243,225,4,255,248,12,1,16,224,236,228,246,255,249,236,14,242,219,242,222,255,255,12,231,24,237,241,228,212,251,0,244,8,251,25,252,230,204,242,0,251,13,255,28,218,223,212,236,1,18,236,25,235,241,235,236,228,1,253,25,33,25,229,1,235,237,1,232,253,26,252,222,222,222,230,1,12,17,235,12,7,216,215,236,1,247,236,31,243,12,244,225,230,1,1,15,251,18,255,242,226,234,1,7,225,242,19,234,239,220,227,0,252,239,254,15,4,226,219,229,0,23,9,253,21,228,248,221,233,0,23,23,17,12,15,252,210,236,0,15,244,3,225,16,16,211,229,0,241,245,7,224,253,219,206,235,0,16,225,30,235,231,221,229,234,0,242,231,11,255,17,253,239,232,0,20,241,15,250,238,226,237,234,0,8,251,15,6,248,9,232,230,0,1,13,249,229,246,13,2,1,0,232,21,236,26,12,240,252,250,0,14,27,14,6,255,17,250,8,0,236,227,228,231,4,12,5,5,0,241,4,16,250,22,233,255,3,0,234,238,26,227,234,253,248,246,0,223,16,239,251,9,21,248,7,0,20,17,225,234,20,243,25,20,0,228,237,248,6,248,251,248,3,0,9,18,247,5,228,27,249,2,0,227,223,23,12,23,250,249,252,0,224,240,0,237,223,240,255,1,0,19,237,250,11,226,18,254,2,0,22,13,231,240,234,240,254,0,0,26,11,244,235,254,231,252,1,0,249,19,7,235,25,29,251,0,0,17,228,8,234,11,11,251,1,0,7,244,19,5,219,240,250,1,0,245,254,249,230,234,3,246,248,0,239,233,229,6,238,6,252,255,0,233,20,26,255,7,238,255,250,0,16,8,14,12,242,240,246,255,0,1,225,14,250,8,226,247,252,0,11,231,253,254,22,23,249,250,0,24,231,245,15,15,22,245,4,0,249,6,223,17,224,247,246,6,1,240,237,249,238,248,245,243,0,1,235,6,253,22,229,243,236,7,1,21,253,225,9,22,241,242,1,1,5,20,237,252,232,10,236,1,1,227,242,252,13,12,244,234,252,1,254,251,26,17,219,249,244,240,1,1,225,248,0,219,1,247,6,1,11,1,5,236,17,220,238,253,1,15,233,240,236,223,230,240,4,1,242,1,235,244,9,234,238,247,1,236,10,9,233,14,2,244,3,1,15,221,245,246,9,237,244,4,1,238,231,231,0,217,233,245,11,1,9,233,11,232,1,244,248,247,1,254,19,243,21,222,15,255,9,1,12,22,9,237,10,255,254,4,1,252,229,252,250,10,8,5,5,1,242,248,10,239,23,252,5,246,1,251,225,243,236,251,227,13,2,1,7,21,240,6,1,13,2,10,1,244,233,249,232,12,10,248,252,1,228,245,15,12,31,250,3,0,0,18,9,232,237,25,28,11,6,0,230,231,252,244,7,18,5,245,0,255,15,253,228,0,247,10,1,0,239,235,254,254,47,241,1,252,255,246,242,24,225,35,11,13,8,255,229,24,2,10,25,29,15,12,255,254,236,231,235,30,16,6,10,255,4,9,227,9,19,238,3,4,255,253,254,229,26,246,0,3,3,254,254,239,253,255,239,235,4,251,255,4,26,242,27,242,238,254,244,254,235,234,245,17,21,9,253,5,255,239,237,236,246,234,16,6,3,254,229,255,16,235,225,234,253,255,255,238,23,3,241,252,239,0,254,255,230,250,242,236,13,2,0,4,255,2,0,27,17,226,21,1,2,255,235,17,9,246,240,227,2,254,255,16,246,240,243,253,2,2,252,255,0,19,250,17,238,33,255,0,0,11,6,229,1,227,251,253,253,0,9,26,10,254,226,33,248,2,0,4,24,240,0,22,24,249,6,0,5,15,11,0,1,232,253,5,0,236,7,4,245,254,228,253,251,0,18,17,18,241,243,228,254,254,0,240,16,252,6,253,252,254,253,0,233,16,231,237,244,254,245,3,0,246,23,15,232,5,29,6,247,0,4,15,229,227,233,253,237,254,0,248,4,9,5,10,238,247,6,0,250,255,24,227,221,250,247,1,0,235,22,20,247,4,241,255,253,0,1,18,29,237,231,239,242,0,0,13,227,251,226,17,234,239,2,0,248,250,246,253,229,243,242,255,0,9,242,7,249,233,2,242,8,0,241,22,17,229,253,11,238,5,0,254,230,237,231,4,22,244,254,0,4,229,15,14,209,244,240,2,0,17,229,228,14,10,254,241,254,1,245,230,9,26,244,241,243,253,1,246,13,3,252,224,255,243,0,1,250,229,2,239,226,246,224,1,1,253,12,245,23,222,250,247,3,1,3,7,7,24,8,225,251,255,1,20,12,250,255,16,222,246,252,1,4,15,10,3,238,252,252,251,1,11,230,9,252,243,233,247,253,1,2,254,253,12,16,250,254,1,1,253,24,9,21,237,228,255,255,1,252,16,250,236,13,16,252,0,1,241,2,232,241,249,26,254,0,1,233,231,228,237,28,248,4,1,1,240,0,19,26,25,225,2,253,1,254,241,225,227,229,225,3,253,1,12,252,244,234,2,238,4,255,0,239,4,28,27,9,13,3,0,0,8,3,25,0,22,1,254,5,0,229,236,17,229,251,247,3,3,0,239,231,238,248,23,226,253,0,0,8,248,7,21,13,16,254,4,0,248,224,245,233,247,239,1,253,0,19,2,27,235,244,20,1,254,1,6,242,237,225,249,236,1,255,0,240,1,1,2,241,247,0,2,0,20,250,5,252,255,25,1,2,0,228,11,19,236,251,225,253,255,1,243,25,235,243,251,14,253,254,0,234,17,250,1,9,244,251,0,0,249,224,222,250,18,252,255,255,0,236,243,23,226,242,217,250,252,0,16,250,232,2,222,216,249,253,0,236,225,1,240,4,241,249,250,0,226,228,20,10,246,250,244,246,0,19,6,3,244,222,247,241,253,0,15,3,12,1,214,243,243,251,0,9,238,231,234,218,237,244,0,0,241,239,245,4,222,254,245,26,0,17,235,251,225,210,218,254,2,0,247,243,250,236,230,230,251,0,0,9,237,8,1,228,21,251,1,0,234,235,240,237,214,247,245,0,0,2,240,235,225,225,246,244,0,0,250,250,236,224,8,21,248,0,0,244,244,14,255,252,223,247,1,0,242,226,19,249,216,232,245,0,0,6,247,0,230,225,232,248,255,0,238,12,17,253,225,245,252,1,0,237,226,3,231,228,6,250,242,0,229,251,0,236,227,236,251,2,0,18,8,8,253,21,24,252,12,0,19,3,241,242,238,32,4,7,0,247,243,250,244,243,253,6,4,0,8,21,225,11,238,44,10,5,0,253,4,13,230,252,42,11,3,0,18,1,234,231,16,29,0,18,0,225,229,228,2,22,57,6,8,0,17,251,251,241,21,44,15,7,0,248,253,6,246,10,43,21,2,255,7,238,253,248,17,25,36,4,255,5,240,248,9,16,50,33,6,255,238,238,13,239,44,45,30,17,255,243,234,19,249,44,13,19,3,255,254,254,248,5,42,8,25,6,255,237,231,251,227,25,14,18,8,255,234,245,234,242,15,21,27,1,255,5,246,253,226,18,27,29,5,255,10,233,2,226,27,25,28,6,255,255,246,19,230,29,25,14,247,255,3,255,241,244,13,10,32,7,254,253,22,253,235,28,13,31,5,255,8,255,238,246,38,232,42,254,254,4,2,255,16,18,22,29,2,254,253,245,236,7,13,19,19,4,255,17,20,21,255,254,255,20,11,255,1,9,20,253,29,244,9,4,255,236,25,240,35,21,250,7,2,255,241,2,231,4,5,6,1,1,0,249,246,26,7,6,13,253,1,0,6,0,248,17,7,20,250,2,0,15,229,243,29,239,251,248,6,1,245,17,10,1,233,1,253,4,1,235,235,238,16,237,216,255,4,1,250,252,19,3,209,9,250,255,1,17,251,8,14,249,209,0,6,1,227,11,247,11,209,11,2,6,1,2,251,18,9,237,235,4,6,2,243,23,236,20,252,220,0,5,2,7,10,236,22,213,235,252,3,1,252,1,243,7,242,215,249,3,1,238,243,12,249,225,221,237,8,1,7,19,232,24,0,243,244,1,1,255,15,238,10,227,248,243,7,1,253,246,251,233,209,8,244,6,1,0,19,19,1,254,245,241,3,1,19,235,236,6,242,208,247,6,1,2,6,3,21,247,203,235,3,1,14,21,10,243,211,255,238,7,0,233,13,226,15,214,220,233,5,1,253,241,239,8,223,251,225,0,0,4,6,239,239,5,222,240,3,0,241,4,237,235,225,205,241,0,0,9,7,0,18,207,228,231,246,0,17,239,235,247,238,230,236,3,0,2,228,235,10,223,238,234,4,0,20,254,223,7,238,239,249,253,0,229,250,3,242,217,240,233,8,0,254,20,233,19,233,9,230,3,0,246,252,243,13,222,231,0,2,0,243,230,15,31,19,8,8,4,0,237,242,16,25,4,9,0,3,0,233,229,235,8,31,234,15,251,0,233,249,21,38,19,15,11,254,0,8,3,1,254,19,242,12,254,0,10,14,228,249,9,7,5,255,0,241,9,239,247,11,226,2,254,0,15,239,225,239,41,16,9,255,0,18,238,243,252,36,1,5,0,0,0,250,225,18,0,237,6,0,0,11,232,6,240,255,229,5,251,0,16,235,254,17,8,5,11,252,0,12,231,13,12,255,21,8,1,0,19,5,241,7,0,248,2,0,0,249,253,254,233,15,19,4,255,0,255,12,253,232,252,253,11,2,0,249,0,250,231,27,11,9,0,0,17,22,240,223,4,15,11,6,0,4,7,6,229,245,255,7,2,0,237,20,226,247,18,1,13,253,0,253,237,235,252,27,236,16,253,0,246,12,255,255,230,18,12,0,0,245,252,7,254,12,238,13,254,0,8,22,228,240,235,252,9,1,0,240,13,229,232,237,28,4,253,0,19,233,12,254,253,247,4,254,0,235,244,222,232,243,235,11,251,0,19,246,255,227,242,17,14,252,0,234,246,15,230,251,248,19,250,0,249,16,234,229,255,24,19,250,0,17,231,254,254,239,20,19,249,0,14,250,223,225,237,234,9,248,0,239,0,224,229,21,230,12,247,0,4,245,236,243,4,17,8,247,0,16,244,255,239,7,228,6,248,1,234,4,233,228,247,225,5,250,0,233,255,12,233,248,7,13,249,1,253,228,241,1,19,239,8,248,1,15,235,12,235,250,3,6,251,0,248,2,229,2,248,225,3,250,1,3,226,22,249,3,5,13,9,0,14,223,253,226,240,237,41,4,0,29,5,6,236,37,234,35,9,0,237,4,238,237,234,31,35,7,0,10,251,13,252,34,25,12,10,0,226,0,22,253,238,2,16,7,0,11,239,2,2,253,19,21,5,0,220,243,22,27,248,250,31,248,0,242,222,237,3,237,5,13,24,0,233,225,22,19,17,19,3,19,0,14,234,224,17,27,242,20,13,0,20,26,28,252,29,232,8,8,0,1,21,254,235,27,226,18,252,0,227,6,252,227,241,233,10,8,0,26,220,14,29,15,20,16,254,0,250,225,14,20,24,238,11,9,0,6,22,231,255,231,218,0,245,0,5,243,248,254,222,243,9,3,0,225,233,16,25,18,240,251,235,0,19,4,9,16,227,254,248,2,0,3,5,15,227,28,9,10,17,0,10,12,236,228,238,20,244,254,0,237,255,10,0,236,252,19,247,0,1,12,241,6,234,222,22,241,0,14,26,21,246,25,228,21,248,0,29,230,29,251,13,248,13,225,0,3,12,237,249,254,1,24,6,0,223,251,252,1,3,247,33,5,0,243,233,19,17,233,2,28,235,0,24,249,247,231,30,19,15,0,0,10,15,240,227,15,222,22,239,0,244,234,2,22,37,247,16,251,255,3,26,27,246,12,14,17,241,255,252,250,235,223,247,15,6,255,255,26,29,252,247,232,221,34,243,255,220,24,240,219,13,2,11,13,255,252,228,250,25,234,8,14,240,255,252,15,12,219,39,15,14,18,255,253,235,252,4,37,220,9,240,255,220,227,223,246,19,231,25,251,254,9,17,218,3,252,217,2,19,254,233,9,20,250,9,243,17,4,254,250,14,240,8,8,248,248,23,254,22,25,10,18,231,6,14,248,255,222,241,21,25,215,232,15,241,255,1,26,249,18,241,8,24,255,255,1,235,224,224,8,245,253,19,255,223,8,222,238,218,3,249,0,255,24,222,0,29,207,13,12,249,255,233,223,15,237,6,19,250,24,255,3,252,253,248,225,248,12,8,0,223,224,235,254,252,29,0,4,0,12,244,17,16,251,241,244,252,0,3,19,18,250,207,3,224,7,0,245,12,238,22,14,230,240,251,1,252,23,28,3,245,18,244,5,1,227,239,22,18,6,239,240,14,2,242,21,24,253,236,249,250,18,2,221,15,10,23,216,229,5,12,2,249,11,255,238,3,230,255,247,2,9,242,24,246,221,5,23,251,1,26,224,27,2,247,11,20,251,1,255,244,17,24,247,29,22,5,1,18,27,32,25,12,251,19,252,1,249,2,232,230,237,250,12,248,1,3,242,227,245,234,255,20,251,0,234,251,10,220,21,219,8,240,0,244,4,16,235,26,227,30,244,0,249,238,11,24,1,244,36,244,0,15,220,20,240,17,216,20,241,0,234,226,0,15,245,230,30,243,0,253,6,12,236,226,213,6,252,1,17,235,234,11,16,208,37,221,1,254,22,6,17,22,235,13,237,1,20,25,231,8,7,245,16,243,1,4,16,243,25,22,241,26,248,1,239,18,22,4,254,229,2,15,1,13,254,237,25,21,8,249,228,1,22,25,227,4,12,3,11,251,1,2,223,3,246,238,242,19,10,1,222,26,246,21,5,237,34,245,1,255,12,0,246,32,240,43,1,1,18,20,13,19,37,229,33,237,1,8,31,221,243,233,243,9,2,0,244,13,230,249,241,2,34,7,0,250,24,12,24,245,255,3,232,0,8,17,238,20,254,235,16,5,0,226,227,249,246,14,242,255,248,0,255,241,4,16,25,11,18,9,0,252,219,219,4,230,6,31,255,0,15,30,252,243,5,5,24,0,255,248,228,221,242,27,251,21,253,255,229,226,225,213,227,3,25,7,255,5,15,27,13,228,255,25,1,0,234,236,226,16,9,16,252,253,0,255,226,240,18,229,236,24,244,0,228,31,5,254,240,234,0,0,0,21,11,26,252,223,242,13,11,255,250,227,8,244,253,23,2,255,0,26,242,17,254,237,222,13,9,0,222,241,7,11,12,21,3,11,0,249,17,2,0,223,8,11,13,0,23,241,238,239,219,2,245,254,0,13,222,252,227,13,244,1,12,0,226,243,1,241,5,244,253,254,0,9,18,248,249,8,32,249,16,0,240,248,22,222,0,238,2,247,0,247,22,24,241,250,252,11,10,0,234,227,251,27,223,251,7,16,1,20,22,1,229,5,12,10,0,0,254,14,11,218,11,241,5,9,0,9,240,232,23,27,13,4,13,0,20,4,28,219,249,228,11,255,0,27,17,255,6,7,224,248,14,0,23,230,7,4,18,12,9,2,0,220,4,231,236,23,255,17,4,0,244,3,1,219,3,24,11,7,0,3,11,239,233,21,19,12,16,0,223,6,224,249,20,235,15,254,0,245,11,221,5,254,254,241,245,251,12,22,23,245,244,6,218,235,251,18,37,229,227,250,251,211,238,251,251,4,22,234,20,250,8,18,251,246,247,38,245,31,3,226,250,251,227,26,20,2,9,4,233,17,251,242,26,31,243,15,27,219,246,251,246,224,11,239,225,29,242,239,252,0,233,241,8,242,247,240,21,253,232,243,254,227,248,9,209,243,253,33,232,234,244,204,38,221,239,254,9,254,235,246,188,7,190,6,0,18,18,229,9,200,28,163,236,1,24,225,228,214,196,13,197,234,3,27,224,243,243,255,232,182,246,5,16,4,35,197,216,8,186,253,6,235,7,35,191,236,1,180,18,8,25,26,240,246,248,29,196,9,9,8,254,2,183,201,23,249,253,10,231,235,14,228,8,31,214,7,10,254,14,1,226,225,240,242,249,10,234,222,233,188,252,231,242,18,11,11,241,41,255,215,247,221,251,11,14,20,3,197,12,220,211,251,11,29,32,248,198,249,239,222,3,12,29,6,231,11,255,2,200,224,12,254,5,35,214,35,236,237,243,12,9,10,235,230,237,3,201,18,12,234,29,24,13,8,230,178,6,12,247,19,36,239,22,13,177,21,12,30,5,15,254,240,19,195,252,12,0,221,41,227,30,21,207,237,12,251,27,2,240,21,231,190,246,12,24,231,3,24,234,0,249,2,13,248,30,39,223,0,37,223,11,13,236,13,247,234,217,230,247,3,13,12,247,232,225,241,242,224,1,14,220,237,249,239,228,245,16,18,15,248,234,6,224,246,244,55,29,15,223,217,250,236,28,17,24,25,15,22,253,236,250,233,27,246,237,15,226,247,234,242,3,14,28,0,14,255,221,18,2,51,22,250,226,13,17,221,30,27,37,242,12,248,12,9,10,14,20,10,26,34,9,11,16,234,244,251,43,243,9,235,11,3,5,0,4,64,25,17,233,10,11,233,41,13,50,221,12,0,8,241,241,11,238,41,213,32,240,7,250,227,34,211,24,22,241,1,6,240,8,28,2,81,255,16,248,5,24,33,27,22,74,14,51,12,3,1,33,238,13,23,23,50,230,2,248,237,14,15,26,3,60,1,0,24,9,230,244,17,10,45,22,254,224,229,249,239,52,244,9,240,253,27,230,227,23,49,243,10,232,251,20,226,10,1,252,25,247,26,251,229,243,241,55,250,17,12,248,251,2,240,4,20,255,248,234,11,251,222,4,233,54,12,240,247,26,252,218,230,24,25,34,237,250,2,252,245,35,255,12,235,243,233,0,253,21,251,254,13,16,1,249,22,253,5,248,247,21,247,222,223,18,253,12,17,7,13,237,233,219,31,253,31,36,3,7,7,27,227,24,253,240,7,30,12,237,252,227,41,252,27,14,248,37,241,235,218,34,251,27,17,11,246,246,230,255,16,250,253,12,10,243,19,226,234,15,249,16,37,9,227,37,250,224,47,248,4,17,9,8,245,25,222,2,247,12,10,23,206,18,224,6,254,246,235,39,6,203,28,26,255,31,246,248,242,246,212,1,247,232,17,245,10,5,243,214,238,22,251,227,244,0,254,240,202,40,253,8,241,244,224,27,244,236,0,244,24,230,243,251,224,1,188,249,45,22,232,242,233,238,34,187,249,25,4,237,243,235,7,248,213,243,49,213,10,243,220,233,22,211,247,5,245,12,243,15,230,233,245,6,13,237,2,244,22,239,11,241,251,21,221,249,246,4,16,239,214,226,3,216,237,247,12,38,16,15,194,30,221,253,249,213,30,254,12,240,11,233,235,251,20,25,25,246,220,47,224,12,252,254,238,231,9,217,237,5,250,253,21,30,237,242,11,34,1,4,255,218,248,33,40,215,5,221,232,255,245,229,252,231,207,244,208,250,0,251,249,235,246,246,17,11,239,0,5,222,229,43,235,11,236,233,1,224,241,252,24,228,242,218,231,1,12,224,38,249,20,223,249,216,1,13,5,229,0,249,231,24,248,1,250,8,12,39,252,23,25,14,1,243,229,241,238,7,9,249,243,1,225,253,3,17,22,32,6,240,0,233,18,28,231,6,238,10,250,0,217,227,22,38,30,246,30,237,255,238,9,19,252,2,1,34,14,255,21,12,30,227,13,15,27,2,255,5,252,15,244,43,219,239,247,255,15,221,2,3,245,250,243,251,255,239,247,32,24,232,231,255,16,255,7,233,230,253,252,223,2,23,255,246,0,24,16,25,18,241,248,0,219,36,248,36,10,226,21,21,0,20,250,245,251,254,247,241,19,0,254,230,40,238,10,33,3,37,0,20,239,247,240,232,7,14,244,0,0,228,30,16,26,19,252,26,1,235,233,11,224,7,22,229,6,1,255,232,36,39,22,17,248,38,1,233,229,24,234,30,10,236,0,1,2,25,40,251,234,232,21,249,2,231,236,239,1,255,34,4,11,0,247,230,16,223,255,248,9,25,0,27,229,252,248,6,9,15,11,0,8,236,1,3,240,253,6,14,0,6,16,234,230,236,24,12,14,0,18,255,16,247,16,243,18,5,0,16,9,233,222,227,30,13,21,0,239,249,237,243,33,33,9,21,0,237,1,237,26,18,17,7,9,0,0,25,11,6,248,9,237,255,0,4,10,32,222,6,252,236,254,0,235,21,233,21,233,35,250,7,0,240,6,227,240,13,10,247,1,0,237,241,27,246,233,238,248,7,0,229,20,224,235,0,1,247,10,0,239,235,243,15,216,245,236,12,0,255,19,11,251,254,225,247,9,0,224,237,227,7,16,246,242,3,0,222,13,20,230,253,253,244,239,0,221,6,18,229,20,13,239,244,0,29,238,18,6,9,240,233,236,1,240,245,32,216,10,19,231,10,1,23,22,230,12,16,222,223,247,1,23,7,14,4,209,8,230,239,1,4,233,233,250,232,223,246,241,1,24,237,230,254,16,226,231,20,1,2,244,23,255,216,238,216,0,1,235,21,17,242,222,219,217,17,1,252,1,238,16,225,237,222,8,1,15,245,11,242,224,204,226,13,1,229,13,27,11,248,206,226,251,1,4,1,14,254,248,209,236,17,2,243,235,222,237,209,232,233,240,2,0,219,1,251,247,230,234,251,2,244,223,12,5,251,251,234,248,2,14,23,252,228,231,237,238,239,2,237,10,220,235,13,3,247,21,2,13,248,243,228,219,254,237,18,2,222,235,5,21,226,227,11,19,2,14,13,242,252,223,235,254,251,2,25,240,243,12,226,17,242,238,2,224,224,22,243,230,244,241,246,2,242,13,26,231,16,9,246,249,2,230,19,13,213,250,254,1,234,1,227,243,3,251,244,3,10,17,1,5,239,12,252,1,243,254,7,1,4,25,245,231,15,21,9,230,1,17,20,20,216,50,10,252,244,0,27,7,219,211,54,228,15,3,0,240,228,12,254,13,33,17,15,0,17,219,252,222,31,11,20,3,0,16,229,3,245,27,252,35,17,255,252,230,230,250,31,39,35,252,255,236,244,235,232,57,25,33,254,255,233,228,255,250,27,0,28,17,255,236,235,1,32,20,13,27,6,255,234,27,26,18,28,37,27,3,255,225,235,237,37,32,29,9,2,254,223,232,239,25,18,14,5,246,254,246,10,15,0,14,12,14,3,254,233,233,236,23,12,244,10,253,254,223,4,229,248,245,8,6,3,254,16,251,24,22,2,34,1,244,255,232,21,5,17,7,234,2,10,255,255,242,21,254,235,253,4,255,255,242,251,26,1,220,253,7,254,255,234,225,29,228,20,232,4,6,255,246,247,245,249,251,254,9,244,255,254,8,9,5,231,241,15,249,255,252,235,244,238,234,27,7,19,255,243,17,3,9,6,2,7,3,255,1,253,222,16,31,244,5,255,255,232,22,221,243,23,222,13,238,255,254,251,230,16,248,21,8,0,255,235,24,248,225,4,245,3,12,255,243,3,5,253,3,241,241,253,255,250,250,225,220,237,2,19,18,255,254,241,13,248,241,227,223,247,255,234,242,5,246,232,243,254,1,255,225,230,227,10,21,27,229,2,255,19,224,221,222,237,19,252,9,255,249,26,226,0,6,231,222,247,255,226,8,13,10,231,18,219,250,255,226,19,19,14,11,14,230,252,0,230,248,2,251,253,6,233,5,0,247,252,21,216,232,227,241,4,0,252,225,254,219,196,16,237,255,0,240,16,247,11,206,241,239,6,1,5,27,21,223,205,221,226,246,1,12,11,22,21,7,225,235,242,1,14,232,23,253,4,224,248,5,1,21,246,242,11,9,230,232,2,1,219,235,237,240,238,7,240,254,1,5,10,12,228,241,245,242,1,1,242,9,31,33,22,0,236,1,1,230,26,21,232,3,237,249,246,1,0,29,22,30,254,241,1,252,1,229,249,20,233,6,5,2,248,1,12,232,230,21,28,247,9,255,1,224,15,22,226,10,235,9,10,1,2,1,232,229,232,30,6,254,1,245,241,246,1,23,29,7,249,0,254,7,15,248,237,253,6,251,0,13,224,4,244,240,244,3,252,0,10,25,240,4,245,227,1,0,0,244,245,236,4,22,232,2,0,0,244,249,222,32,32,229,13,1,0,219,16,11,26,242,255,252,5,0,239,20,0,3,31,12,244,14,0,7,239,232,4,26,234,249,3,0,241,3,228,26,230,224,13,4,0,219,17,16,14,13,230,254,9,0,0,30,245,21,225,6,254,20,1,222,246,7,22,21,234,17,14,1,241,27,225,7,26,20,21,2,0,227,223,1,15,6,242,253,2,0,240,221,229,250,232,30,14,8,0,1,2,22,237,242,27,3,255,0,238,220,25,31,15,255,6,10,0,18,221,242,4,248,32,235,3,254,6,29,1,9,252,23,7,0,254,30,3,34,250,237,5,0,246,254,6,24,16,25,27,249,23,0,254,23,250,3,235,13,20,255,9,253,9,221,17,242,222,243,244,255,253,25,7,13,221,222,241,239,218,253,18,8,30,241,220,237,222,34,253,33,233,1,31,26,3,243,10,253,246,28,4,4,248,33,231,242,253,250,29,239,8,251,37,207,22,254,34,221,2,16,10,28,229,240,254,237,9,230,232,227,34,221,252,255,251,246,21,2,10,22,193,248,0,21,235,33,224,246,226,212,16,1,246,220,26,242,12,11,199,20,2,32,231,229,4,202,241,209,11,3,231,245,236,244,245,223,215,0,3,249,14,10,5,255,24,205,248,4,23,26,243,211,5,236,201,220,5,249,21,228,196,207,220,236,214,5,24,25,228,239,213,16,215,31,5,13,4,26,252,217,251,208,7,6,255,218,4,214,5,208,224,242,7,221,17,238,234,248,253,227,16,7,253,216,235,228,219,229,208,5,8,248,29,255,242,255,203,203,3,8,13,254,228,19,250,211,178,11,9,226,231,32,0,244,250,182,233,9,9,242,19,237,250,213,156,25,9,223,216,226,9,9,240,209,18,9,28,24,16,237,246,249,179,247,10,23,223,0,12,236,211,209,26,10,11,239,23,21,253,238,6,244,11,26,242,15,26,5,227,238,5,11,243,240,242,33,8,214,13,20,11,8,9,246,36,229,19,14,5,12,224,25,21,241,223,8,243,24,12,246,255,227,251,205,251,27,239,12,222,232,12,17,252,9,245,252,12,239,0,19,15,7,228,233,245,11,24,21,29,32,236,21,234,252,10,1,223,233,8,246,0,245,22,9,255,226,224,252,23,3,7,223,8,8,226,24,18,233,209,242,242,8,25,252,243,239,38,242,236,246,7,222,220,226,255,245,237,219,204,6,5,233,31,4,235,235,3,224,5,25,241,25,245,19,19,245,239,5,245,219,220,195,15,244,246,226,5,237,26,26,254,6,24,27,18,4,222,222,18,236,19,242,13,248,4,30,11,238,236,23,244,52,251,3,240,237,242,254,51,19,26,239,2,4,235,235,8,39,16,8,253,1,233,15,28,223,42,225,28,242,0,249,12,232,16,48,35,34,239,255,4,26,239,3,249,38,11,18,254,230,18,222,4,12,16,20,27,252,245,20,239,42,25,252,253,23,252,234,8,238,6,254,15,255,15,252,252,221,243,30,18,250,28,6,252,237,2,252,15,24,28,17,15,253,251,235,238,16,1,32,252,27,254,223,2,15,241,43,40,4,26,255,23,34,11,30,251,233,16,19,255,239,12,2,23,236,5,29,21,255,248,29,229,23,39,235,247,0,254,230,8,250,12,13,235,63,11,253,11,28,1,253,244,249,14,16,252,232,231,240,13,20,238,40,15,251,240,252,0,16,254,3,48,28,250,237,26,238,11,50,44,37,245,249,227,14,245,246,245,36,52,0,248,251,32,5,16,51,23,44,252,246,235,249,242,213,244,41,249,31,245,21,17,239,246,21,247,251,229,244,237,227,233,3,46,6,9,247,242,249,20,252,217,39,13,17,22,241,239,16,255,198,34,54,28,11,241,3,1,223,206,6,243,49,22,240,4,236,30,203,226,30,2,251,240,227,241,237,191,3,56,233,10,241,236,233,20,228,206,43,8,17,241,24,26,31,197,235,53,236,9,243,231,32,31,197,216,23,221,26,245,246,239,22,4,248,50,220,15,247,243,29,9,233,223,27,251,253,249,226,246,254,0,186,49,231,243,251,235,241,226,10,215,12,4,4,253,248,14,233,220,254,24,227,233,254,7,231,6,7,215,12,228,24,255,239,30,229,20,4,237,5,252,255,237,220,234,0,227,1,14,20,255,7,0,39,32,4,255,224,242,255,242,232,41,18,8,35,237,13,255,239,253,247,17,221,13,204,250,255,247,7,21,238,19,225,237,222,254,8,27,233,239,5,23,235,253,254,245,10,21,41,23,12,229,33,254,220,231,34,246,7,220,238,236,253,240,3,39,9,22,253,216,22,253,23,248,255,8,33,225,219,26,253,243,237,251,43,224,11,222,1,253,5,3,251,24,226,229,232,23,253,228,23,39,251,237,214,230,9,252,220,234,27,38,235,219,201,22,252,11,11,228,235,214,10,205,3,252,4,6,36,11,216,0,218,14,253,13,20,32,35,1,0,206,26,253,16,21,2,236,237,222,243,38,253,19,1,231,23,6,29,249,5,254,235,233,14,246,242,246,241,43,254,213,2,31,26,246,241,236,42,254,251,238,33,0,255,235,237,0,254,23,232,13,35,3,230,207,255,254,255,241,254,17,4,247,235,18,255,216,7,16,30,223,239,221,27,255,251,230,24,12,216,250,255,33,255,1,255,26,241,250,242,244,1,0,22,233,237,250,249,218,244,254,0,232,3,239,10,225,217,244,254,0,20,244,7,238,232,237,244,253,0,233,242,238,19,235,255,244,251,0,248,252,16,239,231,214,245,255,0,16,19,250,235,230,232,245,251,0,5,14,237,1,228,243,246,240,0,248,22,232,248,219,236,247,0,0,2,248,15,6,10,242,253,254,0,5,232,254,8,1,246,0,253,0,246,249,13,239,240,253,1,255,0,237,24,12,247,249,23,2,255,0,230,18,242,4,9,3,1,254,0,235,235,23,236,242,25,1,255,0,11,24,248,5,5,234,1,0,0,246,15,22,253,3,247,2,255,0,249,20,2,232,11,23,2,255,0,21,4,0,234,243,13,2,1,0,241,243,236,1,240,19,3,0,0,20,2,246,252,31,250,3,1,0,22,1,253,255,16,0,1,0,0,254,10,3,254,243,251,3,3,0,0,232,11,244,30,252,254,1,0,20,7,230,248,12,20,255,2,0,5,2,244,234,29,9,247,12,0,249,9,15,2,31,248,253,8,0,236,4,252,5,15,28,246,7,0,23,254,19,17,244,35,253,255,0,250,232,3,236,24,241,2,0,0,17,8,13,230,251,11,246,5,0,19,247,237,239,252,247,1,254,0,253,20,232,250,235,251,250,253,0,13,16,240,248,231,21,246,255,0,2,234,229,242,16,15,252,5,0,250,250,25,239,17,27,247,7,0,2,244,237,241,233,12,248,254,0,18,229,24,14,251,28,248,252,0,240,240,20,237,0,247,254,7,0,15,254,249,254,15,10,1,0,0,24,2,251,244,7,251,7,1,0,19,228,237,248,235,254,6,5,0,242,238,231,247,1,251,5,254,0,15,250,8,242,20,0,6,5,0,2,228,25,252,8,19,1,251,0,3,239,6,255,243,19,0,253,0,242,246,253,237,254,251,0,249,0,249,25,235,243,240,16,249,251,0,230,1,240,17,245,239,254,3,0,7,242,233,250,251,234,254,1,0,244,23,234,2,254,234,252,2,0,243,242,240,240,23,253,255,4,0,8,253,253,238,242,15,3,4,0,253,250,250,20,27,6,253,253,0,4,253,26,243,28,253,1,255,0,233,254,255,19,0,236,252,3,255,241,239,253,240,230,241,254,255,255,251,242,19,244,4,253,251,253,0,14,243,13,17,25,243,250,254,0,8,8,235,13,10,238,252,254,0,252,254,245,8,234,225,248,255,0,248,255,244,254,7,2,250,254,0,12,25,248,252,236,255,248,254,0,233,234,235,9,6,1,251,255,0,15,3,237,250,226,7,250,253,0,4,229,25,237,230,10,252,254,0,1,247,7,21,225,27,250,0,0,248,11,234,240,253,20,251,255,0,242,245,252,19,235,1,249,1,0,255,239,248,233,24,241,240,255,0,241,250,247,234,244,22,247,0,0,15,11,2,23,234,4,247,1,0,239,8,244,253,247,247,249,243,0,9,23,255,238,3,229,247,2,0,15,255,242,241,222,236,246,1,0,255,255,231,230,240,242,244,2,0,13,5,21,5,236,234,247,18,1,8,21,11,3,7,8,249,3,1,255,21,227,3,22,6,246,4,1,6,230,17,255,11,3,247,1,1,14,14,15,255,252,24,249,1,1,231,244,8,248,19,248,248,3,1,245,252,247,245,231,8,248,1,1,253,238,25,239,4,28,249,2,1,16,4,17,234,8,233,249,2,1,245,247,8,243,253,18,253,6,1,0,231,237,246,18,244,255,0,0,255,234,233,3,245,244,0,3,1,10,233,240,11,245,0,252,1,1,17,0,23,249,239,249,252,2,0,243,22,251,20,3,26,251,1,1,239,9,9,16,246,9,5,3,1,247,245,232,241,247,13,250,255,1,249,240,247,7,239,252,252,1,1,19,24,14,28,25,238,252,0,0,14,233,14,21,23,23,252,1,0,1,15,253,13,253,228,0,2,0,14,11,15,25,11,236,255,254,0,13,22,245,5,252,246,255,255,0,241,19,24,242,5,229,253,255,0,13,2,251,14,238,21,255,255,0,5,252,18,2,25,230,0,255,0,22,254,249,246,10,17,0,255,0,242,239,16,245,255,3,1,254,0,234,20,21,243,17,12,1,255,0,249,233,243,17,14,2,1,254,0,241,247,231,16,3,11,255,254,0,235,242,10,251,3,21,0,252,0,244,236,17,23,241,17,1,253,0,246,228,14,234,250,232,0,251,0,3,236,231,5,16,234,1,251,0,246,249,3,0,27,241,1,251,0,12,229,247,13,239,243,0,250,0,240,254,241,235,26,251,255,251,0,237,247,23,245,240,243,255,252,0,18,245,18,237,254,2,255,253,0,249,4,0,14,237,228,0,253,0,15,232,244,14,235,235,255,253,0,240,17,9,254,242,16,254,253,0,21,0,26,243,251,248,16,16,0,243,244,5,252,17,23,22,19,0,250,253,229,8,247,246,11,12,0,240,22,238,253,245,23,23,11,0,21,4,254,240,35,3,29,12,0,7,245,226,243,7,3,24,18,0,6,246,231,1,39,248,13,4,0,3,7,10,15,10,18,48,253,0,232,2,232,250,41,27,20,5,0,249,20,0,249,251,234,15,2,0,25,242,3,1,253,237,2,4,0,22,228,7,12,254,249,7,6,0,10,22,255,27,234,11,12,1,0,28,234,253,236,255,240,7,4,0,28,239,23,254,32,247,9,254,0,241,240,250,240,226,0,5,254,0,25,24,10,25,21,255,5,4,0,7,29,21,244,239,16,1,254,0,21,26,21,28,241,239,2,16,0,29,247,6,254,4,250,4,4,255,27,1,255,19,229,17,251,254,0,233,234,8,30,223,244,1,252,0,254,244,13,238,5,15,7,249,0,24,2,25,240,15,8,254,248,0,235,236,240,28,12,244,255,254,255,248,6,237,247,231,221,0,0,0,248,2,20,5,239,241,19,246,0,232,14,238,237,1,5,254,244,0,3,248,23,21,255,254,18,252,0,255,237,249,241,247,246,17,244,0,22,28,4,244,11,12,12,5,0,9,15,248,8,225,235,252,13,0,20,24,234,12,8,222,18,3,0,253,228,10,23,237,230,5,0,0,235,12,251,12,0,248,18,10,255,231,14,235,25,1,5,7,11,0,240,227,15,10,4,250,17,255,0,237,233,225,1,4,217,248,254,255,25,252,231,26,18,233,8,4,255,239,0,224,255,18,224,6,253,255,8,21,9,234,238,254,8,255,255,247,226,12,234,253,233,244,253,255,21,10,20,5,223,253,1,5,0,241,235,16,19,239,239,2,10,0,17,18,10,229,224,32,9,7,0,241,2,21,240,4,244,4,0,0,21,231,235,0,224,243,243,10,0,22,231,23,11,255,16,11,10,0,25,240,9,240,3,27,0,5,0,1,17,5,247,254,29,10,2,0,234,250,229,1,241,13,253,255,0,228,5,228,235,236,15,1,251,0,228,0,26,245,246,41,255,249,0,251,233,254,20,251,38,7,5,0,6,16,228,228,8,5,249,249,0,247,2,7,233,246,242,5,249,0,235,252,21,19,222,10,1,5,0,15,14,247,243,10,240,255,255,0,23,255,11,227,237,245,3,252,0,21,13,228,252,32,247,4,3,0,244,231,15,13,2,4,254,5,0,230,244,244,250,7,31,10,255,0,234,7,12,0,17,255,7,2,0,246,239,17,240,245,8,1,1,0,238,15,23,243,245,228,5,5,0,247,21,255,251,24,245,10,1,0,7,15,17,3,243,14,4,0,0,243,230,245,233,232,254,15,249,0,229,27,234,254,26,232,9,253,0,24,253,241,230,13,255,16,255,0,235,0,10,239,0,3,6,247,0,24,25,10,238,233,5,7,249,0,238,1,25,231,17,243,14,22,0,240,23,16,0,10,11,2,251,1,241,231,11,241,18,255,10,253,0,19,240,20,0,235,232,12,0,1,6,243,234,5,29,2,252,254,0,19,239,230,19,254,247,25,250,0,4,229,240,16,238,2,10,246,0,10,0,18,26,5,12,11,248,0,233,239,8,7,14,220,12,1,0,10,242,224,237,12,3,12,253,0,23,243,3,28,25,9,5,1,0,18,250,11,12,251,222,6,0,0,2,233,230,8,249,215,11,251,0,255,233,11,18,250,12,7,6,0,6,242,252,241,12,20,7,255,0,240,243,17,247,241,14,3,0,0,13,240,0,226,243,223,6,4,0,16,232,237,243,16,14,2,252,0,7,5,26,9,255,231,4,6,0,5,245,18,18,230,219,19,3,0,239,1,15,8,254,12,6,251,0,4,227,254,6,242,17,0,254,0,9,16,244,0,251,222,9,9,0,8,252,10,223,241,221,2,6,0,26,246,26,4,241,245,0,8,0,252,18,243,237,242,238,2,0,0,10,249,224,255,236,226,8,5,0,11,9,6,17,235,253,9,6,0,12,232,229,233,18,7,9,1,0,231,24,5,18,224,8,253,3,0,241,29,223,242,236,232,255,3,0,21,254,8,16,223,234,249,3,0,248,25,25,250,12,255,250,6,0,249,248,8,237,24,243,1,0,0,16,6,16,25,10,246,7,6,0,255,241,242,16,243,9,8,6,0,16,228,7,2,18,246,4,1,0,17,245,229,232,27,225,5,4,0,7,241,28,18,19,12,8,7,0,19,17,229,250,22,23,5,5,0,249,238,246,7,231,27,9,3,0,248,254,13,23,9,234,1,5,0,6,228,248,13,236,25,8,2,0,18,252,226,247,9,13,8,2,255,235,24,245,22,229,232,8,1,0,251,242,231,233,15,231,6,3,0,250,234,252,247,239,249,3,4,0,26,6,23,239,3,251,236,247,253,20,251,255,11,0,247,235,247,254,26,8,231,13,255,15,239,251,253,248,7,13,13,229,238,241,249,253,14,246,250,229,227,10,239,247,254,11,15,253,244,15,246,234,248,251,255,8,20,243,231,220,233,248,254,18,19,230,224,4,9,2,6,254,231,17,251,227,248,233,236,254,254,238,255,17,255,241,234,244,252,0,254,245,10,7,219,243,243,254,1,25,234,239,255,239,246,243,252,1,234,19,247,244,255,3,235,253,2,18,234,248,0,240,232,240,254,3,23,14,242,252,232,28,238,252,3,251,234,228,250,231,24,235,252,4,18,3,2,5,233,245,244,249,4,240,17,234,4,253,1,247,253,4,15,12,245,246,232,23,245,2,4,25,237,231,252,10,250,246,4,5,13,1,228,226,17,8,249,251,5,255,249,235,8,6,27,240,244,4,21,245,13,251,236,2,245,2,5,21,3,0,231,248,19,247,254,5,24,248,229,248,230,33,243,254,4,242,14,3,13,24,35,226,7,4,239,243,250,5,18,1,232,8,4,17,11,10,1,230,34,228,3,3,23,24,25,14,14,5,228,1,3,0,240,18,8,10,8,233,2,2,9,18,26,18,231,19,231,2,3,249,237,5,234,246,250,244,250,2,255,22,245,17,250,2,249,250,3,5,4,5,255,240,9,247,255,2,19,243,8,229,254,27,246,6,2,19,224,3,4,237,30,249,251,2,242,239,20,241,242,15,252,247,3,6,230,238,20,255,8,4,0,3,248,15,239,250,23,25,2,0,3,247,20,14,231,10,7,254,2,3,10,7,239,9,29,26,12,251,3,0,18,8,243,36,251,12,253,3,233,5,2,231,18,18,5,249,3,8,247,250,239,43,252,253,248,3,15,250,246,15,2,25,2,250,3,249,247,231,13,31,253,7,253,3,232,243,15,6,29,247,4,247,3,11,242,12,234,25,254,255,251,3,4,0,250,17,36,241,252,247,3,18,249,8,253,51,8,250,249,3,13,254,241,0,53,217,3,251,2,18,231,10,233,13,255,15,253,2,21,15,27,240,52,4,16,253,2,242,228,15,19,34,225,18,1,2,237,239,26,25,3,231,18,1,2,13,244,253,31,253,21,13,255,1,246,11,229,22,30,7,9,252,1,246,250,235,2,243,15,253,0,1,238,245,227,23,26,237,0,0,0,15,252,9,252,12,247,254,252,0,5,27,226,12,5,4,249,253,255,9,0,239,15,15,231,248,4,254,9,7,227,19,20,245,250,0,253,241,21,227,17,229,251,249,254,252,16,232,249,17,227,230,247,253,252,240,10,6,21,251,251,244,3,253,244,249,249,12,234,20,246,9,253,239,0,26,5,244,247,240,0,252,244,249,5,17,241,219,240,3,253,239,25,225,8,241,7,240,8,253,6,14,21,6,247,225,237,1,252,22,6,21,248,17,18,238,2,253,19,226,248,227,248,17,242,2,253,15,227,244,14,17,8,245,1,252,238,5,8,219,1,253,248,2,253,246,19,27,3,244,23,238,1,253,235,8,254,251,239,5,247,251,253,239,9,16,246,235,2,0,255,253,251,250,227,231,231,33,238,250,253,236,231,254,11,222,30,240,254,253,237,237,8,8,254,244,245,251,254,248,249,18,241,225,236,239,6,254,234,2,0,234,228,10,238,255,254,20,14,243,16,254,237,244,252,254,229,1,253,245,2,233,241,0,254,234,246,24,20,226,249,242,3,255,11,4,4,15,238,9,245,254,255,237,9,10,231,225,17,237,2,0,6,228,230,2,215,244,243,251,1,226,17,241,234,227,234,247,251,1,9,226,15,0,217,237,243,249,1,226,5,24,5,8,250,226,4,2,12,230,11,253,12,22,243,251,2,20,236,252,14,229,21,251,254,2,14,245,254,252,239,254,251,0,1,8,246,14,9,9,10,250,248,2,252,252,19,248,7,26,248,249,1,228,236,233,0,10,11,7,251,2,4,5,28,2,35,251,3,251,1,244,255,26,18,8,237,5,254,2,231,18,255,238,9,242,1,251,2,18,24,235,0,0,250,8,251,2,18,238,226,16,6,254,8,252,2,17,241,2,11,244,11,7,253,2,254,228,226,246,248,242,9,254,2,250,22,238,5,26,2,2,255,1,0,5,239,3,6,249,0,255,2,0,234,3,13,255,3,251,0,2,247,17,12,239,17,245,249,0,2,243,19,11,24,10,5,0,254,2,233,229,235,229,243,234,252,254,2,250,7,249,243,17,233,251,253,3,245,244,14,16,242,14,251,255,3,17,253,250,250,3,236,254,252,1,241,2,248,249,4,245,1,255,2,1,245,233,247,237,6,249,253,3,236,21,232,26,2,8,252,255,3,13,15,1,5,252,228,248,254,3,250,251,22,241,24,253,254,254,2,16,246,255,243,2,244,11,3,0,250,0,232,10,21,16,13,5,0,235,231,235,238,15,38,13,6,1,12,240,252,245,16,13,14,6,0,19,253,233,242,9,32,12,5,0,255,245,236,250,255,25,11,3,0,235,244,13,253,2,10,8,4,0,8,242,21,236,25,44,3,9,0,229,20,234,18,242,2,6,5,0,231,6,241,8,12,24,0,3,0,17,15,9,252,235,23,253,3,0,13,239,1,13,228,15,250,1,0,2,15,0,248,255,241,247,0,0,240,241,8,12,227,19,246,0,0,14,7,231,246,8,15,246,0,0,250,9,249,242,244,229,246,0,0,6,253,235,242,237,246,243,252,0,0,11,22,235,9,214,245,254,0,250,230,230,2,246,245,244,253,0,0,253,246,238,225,238,246,253,0,231,246,245,234,215,234,247,250,0,16,243,238,244,250,228,243,250,0,247,254,241,255,235,204,245,251,0,252,6,230,254,9,234,248,252,255,230,242,19,251,240,236,250,249,0,246,234,227,8,216,219,250,253,0,242,243,21,13,8,243,245,255,0,244,8,11,0,14,224,250,251,0,252,249,244,14,9,205,248,253,0,6,2,244,3,3,214,249,0,0,238,248,235,3,245,243,249,253,0,234,246,254,8,14,244,252,2,255,233,242,18,15,235,211,6,254,0,247,244,251,14,248,253,4,253,255,231,244,3,5,227,232,4,255,0,12,234,3,0,229,249,6,254,255,9,228,250,255,246,253,4,248,0,230,11,255,14,250,226,10,3,0,239,16,8,11,9,2,8,255,255,243,6,18,19,19,227,5,251,255,247,16,16,234,243,2,4,254,0,19,244,244,2,252,0,6,0,0,245,236,232,11,11,252,3,1,0,242,228,249,10,237,244,251,255,0,14,255,2,230,12,15,7,254,0,243,245,10,1,13,242,1,251,0,252,231,235,245,244,22,7,4,0,11,255,11,237,12,28,2,2,0,10,241,230,246,5,30,3,0,0,239,253,13,247,22,27,0,0,0,12,17,230,234,242,21,3,252,0,240,227,14,1,26,255,5,253,0,247,4,250,234,12,2,4,0,0,236,15,16,229,20,16,11,2,0,