unsigned char model[] = {28,0,0,0,84,70,76,51,20,0,32,0,28,0,24,0,20,0,16,0,12,0,0,0,8,0,4,0,20,0,0,0,28,0,0,0,144,0,0,0,232,0,0,0,160,224,0,0,176,224,0,0,48,233,0,0,3,0,0,0,1,0,0,0,16,0,0,0,0,0,10,0,16,0,12,0,8,0,4,0,10,0,0,0,12,0,0,0,28,0,0,0,56,0,0,0,15,0,0,0,115,101,114,118,105,110,103,95,100,101,102,97,117,108,116,0,1,0,0,0,4,0,0,0,152,255,255,255,12,0,0,0,4,0,0,0,7,0,0,0,100,101,110,115,101,95,50,0,1,0,0,0,4,0,0,0,122,30,255,255,4,0,0,0,11,0,0,0,100,101,110,115,101,95,105,110,112,117,116,0,2,0,0,0,52,0,0,0,4,0,0,0,220,255,255,255,15,0,0,0,4,0,0,0,19,0,0,0,67,79,78,86,69,82,83,73,79,78,95,77,69,84,65,68,65,84,65,0,8,0,12,0,8,0,4,0,8,0,0,0,14,0,0,0,4,0,0,0,19,0,0,0,109,105,110,95,114,117,110,116,105,109,101,95,118,101,114,115,105,111,110,0,16,0,0,0,180,223,0,0,172,223,0,0,136,223,0,0,4,223,0,0,152,222,0,0,4,219,0,0,88,218,0,0,188,0,0,0,180,0,0,0,172,0,0,0,164,0,0,0,156,0,0,0,148,0,0,0,140,0,0,0,108,0,0,0,4,0,0,0,50,31,255,255,4,0,0,0,88,0,0,0,12,0,0,0,8,0,14,0,8,0,4,0,8,0,0,0,16,0,0,0,40,0,0,0,0,0,6,0,8,0,4,0,6,0,0,0,4,0,0,0,1,0,0,0,235,3,0,0,0,0,10,0,16,0,12,0,8,0,4,0,10,0,0,0,2,0,0,0,2,0,0,0,4,0,0,0,6,0,0,0,50,46,49,53,46,48,0,0,150,31,255,255,4,0,0,0,16,0,0,0,49,46,49,52,46,48,0,0,0,0,0,0,0,0,0,0,112,31,255,255,116,31,255,255,120,31,255,255,124,31,255,255,128,31,255,255,132,31,255,255,202,31,255,255,4,0,0,0,140,217,0,0,253,10,14,241,252,244,255,2,0,4,13,238,252,0,19,6,14,3,255,255,0,249,239,254,254,1,26,249,8,231,254,3,0,6,243,254,235,252,26,9,252,16,253,250,0,231,246,241,6,7,2,231,13,239,2,252,0,236,0,240,249,236,246,11,255,233,7,2,0,254,234,235,5,231,7,9,13,231,4,2,255,239,3,1,20,229,21,251,253,9,255,5,255,7,10,2,6,4,245,239,255,236,246,0,255,243,243,12,0,232,245,235,255,17,244,255,255,238,249,15,2,238,18,239,238,231,240,254,255,248,239,255,6,242,235,5,238,14,234,4,255,252,247,3,17,2,14,13,254,242,233,255,255,1,240,15,2,224,18,241,8,253,234,254,0,245,230,7,242,251,13,7,236,246,241,253,0,16,4,5,241,238,254,233,11,2,239,255,0,4,6,18,9,248,249,253,239,242,236,1,0,251,5,240,243,233,10,251,6,233,245,10,0,7,239,247,229,228,17,18,0,4,244,245,1,16,245,235,242,224,255,8,252,1,223,36,1,248,247,254,231,222,250,2,236,238,236,6,1,240,15,240,229,252,2,0,237,241,235,252,1,11,8,234,247,254,5,11,5,252,225,4,2,12,230,255,229,238,240,235,6,250,209,2,3,251,8,235,1,249,12,238,1,12,220,248,3,236,237,231,241,253,227,21,5,8,196,1,4,242,234,6,236,238,8,255,239,16,208,252,4,232,245,10,244,241,0,12,0,12,236,242,5,230,231,10,233,230,243,250,255,249,222,244,5,242,237,238,254,236,238,8,237,248,233,4,5,4,236,244,1,226,252,2,246,252,237,252,5,243,0,232,243,216,250,9,252,239,237,1,5,10,241,7,235,248,255,4,11,18,235,16,5,249,4,240,251,244,253,2,237,8,250,1,4,250,228,1,251,14,30,15,16,25,244,251,4,253,253,8,236,255,251,11,8,250,4,1,4,12,237,238,255,10,18,6,252,11,5,15,3,3,242,254,245,16,7,240,238,251,4,18,3,233,239,4,249,247,253,233,14,13,250,254,2,234,234,9,243,4,247,17,13,1,1,0,2,240,9,253,254,10,253,243,232,20,2,9,1,6,245,12,253,33,251,237,14,4,4,249,0,243,7,1,248,29,18,7,232,250,3,0,0,243,239,249,228,40,9,1,234,16,17,253,0,231,1,244,231,49,0,237,255,253,28,7,255,231,5,7,229,47,241,233,255,10,36,2,254,249,232,5,8,46,26,252,236,230,35,3,254,236,244,17,0,38,14,247,9,233,20,7,253,244,10,247,13,8,8,1,232,243,19,9,253,234,9,251,247,4,3,234,15,6,9,7,253,5,8,244,2,19,25,249,233,0,3,8,253,231,14,9,23,23,11,2,241,2,17,255,253,5,10,0,17,244,241,7,10,5,10,13,253,239,9,15,9,253,3,231,233,8,13,0,253,248,243,7,28,242,19,236,232,245,15,6,253,233,17,13,0,10,236,240,250,10,10,6,254,237,249,247,30,3,240,4,15,228,253,10,255,6,248,244,7,244,241,10,10,224,254,3,255,237,15,250,0,15,239,233,17,233,0,8,255,251,252,12,17,20,251,246,8,254,255,2,255,17,243,4,1,245,252,230,246,235,254,5,255,248,8,19,241,6,253,247,243,229,249,10,255,5,232,245,222,4,6,242,1,248,244,3,255,236,246,239,244,245,244,6,12,224,247,10,255,9,239,250,233,5,19,235,236,246,253,12,255,236,236,254,241,251,5,248,249,246,32,3,255,255,239,7,230,238,26,238,1,7,20,8,255,251,249,16,217,243,27,8,237,243,243,248,255,232,246,10,244,248,36,11,251,231,238,235,255,15,251,236,255,250,23,242,0,229,241,13,0,234,241,241,251,217,24,240,0,7,246,19,0,235,244,255,5,237,12,12,255,250,238,8,0,241,251,7,8,251,21,235,235,255,242,6,0,2,237,12,247,218,16,231,245,12,248,2,1,243,4,13,22,233,16,243,233,245,6,5,1,234,8,240,243,248,247,7,12,246,255,19,1,242,8,5,8,239,4,17,3,14,253,18,1,241,234,11,12,222,232,11,233,9,249,17,0,3,6,15,10,242,236,237,15,10,225,7,0,237,251,4,4,228,243,12,253,7,253,26,0,11,254,234,249,8,7,245,14,8,3,27,0,247,253,11,255,230,14,241,242,233,5,23,0,235,233,248,17,238,12,247,14,236,5,19,0,16,240,10,16,254,243,18,9,1,3,22,0,234,243,7,8,248,13,6,14,238,5,27,0,237,3,249,28,2,249,232,247,7,13,27,0,12,241,7,27,237,241,14,253,255,13,27,0,233,254,12,22,7,239,7,17,19,2,33,0,234,4,251,250,235,255,254,237,3,250,39,0,14,244,247,13,250,250,248,4,235,1,33,0,251,11,20,9,237,14,250,246,252,18,25,0,0,240,0,26,255,233,2,0,237,6,33,0,244,11,10,1,21,249,8,242,1,6,26,0,248,251,252,6,15,247,233,11,233,9,34,0,233,246,238,14,8,230,13,242,8,21,44,0,12,233,241,25,8,8,233,240,5,15,35,0,8,4,247,15,14,239,240,16,6,4,36,0,251,250,237,10,246,243,232,9,231,245,31,0,4,0,9,243,250,3,7,8,4,246,29,0,2,13,3,255,239,231,242,235,8,249,23,0,237,241,233,4,245,0,6,255,232,239,38,0,246,13,237,18,9,231,255,239,232,245,28,0,251,250,4,240,9,228,251,12,12,2,32,0,1,2,17,14,13,234,254,250,17,252,23,0,16,233,239,12,239,235,250,248,253,249,29,0,248,244,255,255,231,254,15,13,13,251,26,0,238,236,243,237,249,252,240,234,17,236,28,0,6,9,2,243,252,228,4,240,232,252,23,0,11,12,234,1,252,236,232,6,3,243,25,0,4,234,12,17,8,239,237,18,251,5,21,0,241,242,237,11,251,242,244,238,240,249,19,0,12,3,9,7,0,247,245,254,15,246,24,0,10,232,13,242,4,242,3,235,4,244,26,0,242,230,254,8,16,249,250,232,238,252,22,0,0,2,251,8,242,230,253,1,243,252,27,0,12,0,11,1,234,3,16,240,244,4,19,0,243,0,10,5,6,235,250,253,233,255,26,0,235,9,244,18,5,0,235,245,253,255,24,0,17,253,7,246,254,2,247,241,232,248,26,0,6,242,1,7,12,6,255,7,238,243,235,255,4,25,10,251,20,252,11,16,240,1,253,255,253,252,254,12,25,19,232,7,232,252,249,255,237,236,25,23,20,24,21,245,245,15,1,255,20,3,0,15,13,17,4,6,254,13,17,255,231,17,255,248,19,25,235,24,21,13,242,255,252,21,235,248,8,35,238,12,19,34,17,255,255,22,10,7,255,1,238,253,4,19,3,255,253,10,241,244,26,36,254,237,0,20,3,254,253,241,3,250,12,14,239,7,15,9,15,254,248,254,248,242,11,249,10,254,13,249,10,254,244,15,247,1,12,36,252,19,240,248,0,253,18,235,241,10,7,243,251,248,249,26,246,253,17,240,252,252,9,20,250,32,237,15,16,253,5,248,1,235,245,8,234,28,15,233,0,253,13,252,9,218,1,239,10,31,253,253,6,253,9,255,249,218,251,252,18,250,243,228,30,253,255,14,15,209,253,231,251,11,238,232,251,253,17,22,4,215,2,237,12,239,19,242,249,254,237,240,253,216,249,215,249,241,253,236,207,255,16,235,6,251,220,247,232,247,245,198,253,0,252,231,13,10,234,224,246,245,24,212,249,1,247,24,252,242,233,243,244,4,4,205,254,2,253,248,10,19,226,226,14,255,247,2,17,2,239,238,16,248,251,253,244,12,13,250,240,4,253,5,8,34,239,240,6,239,7,8,249,4,244,238,23,17,4,243,232,249,8,51,37,3,19,6,16,25,248,247,11,18,253,21,1,3,234,251,10,18,249,243,17,18,0,42,24,1,9,15,1,23,26,236,23,236,233,21,233,1,20,17,21,41,255,195,2,242,24,36,31,1,3,248,8,36,244,240,10,230,231,16,15,1,19,17,8,13,15,229,17,252,6,247,249,1,21,18,9,4,244,192,9,19,241,6,22,1,254,24,22,12,244,214,2,16,10,5,20,1,20,245,250,248,28,236,235,8,254,16,13,1,17,231,251,6,0,222,233,239,242,17,220,0,1,255,5,252,15,221,237,4,241,53,244,0,19,245,4,230,33,250,232,247,231,56,11,0,254,24,19,215,255,253,22,10,237,46,12,255,24,243,251,230,33,15,8,0,233,49,5,254,22,21,230,250,4,16,237,0,252,40,10,251,250,255,245,224,245,3,15,7,11,16,254,251,235,0,17,238,14,10,17,242,249,45,24,251,10,238,232,17,27,31,239,223,238,14,251,251,15,231,15,10,10,35,20,14,248,242,2,252,19,1,234,25,13,31,1,234,241,22,249,253,252,17,252,19,245,250,238,4,229,38,250,252,235,242,17,33,255,249,6,18,245,16,6,252,244,9,243,13,241,250,21,9,246,255,2,251,244,0,21,31,3,21,249,235,238,1,4,251,0,4,22,247,20,3,18,251,229,250,2,250,233,3,8,16,27,33,0,17,243,24,0,250,234,240,252,255,13,1,9,7,230,9,17,250,24,13,23,3,238,9,235,17,13,27,17,251,3,19,238,6,234,3,247,240,231,23,250,251,22,237,247,243,243,10,244,252,244,5,251,251,247,15,253,23,0,241,17,15,19,239,15,253,235,15,25,25,212,2,20,0,229,202,13,255,16,249,253,251,243,33,246,16,17,238,245,0,14,19,4,24,246,242,14,21,242,201,254,1,238,240,19,254,225,21,13,0,246,212,2,4,238,250,238,236,213,5,238,9,10,235,254,7,7,0,252,23,216,19,247,19,23,218,240,7,17,237,21,229,4,250,2,241,7,233,248,9,6,18,25,254,254,9,241,3,240,247,4,7,247,0,17,14,246,13,22,245,243,214,20,8,12,24,235,15,252,11,7,244,25,230,15,8,238,7,238,6,8,11,236,240,2,241,246,7,12,15,250,12,14,1,19,17,14,217,11,7,242,249,12,10,249,242,20,13,245,218,5,4,11,12,8,239,5,237,231,22,26,211,10,4,255,252,241,244,15,246,21,243,11,1,237,3,245,16,236,3,28,202,246,31,0,220,4,2,237,16,241,15,2,199,6,24,24,221,253,2,237,253,23,17,253,223,6,247,247,224,230,2,247,250,255,242,22,200,254,28,237,252,225,2,2,244,249,16,2,186,14,249,234,240,206,3,254,9,17,21,251,200,252,18,20,23,249,4,232,7,18,230,252,194,20,12,9,246,218,4,242,17,7,13,1,190,237,19,10,5,229,5,1,239,239,238,252,228,3,249,4,239,255,5,255,231,9,1,237,206,22,234,20,219,229,5,246,251,17,241,240,224,236,13,235,251,16,6,10,242,6,231,6,203,13,6,246,15,10,5,23,236,6,228,8,246,254,247,5,9,2,5,14,8,16,248,31,204,15,231,21,17,255,4,8,238,16,227,28,241,3,247,15,9,238,3,253,238,248,240,10,248,251,255,7,52,231,3,231,1,6,222,245,234,237,6,4,7,222,2,244,13,240,248,248,209,8,0,13,227,220,2,2,16,232,213,14,238,4,234,5,252,237,2,237,236,10,235,4,245,13,244,20,245,222,3,15,243,248,213,22,1,6,244,236,230,242,3,12,243,233,203,27,253,240,12,23,220,205,3,15,2,227,232,13,21,250,5,19,11,205,2,4,252,4,220,31,245,0,3,12,41,211,2,13,24,232,228,23,252,4,248,10,87,220,1,244,232,8,1,21,10,233,6,10,54,242,1,3,232,6,237,1,8,2,249,2,58,254,0,18,245,20,217,18,246,254,233,4,26,203,255,10,18,15,250,9,37,247,7,248,35,212,255,232,15,246,227,246,33,230,240,23,45,218,255,242,24,241,13,9,14,241,17,246,49,249,0,237,8,253,255,21,20,12,233,241,55,250,0,21,250,15,11,25,25,4,4,11,27,232,0,253,14,254,239,25,26,242,10,8,51,245,0,10,0,251,15,8,248,244,244,238,34,1,0,247,16,240,12,27,18,246,238,246,31,12,0,230,253,10,10,23,232,236,13,23,34,13,0,12,238,239,8,20,18,246,25,233,10,255,0,230,2,238,9,15,247,4,10,234,26,21,0,246,19,233,250,21,10,235,242,235,0,29,0,5,238,247,0,9,245,11,235,241,41,28,0,232,240,22,254,246,25,3,16,247,17,5,0,243,17,254,25,254,21,232,19,249,43,254,0,21,248,14,238,254,233,21,230,20,58,233,0,20,24,248,3,24,250,241,10,1,46,7,0,6,4,14,4,255,243,0,17,23,29,244,0,235,12,244,12,6,2,252,236,9,254,250,0,5,248,247,250,10,248,10,245,241,244,248,0,0,246,243,239,241,252,243,233,250,250,255,0,243,18,245,3,247,228,253,247,247,247,248,0,1,250,1,2,237,253,4,8,252,248,255,0,2,6,234,242,248,10,239,230,4,1,251,0,16,248,232,4,9,232,247,245,6,245,254,0,233,250,18,18,5,255,5,4,255,250,245,0,239,17,9,15,238,255,239,237,253,245,252,0,252,14,252,0,232,250,9,245,248,246,252,0,236,252,9,9,248,235,17,252,0,250,253,255,11,233,2,8,245,13,249,11,17,243,254,255,237,251,251,7,254,13,245,8,243,247,1,255,245,232,232,249,0,248,246,15,9,246,0,255,18,12,11,245,234,10,234,3,248,242,255,255,250,0,254,7,2,19,233,254,235,237,251,0,3,240,237,255,223,234,14,7,242,247,250,0,250,252,3,239,245,2,247,9,234,248,253,0,4,255,234,255,230,2,237,243,0,243,245,0,3,235,248,252,244,20,247,242,254,233,24,0,243,242,245,240,254,3,4,17,235,238,6,0,241,2,246,238,220,254,9,14,252,228,245,0,16,17,4,228,226,14,1,17,2,227,5,0,7,243,238,229,241,252,9,3,10,216,9,0,1,254,17,246,214,243,2,237,1,214,254,0,245,0,238,242,229,16,254,237,4,218,0,0,235,241,252,237,210,238,12,6,249,226,252,0,13,241,252,231,228,244,15,248,14,221,251,1,247,14,233,253,220,0,14,17,7,237,249,1,238,240,249,242,218,2,251,2,242,238,255,1,237,11,251,249,235,15,239,234,244,238,1,1,10,5,246,11,220,11,7,233,244,236,250,2,5,3,232,252,237,18,238,248,245,242,252,2,8,254,12,1,241,32,245,250,243,243,3,2,235,6,16,251,3,21,244,5,0,242,5,2,5,243,6,239,252,1,10,250,6,252,15,2,7,15,245,240,249,8,17,7,241,245,9,2,245,6,239,248,14,1,6,7,248,249,30,2,15,244,10,229,25,247,9,251,22,0,2,2,1,249,6,236,28,21,252,242,18,253,255,2,239,231,253,220,19,12,243,246,246,12,254,1,238,253,242,244,48,21,235,3,237,3,246,1,2,0,6,244,26,15,243,254,253,10,254,1,1,239,246,227,32,251,12,243,7,10,4,1,1,232,243,250,51,0,233,17,1,12,3,1,252,248,7,231,21,21,9,239,0,21,1,0,3,10,245,234,18,0,9,4,233,17,1,0,240,232,239,242,9,252,4,243,4,14,1,0,234,14,7,240,16,2,6,2,245,14,253,0,254,13,5,18,36,8,240,246,14,6,254,0,2,249,14,20,15,250,1,250,236,11,249,0,251,241,247,18,9,239,1,248,251,18,247,255,236,1,245,18,18,246,234,238,253,18,252,255,249,250,19,16,250,228,18,10,238,12,253,255,14,232,4,17,241,3,233,247,4,12,254,255,238,237,2,10,26,239,18,5,244,12,250,255,5,242,18,250,20,6,7,235,231,255,0,255,252,7,1,22,251,16,244,245,8,252,255,254,252,9,235,4,250,8,243,253,251,251,251,254,248,5,6,250,255,20,10,250,227,250,253,254,235,240,14,12,2,15,0,245,231,243,254,254,2,247,244,242,2,23,8,243,232,241,253,254,235,5,243,251,226,252,248,254,253,238,9,254,2,249,245,229,230,250,0,13,236,247,7,255,240,17,233,235,246,18,252,4,247,253,5,255,235,249,240,241,226,33,6,9,234,14,248,254,7,12,252,224,254,18,8,10,11,249,250,254,233,254,254,242,240,27,246,248,240,252,247,254,245,7,253,222,2,25,12,236,230,253,230,255,246,249,238,225,241,6,11,4,231,245,4,255,16,15,250,254,218,7,8,245,1,248,0,255,253,7,3,229,232,22,11,241,237,242,2,255,15,6,1,229,231,7,247,3,13,236,241,255,7,0,240,11,249,18,238,253,240,12,252,0,246,250,249,246,228,11,236,246,6,254,255,0,235,240,17,243,228,237,234,4,233,245,4,0,255,0,2,1,247,242,2,9,242,247,253,0,250,1,7,240,232,7,16,5,248,238,250,0,242,249,236,11,244,244,235,234,255,229,250,1,2,236,15,234,238,241,241,15,236,238,254,1,14,6,248,240,2,0,236,10,6,1,10,1,236,5,15,13,237,14,16,248,8,0,7,1,247,12,251,10,255,254,4,249,237,1,10,1,249,255,6,22,235,249,2,253,19,251,13,1,240,234,238,242,233,251,249,7,236,244,18,1,239,15,254,2,16,15,237,239,248,1,14,1,241,244,8,11,243,11,5,237,250,6,23,1,242,10,0,252,248,238,248,240,17,8,17,1,248,16,20,23,6,240,240,237,247,254,20,1,254,0,254,20,237,14,1,18,8,252,26,1,247,244,18,243,239,250,18,5,21,0,21,1,238,10,247,247,236,249,10,234,240,253,11,1,12,232,249,2,252,247,11,241,2,255,17,1,255,238,19,18,1,5,1,18,3,5,22,1,14,237,249,1,4,240,235,1,240,17,20,0,9,10,242,5,9,254,3,7,19,11,24,0,12,245,18,24,13,237,237,16,18,9,21,0,10,239,254,239,29,234,241,16,5,4,17,0,15,10,239,239,25,11,1,254,13,12,20,0,239,248,249,21,25,252,255,6,244,8,14,1,11,233,248,245,22,233,0,0,235,251,17,1,253,8,250,19,22,245,242,11,241,254,20,1,246,17,13,248,253,237,7,2,253,5,19,0,250,255,236,2,6,246,15,255,236,1,22,1,255,0,249,254,7,253,255,247,255,1,12,0,17,237,243,16,248,1,244,237,15,1,7,0,250,3,18,17,7,235,253,240,11,254,17,0,240,241,238,235,234,12,3,233,2,3,10,0,247,240,4,241,245,1,244,0,242,3,11,0,255,6,17,15,248,5,240,2,238,8,9,0,8,14,246,15,234,2,232,8,16,253,8,0,235,243,235,10,19,2,16,243,233,252,8,0,2,8,3,236,9,4,244,10,8,253,10,0,233,4,247,241,244,241,246,2,235,6,5,0,246,245,245,17,243,255,4,246,250,4,6,0,9,249,18,245,248,236,15,232,9,5,12,0,2,240,8,255,7,247,235,235,4,1,10,0,253,244,233,2,3,12,17,11,236,253,13,0,235,255,249,3,248,250,244,251,237,255,10,0,235,246,11,240,22,7,232,8,10,33,197,0,248,233,10,241,19,244,246,17,6,47,221,255,0,14,12,230,16,254,5,8,10,33,224,255,14,13,235,251,27,8,12,9,254,45,211,255,252,249,12,233,10,254,11,247,247,23,218,255,12,13,244,255,0,30,240,1,236,31,14,255,10,234,248,5,241,248,13,15,11,21,4,254,247,14,244,4,252,248,232,244,245,254,250,254,232,245,246,252,252,16,253,246,236,18,9,254,233,241,236,30,210,0,239,247,252,13,9,254,3,18,17,254,196,3,8,15,14,9,0,254,1,15,3,15,214,237,245,255,1,237,8,254,252,248,9,13,209,251,234,254,16,191,12,255,255,1,13,8,227,6,235,253,239,235,0,255,7,234,235,244,217,3,0,6,2,237,251,255,242,236,242,6,232,233,238,9,19,8,0,255,12,11,246,245,216,240,243,253,253,242,7,0,232,242,2,240,217,240,241,5,21,251,253,0,234,233,242,222,234,251,236,252,0,241,19,0,239,14,252,232,233,9,232,230,251,10,242,0,13,15,251,238,237,235,2,227,238,8,253,0,248,9,239,224,246,1,246,253,10,14,3,1,249,5,13,251,255,246,230,255,26,8,1,1,242,253,4,236,7,248,2,11,242,20,248,2,1,236,236,230,2,11,6,0,22,24,12,2,2,9,18,237,31,23,241,252,245,31,247,2,236,247,240,235,34,246,235,250,254,36,252,2,17,239,235,245,7,5,1,249,12,35,3,2,8,247,250,253,17,25,226,248,252,39,253,2,255,232,252,217,14,24,224,233,253,25,10,2,244,8,254,229,49,46,246,243,249,25,1,2,2,11,248,233,22,38,250,14,246,29,14,2,235,16,14,251,47,22,234,242,2,26,13,2,250,6,237,251,29,11,242,233,255,23,18,2,10,11,242,243,24,4,234,0,8,29,9,2,252,240,255,11,37,9,240,237,248,33,20,2,3,235,8,10,20,21,231,11,238,38,2,2,0,253,250,14,9,14,235,14,250,27,3,3,234,240,246,32,255,20,250,253,241,13,7,3,9,238,8,22,21,14,245,251,12,51,251,3,243,246,243,13,26,27,244,255,13,47,241,3,241,19,4,10,242,22,226,1,15,45,17,3,8,249,235,5,242,22,254,13,16,29,12,2,233,255,9,252,3,22,14,19,230,13,4,2,243,2,9,254,250,39,12,242,255,23,5,2,14,247,234,13,217,6,242,1,8,9,11,2,244,240,249,247,250,26,248,17,10,10,4,3,13,8,9,247,214,254,247,255,245,23,0,3,235,251,235,243,238,8,249,11,2,19,16,3,9,8,238,244,248,22,245,19,242,17,16,2,246,253,239,15,232,27,253,249,15,16,16,2,9,17,2,25,237,25,8,11,239,22,6,2,237,1,246,18,1,16,252,16,14,18,24,1,9,243,254,30,252,14,235,7,253,22,11,1,0,250,4,35,237,9,7,25,245,39,5,1,16,242,240,36,16,223,11,14,246,29,0,0,4,2,15,15,241,228,238,24,13,25,6,255,238,254,15,44,251,210,231,20,243,21,254,255,18,240,6,38,228,247,249,18,245,22,252,255,250,233,253,17,5,227,6,255,2,11,249,255,1,240,243,35,230,198,16,19,245,15,255,255,238,233,16,37,241,221,4,17,243,9,0,255,242,13,244,49,234,214,16,13,244,26,251,255,251,17,250,27,5,202,245,24,15,17,0,255,11,12,236,14,238,191,7,242,240,4,0,255,250,9,246,39,248,187,253,236,0,247,20,255,236,15,251,18,247,223,18,12,3,249,18,255,251,250,11,33,10,186,238,13,242,247,18,255,239,9,16,6,28,211,252,245,238,8,2,255,246,4,249,20,250,204,248,241,255,22,1,255,12,2,246,3,24,195,247,5,7,11,248,255,13,7,236,7,14,208,2,248,236,251,4,255,238,2,251,239,5,241,11,240,234,29,9,255,2,255,7,5,20,233,16,8,9,10,247,254,253,236,5,222,7,243,13,0,0,2,244,254,18,245,239,255,4,234,244,7,8,7,242,254,14,6,15,235,11,229,17,244,231,10,233,254,18,249,15,222,251,223,240,239,15,5,246,254,6,15,5,238,21,246,232,235,1,40,242,254,8,16,3,251,238,228,253,224,14,2,246,255,244,16,234,252,12,251,6,233,232,248,238,255,9,11,17,252,20,252,248,6,232,253,225,0,18,249,243,249,252,253,10,243,1,23,227,0,241,250,2,246,6,235,5,4,14,27,221,0,244,242,246,248,241,5,242,250,10,23,226,0,2,246,244,220,255,251,245,4,11,5,227,0,14,5,18,225,1,12,7,236,229,251,215,0,237,248,249,216,17,235,246,245,242,237,218,0,232,238,0,234,242,253,240,239,15,244,221,0,6,245,246,224,249,6,244,244,231,250,211,0,14,10,239,219,22,250,6,248,245,254,222,0,9,250,3,232,11,245,237,228,9,5,213,0,238,245,240,215,7,19,236,226,244,250,216,0,0,254,10,255,234,24,252,245,246,249,224,0,232,240,8,254,250,2,254,4,8,11,216,0,242,248,241,247,244,19,10,246,228,250,212,255,241,231,233,233,7,249,250,230,8,6,222,255,240,238,240,6,255,250,4,12,3,7,224,0,246,245,3,228,225,0,255,13,1,6,219,0,8,234,237,224,244,252,9,5,16,252,223,0,241,11,243,229,3,12,244,0,232,21,220,0,252,14,237,0,4,242,250,244,244,249,226,0,251,18,7,244,12,10,240,1,13,252,220,0,248,254,252,229,2,23,241,234,5,245,226,0,246,10,5,16,3,16,248,248,17,251,225,0,251,14,5,252,243,6,243,8,254,9,230,0,14,16,251,232,3,5,253,245,249,4,225,0,12,233,242,234,13,2,233,12,244,7,227,0,10,16,242,247,3,19,3,9,1,5,223,0,252,4,239,240,241,240,7,249,231,255,227,0,250,3,241,236,15,17,233,2,8,3,227,0,4,248,9,251,246,1,244,15,12,4,225,0,14,252,10,251,247,15,13,239,3,9,225,0,241,251,8,252,255,240,239,242,242,7,235,0,249,252,12,14,255,250,234,8,232,0,227,0,240,237,254,240,240,14,14,232,16,239,225,0,241,7,233,251,244,249,2,254,233,248,223,0,237,252,232,15,249,14,11,236,11,11,232,0,15,233,247,248,243,6,235,248,241,17,232,0,234,14,242,17,248,0,11,11,13,13,236,0,9,251,13,0,6,231,5,13,251,13,236,0,10,244,7,10,248,226,245,247,235,13,239,0,248,7,254,237,21,230,4,3,235,14,238,0,242,248,4,251,9,6,233,8,239,2,239,0,250,243,7,253,0,247,234,252,234,7,251,0,236,238,252,7,255,235,0,253,10,8,253,0,237,240,9,10,252,244,16,252,241,250,247,0,247,254,242,250,9,2,254,7,243,3,255,0,3,7,11,241,227,253,246,243,9,255,255,0,239,1,247,253,245,240,0,250,238,248,255,0,240,236,240,12,244,252,14,246,253,245,0,0,11,14,6,4,225,12,244,11,236,232,255,1,247,245,2,11,0,4,16,243,2,242,253,1,8,0,9,8,231,246,234,252,3,244,253,1,13,246,243,248,238,245,3,15,7,253,255,1,5,236,251,247,11,8,255,241,247,247,253,1,253,245,17,250,9,247,237,236,5,253,253,0,14,254,253,10,248,21,1,240,7,252,9,0,248,243,0,255,232,24,239,241,8,4,0,0,240,250,13,9,228,3,12,11,244,253,253,0,17,247,2,248,241,1,243,255,14,0,251,0,11,6,245,12,249,253,255,242,21,255,255,1,8,8,238,10,15,10,236,241,7,254,4,1,237,15,16,248,251,30,16,235,15,253,0,1,11,245,235,245,22,25,232,1,253,252,5,1,237,238,10,231,245,38,13,242,16,1,6,1,6,7,8,236,3,35,254,15,4,6,250,1,8,8,18,230,18,44,252,251,0,5,6,1,4,248,10,255,253,15,235,15,240,5,254,1,10,244,0,253,13,38,245,235,245,8,253,1,235,238,3,6,255,24,237,13,240,9,9,0,12,252,9,240,9,20,250,242,247,3,8,0,238,4,255,240,251,18,247,16,13,4,5,0,240,251,242,244,25,39,2,3,242,6,9,0,1,244,252,11,17,30,234,239,254,17,249,0,5,247,8,7,3,42,241,12,239,10,7,1,246,9,243,242,6,47,11,11,236,3,5,1,16,254,14,7,9,44,2,22,249,0,253,1,248,250,254,19,24,37,9,254,240,6,14,1,6,10,247,21,250,23,12,246,1,19,255,1,4,235,236,22,255,28,249,6,249,19,3,1,253,1,248,7,7,20,14,23,234,11,255,1,249,8,12,17,4,15,233,20,245,6,1,1,3,235,6,253,241,4,234,24,4,11,1,1,252,247,251,19,236,19,251,243,251,11,0,1,247,239,5,3,234,5,247,255,5,8,255,1,15,13,239,254,2,251,4,1,240,11,3,1,1,252,239,16,13,18,240,8,8,8,5,1,0,9,238,253,243,0,245,243,238,6,1,1,248,253,252,5,247,5,1,10,247,3,4,1,239,234,248,5,244,245,6,9,13,9,255,1,1,249,247,2,251,249,236,15,240,7,9,1,8,11,251,15,234,255,2,22,9,10,255,2,1,247,15,2,245,7,251,6,10,15,1,1,238,249,19,3,10,1,251,6,13,1,253,1,3,3,3,3,9,240,237,11,245,253,253,1,2,250,251,11,239,219,16,254,0,3,2,1,17,255,242,25,246,251,10,14,3,1,250,1,247,243,9,25,236,229,254,17,243,253,254,1,249,16,0,253,12,221,0,248,19,255,2,0,4,0,238,2,14,217,255,3,250,255,3,0,5,250,13,253,14,224,5,237,12,3,0,0,247,236,0,16,248,222,241,234,249,6,0,0,253,245,238,21,251,248,14,3,243,255,3,0,244,1,15,23,7,225,7,253,241,252,9,0,14,11,255,29,2,239,16,16,16,2,255,0,241,13,242,5,234,219,253,9,249,2,1,0,247,10,250,11,21,6,14,6,9,252,252,0,243,238,251,0,3,240,8,254,241,11,253,0,252,7,7,18,8,5,7,4,9,5,7,0,247,16,246,12,6,231,252,246,247,2,6,0,15,1,6,252,254,231,5,6,245,254,250,0,13,7,254,242,9,236,1,244,5,242,250,255,9,240,243,240,20,243,240,251,1,253,248,255,10,13,253,0,7,241,242,235,10,255,246,255,246,246,234,236,12,253,2,245,12,6,245,255,18,4,234,1,8,11,10,1,251,7,247,255,11,13,253,255,10,240,16,253,7,2,248,255,240,244,246,233,20,249,247,235,249,1,246,0,9,4,243,9,20,254,249,235,2,247,247,0,238,4,4,236,251,250,3,236,10,252,248,0,255,247,254,243,8,12,240,232,0,11,241,255,255,6,1,241,16,242,0,8,252,9,250,255,250,8,241,6,240,4,244,239,9,2,243,255,10,2,248,12,244,12,17,240,5,3,244,255,10,247,253,231,234,14,15,250,5,250,241,255,238,8,17,3,9,12,0,237,17,245,241,255,246,251,255,254,8,10,236,250,251,248,242,0,248,15,252,248,239,13,245,8,16,249,244,0,254,15,252,10,249,242,250,15,255,2,244,0,246,249,18,11,21,247,251,241,248,5,240,0,252,17,6,1,2,18,5,11,255,2,243,0,253,235,245,247,13,10,13,8,6,1,241,0,239,239,5,9,243,252,3,248,249,8,241,0,8,253,248,9,238,236,250,245,9,255,244,0,16,241,249,247,8,6,249,243,239,4,242,0,250,8,2,232,4,255,16,236,235,1,241,0,252,240,240,9,241,253,17,3,243,255,244,0,239,240,6,254,10,252,248,254,247,251,235,0,245,253,0,2,246,13,0,239,255,0,244,0,255,15,237,248,236,14,3,4,244,254,243,0,9,252,17,235,2,251,9,235,254,3,242,0,255,8,12,235,4,1,255,13,253,251,243,0,13,13,8,239,13,255,236,245,248,252,244,0,247,247,248,15,11,10,236,237,249,2,243,0,7,6,6,7,245,7,10,6,17,255,241,0,14,6,3,0,7,1,237,235,12,3,242,0,1,254,251,5,0,9,4,238,9,2,244,0,242,253,252,255,4,238,6,243,242,255,242,0,15,243,253,248,239,243,240,245,243,255,243,0,11,11,16,7,241,238,240,17,0,3,245,0,237,240,255,253,242,235,5,9,250,2,244,0,15,9,236,14,2,6,246,252,245,2,247,0,250,246,4,244,250,19,12,11,6,3,241,0,251,250,240,15,4,13,248,251,5,248,242,0,3,16,8,233,244,247,238,11,15,248,243,0,241,247,1,235,248,5,15,8,239,253,242,0,4,248,6,6,243,238,244,242,240,255,245,0,255,250,8,238,3,33,3,252,226,46,178,1,2,247,229,242,11,40,251,6,11,43,194,255,9,248,10,9,4,34,6,233,247,19,216,254,250,13,17,220,10,40,15,247,14,6,222,253,246,13,8,241,239,25,14,9,226,25,224,252,9,16,10,15,244,60,0,5,6,43,27,252,252,8,253,242,0,50,255,241,235,40,32,252,247,2,229,248,229,30,7,230,16,18,7,252,238,255,8,21,238,42,241,238,246,250,45,251,249,253,18,10,209,27,237,4,9,226,12,250,19,234,253,13,194,34,251,237,13,245,0,251,229,12,233,24,203,28,15,22,253,220,12,252,12,232,4,20,227,18,236,2,231,162,30,253,249,253,7,43,223,17,19,237,243,219,3,255,3,244,254,31,210,5,6,1,20,229,252,0,16,4,233,251,206,244,18,237,246,206,254,1,233,247,252,250,231,6,242,25,6,200,251,1,4,241,0,240,228,241,239,236,251,219,6,1,237,238,13,223,198,235,2,247,7,208,3,1,245,237,20,213,196,8,9,10,24,197,61,2,10,6,19,233,216,255,236,239,240,231,26,3,7,227,251,212,203,240,243,245,15,212,231,5,244,246,12,219,233,253,250,242,237,195,247,8,231,1,242,227,237,219,232,11,248,213,244,11,251,229,253,215,227,255,0,244,15,201,1,13,6,253,5,222,244,245,249,18,243,199,247,14,250,14,246,229,222,228,250,4,251,190,231,15,233,230,246,252,233,231,234,245,252,233,224,15,253,251,240,225,235,250,239,15,19,223,249,15,250,222,255,240,237,246,12,239,244,229,248,14,247,227,239,7,8,237,239,237,10,245,241,14,242,229,12,241,236,251,253,9,9,222,241,13,244,234,235,14,255,249,13,1,243,217,5,13,7,12,3,30,13,6,19,12,18,227,10,13,232,248,229,13,25,236,245,8,247,203,238,13,239,3,9,249,252,11,232,7,252,31,231,13,16,10,248,246,20,27,254,6,3,23,20,12,247,238,13,1,27,241,245,251,6,238,13,12,231,223,230,22,23,242,4,5,15,20,3,11,243,4,243,240,3,245,237,249,250,34,0,10,19,8,243,250,14,18,231,232,253,60,6,9,246,1,16,212,58,36,235,227,236,36,4,8,240,247,235,216,39,2,229,253,12,12,245,7,255,242,245,234,18,1,235,254,241,44,2,6,237,227,254,217,28,10,11,243,255,43,3,6,9,238,19,219,17,10,240,229,246,53,30,5,250,246,231,217,24,26,15,228,9,64,2,5,236,228,6,252,44,43,2,254,230,40,1,4,251,243,245,237,1,9,6,243,231,64,41,4,7,227,22,13,17,39,11,11,251,38,30,4,239,1,239,27,5,14,5,12,7,39,33,4,1,226,5,11,34,14,249,237,244,50,13,4,230,0,24,48,19,11,247,14,250,58,56,4,255,255,16,41,1,26,255,3,236,57,32,4,7,7,1,28,10,14,240,26,255,52,19,3,229,251,0,62,5,243,230,14,1,42,8,3,247,243,246,63,39,247,255,13,223,17,37,2,249,15,6,35,27,251,249,15,7,38,21,0,239,237,9,36,9,3,234,7,222,30,11,255,243,7,16,11,27,244,251,10,1,13,23,254,246,233,233,19,239,241,244,22,222,2,42,254,247,237,17,16,3,236,233,247,1,249,45,253,229,5,237,0,240,242,251,237,230,4,30,252,1,4,0,237,3,11,3,4,8,251,14,251,3,239,234,245,248,14,242,248,241,252,39,250,254,227,252,248,243,22,231,248,230,32,23,249,4,14,15,251,15,30,4,1,247,41,25,248,235,238,23,221,232,4,243,232,2,223,245,247,242,7,20,232,214,26,9,227,235,215,227,246,235,238,242,2,206,6,12,237,221,218,24,246,239,3,244,231,233,238,0,230,241,234,18,246,235,240,237,223,220,232,9,10,244,219,5,246,17,12,235,236,249,245,239,238,5,217,249,247,234,240,249,249,242,244,245,254,12,35,252,247,238,246,11,222,230,242,242,233,223,240,18,246,249,239,23,6,238,5,242,0,9,245,31,246,231,13,22,10,218,239,227,253,239,232,45,246,247,15,13,226,225,8,229,8,230,237,48,248,4,236,2,6,245,4,17,238,245,226,47,250,18,12,243,16,223,8,15,12,228,249,45,254,12,245,252,236,252,19,6,232,16,233,45,1,16,9,19,235,9,251,238,16,10,231,33,3,249,234,252,10,8,255,1,235,6,10,36,4,14,4,237,4,249,255,252,238,229,18,47,3,233,227,7,12,8,255,16,9,2,14,27,1,3,245,23,5,255,250,251,249,244,30,30,255,248,9,249,24,16,246,9,3,253,25,41,253,7,239,1,17,23,31,234,0,5,241,71,252,229,2,250,254,239,6,236,4,4,251,67,251,9,254,250,11,246,1,2,245,242,0,64,252,15,225,14,12,241,13,4,15,9,2,48,253,246,10,12,14,20,248,246,245,240,253,61,254,16,16,253,250,15,5,12,21,235,245,70,255,242,242,2,25,241,251,248,241,253,249,68,0,243,252,1,248,251,16,248,4,246,45,65,0,231,242,241,27,2,24,16,251,16,36,85,0,239,247,10,25,21,248,1,21,12,29,70,0,14,1,22,29,0,22,255,16,3,30,72,255,239,230,22,32,233,8,12,23,236,23,60,255,235,9,248,4,231,253,235,251,12,251,62,254,249,244,243,33,244,250,228,248,5,252,59,254,5,237,3,10,251,13,238,6,227,227,65,254,17,238,246,15,248,237,231,21,251,243,75,255,243,245,22,12,232,234,10,241,228,225,57,255,7,229,3,247,225,249,232,14,7,231,61,0,235,241,24,251,236,223,236,235,230,218,61,1,8,253,239,15,6,222,7,11,1,192,82,1,1,247,22,5,223,5,253,16,18,248,63,2,238,246,8,1,250,11,245,238,247,235,67,2,232,229,10,232,13,231,232,228,238,244,54,1,15,242,7,1,236,228,9,254,250,1,67,1,21,225,14,252,5,236,255,14,236,239,54,0,1,230,6,7,228,10,236,237,6,248,54,0,237,225,244,22,247,12,230,244,242,24,53,0,253,250,2,244,234,8,251,231,18,254,64,0,5,3,7,235,234,7,251,16,234,232,60,0,17,1,251,21,242,250,228,248,234,200,54,1,241,242,13,245,14,8,228,7,5,249,55,0,242,253,13,19,2,232,255,252,236,248,62,1,5,5,22,238,8,22,15,0,250,13,5,0,15,237,250,19,241,245,17,246,10,15,8,0,251,242,240,255,17,24,6,19,253,18,12,0,234,251,18,7,251,25,21,253,17,21,12,0,22,3,12,19,251,23,17,9,14,7,2,0,234,236,246,245,247,26,14,8,234,11,9,0,240,252,0,12,251,4,235,23,1,14,7,0,255,249,252,251,235,22,235,1,250,18,12,0,237,0,251,13,5,18,0,248,16,254,12,0,19,233,243,11,14,16,254,7,22,12,6,255,246,12,255,250,234,254,19,240,240,254,254,255,22,2,5,17,255,10,14,2,4,4,255,255,236,239,1,3,240,8,6,248,12,2,5,255,247,250,245,14,0,12,10,20,3,13,6,255,247,238,15,12,238,9,11,252,17,8,6,255,12,247,21,2,237,13,15,246,14,15,9,255,15,255,12,246,245,11,238,251,240,20,7,255,6,18,0,7,0,12,2,2,6,5,253,255,243,236,18,245,242,234,253,0,237,13,14,0,238,249,252,240,244,233,235,11,251,18,232,0,255,236,249,243,29,247,254,242,0,8,237,0,20,238,8,6,9,239,5,252,6,6,241,0,242,14,241,255,12,3,2,15,10,31,245,0,14,235,252,243,3,245,246,239,247,32,4,0,252,16,21,246,5,1,236,0,5,20,0,0,248,236,11,251,17,233,236,246,232,25,247,255,245,240,246,240,11,250,241,248,9,14,0,255,237,12,248,245,12,5,236,6,11,7,253,255,22,18,239,243,6,245,254,2,246,4,243,255,234,235,247,6,16,238,245,241,246,22,244,255,3,241,235,255,249,254,253,248,14,254,254,255,0,249,245,17,27,2,0,17,11,6,254,254,6,2,239,243,30,252,4,241,229,15,243,254,252,16,240,249,246,235,247,0,245,23,247,254,247,238,255,243,236,226,235,18,233,5,5,254,235,245,15,5,251,245,232,253,241,246,243,254,0,22,4,10,2,231,10,248,244,4,255,254,19,7,236,31,245,229,19,19,2,254,250,255,9,240,13,10,3,247,8,0,238,249,251,255,21,7,252,24,231,245,231,18,8,252,0,255,254,244,248,26,236,248,8,254,235,239,2,255,0,0,254,6,227,1,238,2,4,246,254,0,8,4,249,0,230,241,3,241,242,0,1,0,9,6,249,15,218,3,252,252,20,251,3,0,242,15,5,243,235,255,5,250,235,243,247,0,19,244,12,7,247,6,234,0,241,242,249,0,242,12,20,248,1,253,0,12,18,236,5,1,249,244,255,15,4,9,248,249,244,244,255,1,239,3,253,14,245,243,240,251,254,253,1,1,242,11,240,8,11,4,251,5,4,2,11,1,6,21,254,7,231,247,235,6,250,1,5,1,2,236,244,8,237,250,22,9,254,246,1,1,10,2,5,0,255,253,249,10,253,240,15,1,253,9,254,228,254,30,238,23,20,252,4,1,238,0,253,244,238,251,249,21,8,247,0,1,22,242,3,12,234,23,246,25,252,254,8,1,5,243,249,233,22,0,252,245,239,254,6,1,251,7,245,235,242,248,244,18,246,9,1,1,12,8,254,249,27,235,233,17,250,10,12,1,12,4,5,1,30,0,2,19,6,14,1,1,7,1,249,17,27,229,5,235,25,18,250,1,3,22,2,11,242,234,3,237,237,16,254,1,19,236,240,254,249,226,15,14,2,7,5,1,3,235,13,251,253,227,20,10,12,15,1,1,21,3,19,5,27,8,249,236,9,7,5,1,249,247,7,17,17,241,240,4,8,254,4,0,240,17,243,17,21,233,13,255,0,246,10,0,250,22,240,7,246,3,238,241,3,250,7,0,237,7,13,12,10,227,245,13,241,20,250,0,245,252,10,251,253,247,14,245,6,13,249,0,11,22,0,11,8,10,6,9,239,8,3,0,10,243,242,249,25,3,18,245,237,13,246,0,250,254,1,4,17,252,245,12,7,251,7,0,255,7,16,236,8,18,11,8,236,253,1,0,237,238,245,233,18,236,14,7,239,12,6,0,1,234,247,3,27,244,0,240,253,4,254,0,254,251,255,246,12,234,234,15,232,0,6,0,5,240,252,233,246,242,251,242,1,5,5,0,10,242,13,242,240,6,15,10,8,21,5,0,243,255,238,250,11,4,12,9,249,6,4,0,11,10,243,231,20,249,10,1,8,11,243,0,248,252,233,245,9,251,234,255,240,4,254,255,17,8,240,255,23,24,2,17,246,14,4,255,250,21,245,4,250,254,19,19,14,2,250,255,241,250,10,235,4,10,235,242,246,10,245,255,245,0,2,250,13,9,3,4,0,0,0,255,8,250,251,229,235,249,233,236,0,248,249,255,246,22,4,236,6,250,17,9,18,4,248,255,2,2,247,241,253,27,10,242,16,7,248,255,246,242,249,237,4,244,0,255,2,8,248,255,8,9,9,243,12,17,239,234,1,6,247,255,235,2,16,245,11,19,8,235,12,255,243,255,13,9,3,250,20,10,11,249,245,2,245,255,9,252,242,252,1,244,252,15,238,251,242,255,16,244,247,21,7,9,250,16,14,251,255,255,246,237,18,13,252,21,12,10,250,255,240,255,238,252,9,243,234,1,251,5,12,246,248,255,8,235,15,236,229,23,239,15,4,0,252,255,10,0,250,0,227,253,247,1,10,243,0,0,0,6,3,13,227,13,242,250,240,243,4,0,1,241,251,5,234,4,254,5,236,1,245,0,251,11,245,239,0,17,247,19,242,254,253,0,237,238,254,3,246,247,255,236,15,0,246,0,16,247,14,243,240,248,237,2,252,241,240,0,237,245,245,21,236,18,18,16,4,243,251,0,2,16,19,241,240,248,6,235,17,241,251,0,8,16,19,237,13,11,237,10,18,246,1,0,247,251,247,238,246,3,12,6,3,244,246,0,20,237,14,237,16,16,243,245,247,1,4,0,22,244,255,251,11,15,241,3,14,3,4,0,247,243,20,4,254,242,252,233,16,6,7,0,245,8,0,246,240,7,9,234,233,6,4,0,235,5,14,244,18,248,238,244,21,2,0,0,10,249,18,1,13,244,21,8,244,0,249,0,244,4,15,237,243,16,16,233,6,250,248,0,0,246,238,243,4,1,22,7,240,249,1,0,246,4,237,254,235,243,249,240,255,6,251,0,5,12,16,243,7,12,14,251,238,7,6,0,20,2,248,13,0,241,18,249,10,251,4,0,8,6,239,13,253,233,245,248,2,49,198,251,1,25,10,20,22,239,242,16,1,34,201,250,8,1,246,9,36,13,226,241,8,59,219,250,9,252,5,1,32,251,252,237,237,41,223,249,230,19,238,3,1,0,239,1,15,23,222,249,246,239,15,4,237,12,234,11,255,55,249,249,12,245,239,13,250,25,14,18,232,32,242,250,237,242,243,8,0,11,234,2,241,255,6,251,232,234,11,11,237,8,22,11,15,252,250,251,17,246,249,33,241,237,245,245,254,1,7,252,241,6,12,35,252,253,243,2,252,5,254,253,16,251,15,0,205,7,238,243,13,242,10,255,232,6,2,33,217,232,15,13,18,178,239,1,16,8,4,36,207,238,4,236,239,212,4,3,24,18,231,23,241,233,244,0,17,248,11,5,6,24,236,24,232,223,7,247,1,23,255,6,234,5,234,20,236,237,239,15,242,223,251,6,240,247,2,5,5,13,12,241,18,16,6,6,8,16,0,244,211,7,255,17,237,240,25,6,24,252,253,247,244,16,15,6,234,19,3,6,21,255,7,7,206,247,18,239,23,243,6,7,244,238,241,5,235,16,239,2,22,2,243,8,237,5,253,228,215,29,21,4,12,37,236,12,246,12,253,253,237,9,11,253,12,245,0,13,255,239,22,1,224,15,244,231,30,13,24,14,21,21,21,243,254,24,17,5,12,238,5,11,16,19,251,221,11,15,227,9,246,4,239,14,13,233,234,229,23,19,230,234,244,6,12,11,17,11,4,231,8,45,255,1,19,29,6,9,16,12,241,231,247,34,238,3,8,24,242,11,9,12,22,209,27,45,9,255,20,5,8,9,232,236,3,209,13,31,236,12,11,38,244,9,15,9,248,236,12,38,245,242,14,18,37,9,252,242,3,220,13,65,233,9,254,26,17,6,232,11,0,252,249,63,234,244,2,5,11,7,235,3,250,10,237,48,247,6,239,22,28,9,17,13,19,25,3,48,8,0,250,4,17,8,14,249,241,10,1,52,230,27,11,14,18,12,246,16,1,22,15,45,236,236,26,3,0,11,6,6,4,37,0,48,3,13,236,42,7,11,242,21,13,1,27,7,252,242,27,48,19,12,253,231,252,241,245,10,3,7,254,52,20,12,232,230,239,10,253,4,245,28,5,22,3,11,16,16,7,27,246,42,244,1,251,19,22,11,11,251,19,20,24,255,16,13,244,55,7,10,241,7,234,239,22,37,3,15,5,29,244,11,235,241,18,8,248,15,251,9,15,59,0,10,245,244,247,3,17,246,1,25,252,33,255,8,8,2,24,26,232,20,20,249,3,56,25,9,3,7,10,246,14,19,232,247,248,66,14,10,4,239,7,19,3,32,5,25,19,26,12,11,0,249,254,9,255,13,233,17,1,41,5,9,233,248,251,8,246,18,228,24,233,45,34,10,254,253,9,255,242,0,251,242,243,70,21,9,12,15,14,21,19,9,22,247,245,48,3,8,22,242,249,38,254,1,247,22,244,35,252,6,15,7,24,54,10,227,253,243,241,18,24,3,2,23,26,41,28,219,235,20,19,23,2,1,5,18,25,23,5,239,22,20,249,46,8,255,248,18,253,22,12,245,229,2,241,38,12,255,255,233,24,54,12,248,235,17,255,9,6,254,21,1,250,34,22,211,230,25,23,49,30,254,24,254,27,33,12,212,6,9,253,32,2,254,14,21,247,2,21,248,254,240,25,41,31,253,241,246,10,23,5,216,22,1,14,255,11,253,12,233,253,25,235,221,24,0,252,5,6,2,0,254,4,32,9,253,250,253,4,6,33,253,2,247,15,39,253,232,23,3,234,22,0,253,0,230,255,37,11,237,242,10,20,18,23,0,8,5,6,5,253,217,2,10,236,5,17,3,11,14,248,21,20,249,2,5,241,6,249,254,240,10,9,27,14,245,20,228,239,21,254,255,238,13,15,241,10,0,254,252,248,31,242,1,247,19,233,235,36,255,22,236,20,246,232,0,241,234,9,254,12,0,249,253,254,7,231,254,254,240,251,241,9,1,19,245,13,22,249,252,255,8,4,248,10,9,9,243,9,9,235,254,254,15,234,233,3,239,252,227,0,36,248,253,0,8,242,252,2,16,16,4,20,241,254,254,7,22,251,230,236,21,230,227,2,251,8,0,234,232,236,240,16,18,234,253,248,249,223,1,255,4,5,240,13,35,8,246,8,252,214,1,4,246,242,248,11,243,8,248,249,38,213,0,5,231,253,230,248,33,5,9,229,42,206,255,9,18,8,247,17,18,236,7,4,23,204,254,21,13,3,237,2,21,233,252,3,243,244,253,255,244,21,240,9,17,248,16,254,244,216,253,241,232,9,240,247,2,243,23,22,212,205,253,15,246,247,9,245,235,18,17,13,212,222,253,3,252,249,0,0,3,245,9,234,230,235,254,244,18,254,250,19,240,250,19,254,7,224,254,14,238,247,7,19,26,246,10,255,11,202,254,4,2,235,13,7,234,231,231,247,34,203,254,236,22,13,7,23,1,244,230,18,9,217,254,235,12,236,14,239,24,247,21,17,51,222,254,247,9,11,241,236,239,5,231,11,246,228,253,1,1,244,237,228,229,253,13,241,237,246,253,2,248,232,226,228,6,242,9,0,1,238,254,15,16,3,243,246,230,229,10,10,229,219,255,13,19,236,0,240,237,0,230,245,230,192,255,253,0,15,12,16,17,3,247,12,254,247,255,9,24,234,243,236,28,17,13,8,1,233,255,12,19,13,232,230,240,247,243,23,255,224,255,241,7,19,10,5,235,252,12,20,218,209,255,5,230,235,21,238,234,8,13,236,210,210,0,10,2,2,238,17,21,245,254,245,1,226,0,7,233,23,24,0,9,13,243,240,245,202,0,254,13,235,6,255,234,243,248,22,242,202,0,249,21,10,233,3,6,245,13,244,25,214,255,239,13,19,253,230,24,254,0,243,14,201,255,242,241,233,232,8,241,25,15,1,236,209,254,3,243,18,235,232,245,18,1,230,239,213,254,232,251,23,254,254,8,13,21,250,6,227,255,9,18,235,249,7,243,237,16,236,238,229,0,243,231,246,237,242,25,11,20,245,235,220,0,2,244,244,243,9,245,23,20,230,211,234,0,23,1,235,0,8,15,24,18,250,234,225,0,251,0,244,8,12,242,7,4,7,5,207,0,17,253,2,231,241,251,245,249,12,242,207,0,238,240,5,234,255,14,10,233,230,39,237,254,252,240,12,229,29,251,21,237,13,30,236,254,239,12,12,7,20,21,3,241,11,32,219,254,13,9,15,237,4,34,247,255,232,30,240,254,235,232,254,16,240,30,233,247,17,5,2,254,5,253,0,231,240,33,231,248,236,44,35,254,12,242,14,0,12,20,15,10,7,8,17,254,21,21,246,4,16,9,240,8,241,238,18,255,240,237,235,31,246,252,252,253,20,242,250,255,234,244,246,0,247,245,4,4,231,232,247,255,247,23,5,23,209,240,3,14,11,231,10,0,239,22,245,34,208,26,231,6,15,215,19,2,251,12,12,20,215,18,255,237,22,172,246,3,248,23,4,27,3,21,2,19,7,207,16,5,239,9,231,22,234,2,251,27,21,216,237,7,1,0,14,19,254,5,235,10,245,232,235,8,20,10,237,18,221,7,247,18,13,237,1,8,254,3,1,9,3,235,25,244,238,14,18,9,10,19,246,3,250,248,24,253,236,228,11,9,241,251,245,227,230,237,21,254,241,243,35,10,4,20,244,229,252,7,241,23,3,245,8,11,241,4,14,217,254,236,251,5,242,247,244,11,9,5,6,230,1,24,234,11,19,211,16,12,251,231,22,229,228,4,7,230,24,245,18,14,18,245,10,242,219,2,12,3,240,211,253,15,230,241,253,245,222,241,12,237,4,221,12,16,250,2,22,229,248,225,255,3,250,189,250,18,9,230,7,4,220,3,28,232,29,238,217,20,230,1,232,247,225,250,245,247,245,220,220,20,241,9,4,255,235,241,12,19,0,227,18,18,18,237,254,238,235,241,249,240,5,253,245,19,19,16,241,23,17,5,253,231,246,243,251,19,7,7,252,241,21,30,4,6,9,216,16,16,250,5,233,249,231,20,26,242,18,245,249,16,12,8,249,10,16,3,7,4,28,210,231,17,16,6,239,10,9,6,253,15,5,4,246,12,24,239,18,18,235,29,240,239,27,9,24,11,24,15,17,248,237,25,0,231,244,227,1,13,229,239,236,2,24,11,19,253,17,238,10,13,0,240,245,8,0,255,10,240,11,218,13,7,237,1,250,20,20,25,2,0,242,12,16,11,21,239,18,15,26,237,248,22,242,12,225,7,237,238,17,10,255,27,20,235,248,243,240,9,231,6,19,214,24,247,19,0,255,19,13,5,10,8,249,216,253,25,245,238,250,29,7,5,4,22,246,245,3,24,242,3,240,61,14,4,233,2,251,230,4,246,24,3,15,50,10,5,245,228,254,5,14,11,20,240,17,52,1,2,7,254,233,10,21,31,235,15,241,20,29,2,6,232,13,10,245,252,27,246,7,50,30,3,237,243,245,252,245,25,18,11,247,26,0,3,240,14,254,5,243,33,7,1,234,54,253,2,231,255,9,41,19,243,3,15,15,55,27,3,4,12,12,3,246,29,25,238,250,16,34,1,23,241,241,26,23,17,6,15,13,32,3,2,5,245,238,14,253,3,233,1,17,6,23,1,252,228,241,17,26,11,24,16,243,36,2,254,232,244,232,23,9,4,4,252,228,31,0,254,248,230,252,32,255,239,243,13,1,40,252,253,3,237,24,33,42,233,7,10,229,38,252,248,21,21,8,3,15,15,241,25,237,39,253,250,11,248,16,248,8,4,18,10,228,48,11,244,17,0,245,235,27,248,227,1,242,8,246,243,24,12,12,17,27,255,5,10,229,16,36,240,253,249,240,253,244,1,12,248,231,36,16,242,245,10,9,242,1,18,239,244,248,43,13,244,238,12,7,229,236,240,17,14,6,49,31,234,255,254,6,9,229,10,244,243,8,14,228,232,22,9,1,228,242,3,11,227,220,5,249,237,235,0,242,230,2,243,251,248,240,253,25,234,255,252,8,247,242,249,250,19,10,17,12,239,16,3,21,243,209,13,1,239,234,4,7,238,251,15,16,13,0,10,15,231,238,240,234,243,234,239,238,224,216,252,18,233,226,36,239,243,238,10,250,233,214,33,0,17,11,3,5,242,23,229,19,232,253,253,246,232,8,9,13,244,240,4,232,10,253,30,230,3,0,248,34,245,249,248,245,255,245,40,22,250,7,249,36,246,247,237,6,239,244,33,236,237,239,6,43,246,14,9,243,231,251,39,7,237,18,3,32,248,234,17,17,15,221,35,239,255,8,243,10,249,11,246,27,247,230,16,250,232,246,12,38,251,230,18,10,3,6,35,10,230,242,251,52,252,20,1,11,1,243,11,255,15,5,253,29,253,240,242,5,19,252,45,0,23,15,16,38,253,254,241,254,33,2,25,11,248,235,14,53,253,233,17,249,25,15,41,253,244,234,36,67,253,248,3,12,244,17,18,23,245,249,13,77,253,18,6,12,32,7,48,237,252,252,217,44,253,251,4,5,10,236,15,1,0,240,232,69,254,236,249,253,27,238,43,246,19,6,4,73,254,5,3,13,22,15,19,20,248,13,238,81,254,243,21,26,13,249,16,244,30,8,21,45,255,247,229,13,32,241,20,8,250,241,14,57,255,10,236,26,25,235,16,241,240,248,42,68,0,255,232,255,5,238,247,241,22,229,17,78,0,237,18,251,18,9,16,229,10,10,12,69,0,11,250,247,26,2,23,253,2,18,240,42,0,233,245,240,255,7,10,234,240,10,238,44,255,16,20,21,10,4,234,236,9,20,242,50,255,17,254,4,17,10,226,230,24,253,233,67,255,18,243,28,19,2,4,12,239,243,227,53,255,15,17,3,243,5,2,1,27,2,234,34,0,17,16,249,31,0,254,247,3,20,208,71,0,243,235,9,15,1,245,230,18,250,203,55,0,246,244,19,16,244,251,18,249,8,219,47,1,250,250,18,16,234,226,250,20,243,211,70,1,3,235,1,239,7,3,11,239,16,227,65,1,249,243,22,250,229,228,242,1,247,234,55,1,8,239,242,247,6,250,4,232,11,244,38,1,17,251,28,24,239,241,18,247,234,253,31,0,233,236,12,16,2,242,241,18,247,247,32,0,7,19,5,241,20,17,22,14,2,240,41,0,24,18,0,2,233,247,9,22,15,244,36,0,10,252,23,10,20,12,7,234,0,238,44,0,249,232,239,249,24,249,11,255,22,248,39,255,14,232,239,8,238,15,240,9,252,219,56,255,3,20,23,8,4,242,6,20,234,251,57,255,245,7,20,27,253,243,19,1,0,219,50,255,21,249,17,16,15,236,251,12,233,2,240,1,24,14,12,240,251,226,233,18,253,37,248,2,247,10,2,8,255,242,17,239,21,20,0,2,247,236,16,252,242,5,252,15,239,36,5,2,10,236,242,231,248,0,239,236,246,246,2,2,26,11,21,236,246,246,252,253,17,251,10,2,12,2,1,252,240,11,12,1,238,5,8,2,235,249,255,242,250,250,238,242,242,12,10,2,15,14,2,14,20,9,252,24,239,13,247,2,253,16,235,238,11,235,18,21,245,46,6,2,21,14,242,5,8,7,15,251,6,29,3,2,17,1,18,244,240,13,251,1,239,20,255,1,252,248,244,255,16,252,234,247,237,38,238,1,238,8,246,9,14,243,23,232,20,34,0,1,254,248,7,239,18,232,237,19,234,42,236,0,13,239,5,247,0,250,9,22,24,53,22,0,21,253,239,13,16,239,14,6,249,29,15,0,12,235,24,36,243,14,18,248,12,34,12,1,8,16,246,18,9,4,14,6,0,34,16,1,241,250,238,0,4,243,247,23,10,78,236,0,247,14,16,30,0,8,14,15,242,71,247,0,243,15,252,13,33,255,20,14,15,74,24,254,24,4,10,24,55,238,246,237,17,87,254,252,254,233,245,7,30,237,243,23,13,91,250,249,251,250,242,1,14,30,254,255,18,101,0,246,12,0,12,29,45,33,243,19,247,82,251,244,19,238,236,3,56,253,253,233,235,94,246,241,9,6,12,240,41,3,3,250,248,90,252,238,25,3,17,20,33,3,251,234,230,52,22,236,8,7,23,241,26,24,14,239,235,76,3,236,241,249,15,12,27,27,17,15,12,50,8,233,4,254,18,8,26,27,3,244,225,46,10,231,250,7,7,242,38,1,7,234,244,28,251,230,8,28,24,227,6,5,251,234,243,48,232,231,23,3,2,2,242,235,234,21,245,48,254,230,16,238,16,237,236,249,252,4,1,10,244,231,249,1,243,11,225,236,246,13,224,24,249,234,253,5,10,17,227,246,241,236,255,250,4,237,252,247,234,42,230,25,234,20,9,246,12,240,7,254,24,29,224,240,13,243,238,241,242,244,16,253,241,47,208,7,250,25,247,249,234,247,24,20,23,30,200,236,1,1,229,0,36,250,236,20,243,6,213,7,252,15,236,245,10,253,14,16,241,50,224,5,18,252,6,231,11,253,242,235,21,48,195,253,19,18,252,224,0,0,238,6,11,19,227,14,255,24,0,203,5,3,22,23,240,38,212,251,236,12,244,207,12,4,238,234,254,243,224,249,251,29,243,212,11,9,4,239,252,5,215,0,234,242,252,194,1,11,234,241,246,21,224,12,249,5,1,235,248,14,245,20,11,10,223,251,24,6,252,231,253,14,239,254,19,220,248,253,247,24,240,226,19,14,3,244,24,215,232,19,18,12,0,225,250,17,1,26,249,247,4,241,234,28,19,205,9,16,14,245,3,219,223,13,0,248,242,228,236,16,240,236,10,252,227,249,20,23,26,224,4,16,15,25,233,249,229,255,15,29,18,15,240,14,238,22,21,254,24,214,249,21,240,14,221,13,12,0,17,245,242,229,244,18,6,33,251,10,16,6,233,253,251,226,5,12,254,45,237,8,246,243,19,6,18,249,13,8,248,30,241,9,236,237,251,14,22,1,23,3,7,27,254,7,14,246,242,1,17,206,239,18,6,33,230,7,9,2,249,49,6,235,246,249,17,12,246,7,253,237,1,8,21,238,252,10,28,8,213,6,5,16,239,34,5,244,243,5,19,243,248,7,249,254,13,15,25,225,11,3,250,242,235,8,0,11,20,14,1,204,243,7,254,25,4,5,22,246,240,40,6,230,7,13,32,33,247,9,25,12,234,37,30,214,14,246,25,41,242,10,243,21,239,26,41,223,4,253,8,9,0,12,243,16,2,31,1,1,11,244,238,44,247,8,242,234,235,13,11,9,245,8,19,14,8,6,12,5,251,15,22,240,252,241,29,4,9,5,250,22,12,11,7,26,237,12,251,24,247,6,241,238,7,5,40,245,9,18,237,58,242,6,0,12,16,2,35,34,24,246,7,53,17,4,9,245,3,238,36,17,1,239,249,41,9,2,27,243,239,6,41,33,249,18,13,52,241,255,245,239,22,244,12,13,8,247,5,35,1,254,234,8,253,233,27,7,249,21,240,6,220,254,237,8,2,230,20,35,247,237,234,255,229,251,22,239,243,7,34,16,240,230,246,22,205,248,239,251,19,255,25,1,15,233,239,31,224,246,0,27,249,249,248,30,235,11,14,25,207,245,252,243,243,234,236,33,11,253,241,4,228,245,5,7,248,226,231,0,13,246,229,230,207,246,252,247,249,222,251,23,239,1,248,1,184,247,4,21,247,17,0,20,254,16,241,234,219,248,254,1,251,14,245,25,245,19,235,15,176,248,9,17,251,254,22,242,25,14,11,8,202,248,237,6,1,233,10,248,8,9,244,234,221,248,21,235,1,243,244,7,255,6,247,255,201,248,3,242,235,4,254,18,0,24,3,242,184,248,22,13,249,249,10,5,233,252,228,206,203,248,241,255,239,7,234,243,16,11,8,181,193,249,247,0,19,242,240,237,22,15,3,201,185,250,2,253,2,245,225,240,15,1,239,215,214,251,2,248,243,247,229,25,241,16,14,213,198,252,245,14,15,234,237,10,9,240,255,230,191,253,244,19,236,253,230,14,17,245,253,243,205,254,25,0,238,251,2,7,15,234,234,248,207,254,23,6,249,234,10,233,253,251,5,238,187,254,234,24,250,235,245,5,242,22,22,248,175,254,240,21,237,2,9,19,242,21,8,2,213,254,16,255,235,248,3,242,15,23,253,254,191,255,0,27,10,15,17,246,24,235,238,10,176,255,21,238,2,234,233,235,233,23,22,251,200,255,249,27,242,11,239,19,239,6,0,8,187,0,240,242,7,11,246,250,21,6,236,235,194,0,235,5,11,18,6,1,24,14,236,245,217,0,21,18,22,233,232,242,18,238,249,233,194,0,4,236,231,2,15,241,251,12,24,0,192,0,238,0,255,230,3,254,255,0,241,228,186,0,12,245,249,13,234,249,18,5,8,247,182,0,253,254,238,237,242,249,24,250,243,212,210,0,3,246,10,4,14,18,5,236,14,242,212,0,26,250,255,245,254,0,251,235,2,4,203,0,246,9,12,238,250,1,17,16,252,10,202,0,17,3,234,4,0,242,243,1,242,251,34,2,242,245,240,253,3,240,232,7,245,3,41,2,235,7,10,16,236,240,244,2,8,254,25,2,23,243,243,4,236,248,21,249,248,11,8,2,236,235,246,22,249,236,252,20,26,2,16,2,19,240,238,20,235,1,3,247,2,247,18,2,5,251,6,250,24,226,255,244,13,18,19,2,2,18,248,24,250,235,247,12,243,19,23,1,241,236,243,5,31,238,242,16,11,26,7,1,11,21,237,20,38,254,235,13,12,28,3,1,0,10,6,251,16,9,12,237,15,32,9,1,25,12,23,3,18,16,5,243,17,22,242,1,2,2,241,22,18,252,2,243,253,58,9,1,15,4,232,26,23,22,17,9,11,30,13,0,17,5,18,241,38,13,13,22,250,49,11,0,13,252,251,13,9,245,246,242,240,25,3,255,13,11,232,33,25,22,231,251,245,36,246,255,238,235,240,248,254,252,5,0,248,21,1,255,19,248,14,247,8,7,14,235,10,30,38,254,2,233,16,31,12,242,238,242,1,29,226,254,238,7,20,34,16,242,18,5,238,56,2,253,4,8,240,26,45,239,241,254,5,71,251,252,249,255,7,4,11,247,3,247,250,44,15,251,236,9,252,250,9,18,235,10,11,38,9,249,25,3,10,242,26,29,253,238,5,71,5,248,6,238,24,19,17,14,1,250,231,40,6,247,20,23,244,8,37,20,10,23,226,78,20,246,22,28,243,9,28,17,241,240,1,29,248,245,24,242,233,16,34,32,255,15,17,18,5,245,238,14,18,21,248,255,252,236,1,45,236,244,234,236,25,5,24,5,249,4,249,13,234,243,4,251,1,228,242,7,250,236,242,15,255,243,241,25,245,250,240,246,4,23,244,9,231,244,22,236,2,245,23,239,231,239,249,20,245,245,246,0,22,239,9,228,239,26,249,247,3,245,0,27,18,246,239,223,230,1,253,218,12,246,20,240,5,23,241,244,253,24,8,255,11,246,24,8,248,20,220,230,6,18,235,236,251,248,239,21,251,12,234,12,254,251,245,207,234,249,244,15,0,26,193,247,1,236,14,239,246,251,253,15,18,31,199,242,251,24,237,211,237,252,10,255,5,40,223,239,6,248,3,238,30,253,241,236,251,35,196,17,17,234,240,217,235,255,19,12,21,8,220,226,11,12,236,242,2,0,24,22,20,8,211,235,21,13,244,207,4,2,251,244,14,27,210,229,20,232,17,205,2,3,234,242,243,240,217,242,7,21,2,213,2,4,2,23,245,249,206,225,252,234,8,220,6,5,13,242,6,229,233,251,239,12,235,227,2,7,239,246,14,3,243,4,15,238,0,205,247,6,23,10,231,6,230,0,10,21,28,244,12,7,9,2,1,230,239,243,233,242,17,199,8,8,240,232,236,234,10,17,243,14,22,219,230,9,20,19,243,230,15,242,3,4,5,241,255,8,245,16,233,207,8,8,234,17,20,204,2,8,242,24,4,236,255,243,8,232,25,232,255,8,23,17,6,232,15,251,8,14,7,252,8,7,11,248,5,232,7,11,252,243,241,28,3,6,0,236,231,237,11,252,21,19,6,23,248,5,237,2,253,251,23,225,8,248,14,18,1,4,240,254,6,237,36,229,234,232,247,25,10,3,10,8,12,5,4,2,247,15,8,39,229,2,9,248,13,10,5,228,253,231,252,56,239,2,7,2,232,36,10,242,253,248,9,11,235,1,243,246,247,253,28,236,8,244,28,49,226,1,9,253,5,25,17,221,23,21,235,12,233,2,238,245,22,18,13,236,10,11,244,247,1,1,232,233,241,42,255,228,241,228,254,13,8,0,24,10,11,19,250,244,240,236,9,252,18,0,236,22,238,252,251,239,26,16,245,40,237,1,252,249,243,5,38,243,9,15,248,30,5,0,238,247,13,20,19,244,248,250,20,31,245,255,13,25,14,6,3,12,22,246,253,11,25,0,246,246,249,250,250,24,253,239,238,246,12,0,255,20,8,16,7,10,242,18,22,11,234,0,248,3,14,20,35,251,9,239,15,31,254,255,15,240,232,240,24,16,17,228,19,36,4,254,238,16,239,255,5,2,26,18,241,6,252,254,254,6,244,7,26,37,22,252,232,20,248,253,23,6,9,14,252,251,15,6,0,11,237,253,22,19,255,249,22,25,251,2,239,7,6,253,247,246,2,233,254,255,240,245,21,8,254,253,240,243,230,251,236,6,253,243,242,246,253,252,253,26,255,11,244,32,234,232,237,5,249,252,233,241,245,236,254,26,13,18,19,17,240,252,243,242,7,254,248,36,253,243,1,12,236,252,234,25,14,234,246,3,4,1,7,226,235,253,241,252,4,16,4,251,21,235,229,5,249,253,238,245,254,8,1,11,253,237,231,249,253,253,18,248,12,20,247,247,16,238,22,11,215,253,13,9,11,246,8,5,19,25,229,6,1,254,4,8,19,14,233,247,4,25,233,234,244,254,239,0,4,26,5,10,13,27,251,0,223,254,236,240,5,241,3,15,252,20,3,246,229,254,251,1,4,8,237,31,25,251,231,222,247,254,248,16,255,242,231,28,245,16,1,220,247,254,245,23,251,12,255,5,23,4,3,224,222,254,236,242,20,20,251,252,15,11,240,240,232,255,20,1,4,250,236,4,255,15,4,215,214,255,13,242,241,21,226,253,19,239,234,211,223,255,237,235,242,239,10,9,234,5,240,253,238,255,234,25,7,248,242,17,5,9,6,1,217,0,236,4,243,21,251,232,20,14,11,245,214,0,23,14,22,10,15,249,8,18,24,5,232,0,18,19,8,246,230,8,1,0,21,238,223,0,5,2,0,234,244,20,236,8,245,253,239,0,239,11,12,245,253,234,236,237,235,233,230,0,249,9,233,11,248,241,239,8,16,223,227,0,13,243,231,243,9,237,255,11,9,242,227,0,2,254,4,24,7,21,236,249,0,4,215,0,25,249,231,251,10,253,254,25,19,242,210,0,18,234,250,243,13,20,240,23,251,240,220,0,233,18,249,246,8,241,15,24,254,21,227,0,240,1,244,251,237,242,249,19,241,235,235,0,7,20,252,22,252,242,11,4,12,240,241,0,23,14,243,24,229,15,6,248,254,251,219,0,16,26,243,14,254,14,254,0,245,14,237,0,6,3,244,245,10,241,13,0,22,225,219,0,19,3,234,238,252,239,251,241,242,0,243,0,9,9,22,1,12,3,245,15,246,5,249,0,10,10,255,16,14,5,238,239,249,3,245,255,243,249,240,245,14,249,235,243,247,4,246,255,5,245,231,232,16,252,233,14,233,8,246,255,9,17,238,233,238,238,239,236,234,0,247,255,253,12,240,7,239,1,255,247,240,6,255,255,14,231,255,3,246,13,242,14,12,255,255,0,251,238,249,250,249,247,11,16,247,255,251,0,6,4,234,237,251,239,250,7,234,5,6,255,17,251,241,11,2,225,15,243,253,7,1,0,255,239,242,249,249,250,5,241,240,5,251,0,5,251,237,234,12,5,255,3,230,2,253,0,14,7,244,245,226,229,238,237,255,252,249,255,249,240,255,248,1,11,8,7,239,255,252,0,4,231,242,253,230,230,237,247,18,252,4,0,1,2,248,3,225,254,15,11,233,3,5,0,241,240,1,9,7,249,17,234,234,253,2,0,0,9,234,5,251,16,6,234,9,252,250,0,247,0,10,2,231,232,249,248,248,251,10,0,1,1,9,8,246,20,253,11,242,9,5,0,251,3,9,18,255,15,242,251,234,252,12,0,239,2,234,19,236,247,16,10,232,253,1,0,9,242,16,249,249,243,251,242,234,5,3,0,251,249,4,13,236,242,237,254,237,9,3,0,248,249,14,241,238,5,13,236,7,2,253,0,241,244,236,10,20,26,13,8,237,15,2,0,12,14,234,2,14,4,253,255,18,17,255,0,251,250,2,251,252,11,10,15,8,13,0,0,9,234,232,231,1,2,230,228,235,13,1,0,252,11,244,238,26,29,233,242,18,9,8,0,18,233,244,4,26,8,249,235,248,8,15,0,248,12,13,236,251,9,15,236,236,1,15,255,247,242,6,225,255,28,231,242,10,8,5,255,243,241,253,243,248,0,250,245,244,11,251,255,255,238,0,237,12,255,234,6,245,15,13,0,13,8,239,253,249,28,229,254,249,5,15,0,13,13,235,4,253,249,241,247,8,6,1,0,10,1,17,4,248,9,5,254,236,21,228,0,231,17,238,244,247,7,4,240,241,15,253,0,240,253,16,1,8,3,244,13,234,18,4,0,240,10,15,6,246,22,13,4,246,4,250,0,242,246,233,18,246,250,249,7,235,11,2,0,12,250,248,1,17,4,10,244,13,6,12,0,16,16,241,251,232,18,244,248,253,2,4,0,255,236,1,16,1,13,239,2,14,0,4,0,14,247,238,245,246,246,9,5,243,253,4,0,2,2,240,247,226,5,15,8,14,250,255,0,15,247,249,249,249,15,250,21,253,255,0,0,237,18,243,14,228,15,233,19,237,3,254,0,3,250,7,239,230,225,241,11,2,4,0,1,248,234,239,234,5,245,234,255,240,2,250,1,255,254,250,8,240,230,10,249,7,1,252,1,13,234,13,5,242,247,6,250,7,5,4,1,10,249,4,240,255,3,232,11,9,0,251,1,15,12,17,7,236,225,2,13,251,2,255,1,255,249,247,251,5,222,13,245,19,6,254,1,13,0,251,3,248,231,229,9,239,6,253,1,249,249,0,249,248,254,16,242,247,250,253,1,8,242,18,14,247,228,16,242,255,3,252,1,239,237,0,21,238,233,249,4,0,252,1,1,232,234,250,255,4,252,8,2,3,253,0,1,246,255,9,19,247,248,236,8,19,250,1,1,10,17,240,4,12,237,16,17,16,249,249,1,232,5,12,12,248,233,13,16,245,255,6,1,3,243,15,11,241,254,244,235,13,1,4,1,14,8,1,0,232,227,232,13,2,244,13,1,246,235,243,23,228,233,250,239,13,249,0,1,237,239,6,26,248,249,233,230,251,8,255,1,254,241,5,255,242,5,244,5,241,6,14,1,249,10,11,20,243,244,11,11,11,1,249,1,5,242,250,248,14,233,16,13,18,1,2,0,245,240,1,10,10,250,242,16,10,253,255,0,16,5,237,245,2,10,5,11,243,20,0,0,234,16,10,5,17,245,244,252,18,251,2,0,15,254,3,242,253,2,249,5,252,246,5,255,253,236,1,242,251,5,249,232,245,0,253,255,14,232,251,10,254,16,233,6,12,254,242,255,242,15,9,240,17,1,18,7,248,255,244,255,15,234,245,253,234,7,251,240,252,8,244,255,1,241,237,235,15,6,238,249,251,251,244,255,252,230,243,249,251,242,2,17,236,248,252,0,4,251,253,232,251,243,15,10,233,255,244,0,7,0,229,229,246,239,248,6,250,255,238,0,232,233,1,251,252,7,249,244,1,4,255,0,236,247,14,236,235,234,12,8,247,254,245,0,2,236,3,5,1,11,3,236,251,252,242,0,8,18,3,244,229,255,15,10,232,250,239,0,243,230,240,11,10,3,251,244,235,248,239,0,10,4,255,4,1,239,8,235,244,1,238,0,3,2,254,244,244,250,247,240,13,243,239,0,243,8,236,7,239,246,9,244,13,0,241,0,12,14,248,232,10,255,240,252,4,246,240,0,3,250,1,255,240,255,11,245,243,249,240,0,249,253,6,2,255,252,239,12,248,1,240,0,17,12,254,234,241,228,0,246,246,249,234,0,2,233,243,246,0,15,245,247,15,248,237,0,249,241,251,253,232,239,254,1,5,7,235,0,13,250,240,9,246,17,4,250,15,4,238,0,240,236,4,226,236,237,4,254,16,5,241,0,2,6,6,254,17,254,14,252,7,2,238,0,238,247,251,233,238,20,246,1,254,4,241,0,243,251,6,12,20,3,250,16,231,2,242,0,237,3,238,12,238,252,249,237,244,2,240,0,252,15,229,239,245,5,236,10,234,255,244,0,14,18,235,13,11,245,248,7,6,6,239,0,250,16,6,244,14,2,250,238,239,2,240,0,0,1,250,233,237,14,247,246,242,8,238,0,244,243,231,231,3,8,240,17,13,5,241,0,0,243,229,239,243,235,231,235,12,5,239,0,245,11,238,233,0,11,237,7,17,3,238,0,246,11,10,2,254,239,252,248,11,1,243,0,249,9,3,254,252,17,3,249,255,3,242,0,252,8,247,13,255,2,5,6,244,4,242,0,254,11,5,250,10,245,9,254,7,2,243,0,248,248,7,238,12,241,231,3,3,0,242,0,251,244,11,11,255,233,237,233,240,253,239,0,14,12,242,242,9,3,249,240,241,1,238,0,6,14,3,244,15,235,242,9,6,0,240,0,16,5,240,1,5,236,252,233,15,6,244,0,249,3,238,6,14,255,246,237,14,8,218,251,11,7,253,9,29,13,254,11,13,19,226,251,10,10,251,242,244,29,254,235,252,12,230,250,250,240,255,6,239,11,236,247,2,1,229,250,20,240,16,4,253,41,234,253,243,0,233,250,18,5,243,249,230,23,4,234,234,28,3,250,251,241,20,22,235,39,252,2,1,12,0,250,18,1,252,5,239,36,242,13,12,253,0,251,14,246,251,22,238,28,250,242,235,4,5,252,17,15,243,23,238,24,244,240,241,243,3,253,22,250,5,17,224,2,10,19,244,238,4,255,246,250,8,22,220,14,250,241,19,228,254,1,251,6,14,28,223,237,9,5,14,217,5,2,11,250,250,19,234,251,11,245,238,225,254,4,15,12,14,6,219,242,21,24,242,235,0,5,244,238,16,18,218,247,5,18,248,227,251,5,251,255,249,242,242,236,252,15,19,231,252,5,3,2,18,2,240,241,240,21,236,248,5,4,7,6,239,227,230,22,3,245,11,234,245,4,236,16,0,234,218,254,241,246,247,213,37,4,252,7,249,230,202,21,240,10,240,215,3,5,239,6,2,233,205,2,235,243,249,213,243,6,6,254,246,219,234,11,246,233,245,213,4,7,243,231,11,234,215,242,5,4,8,202,4,9,0,242,250,243,237,16,253,1,245,206,247,9,253,241,251,231,214,13,252,10,28,184,247,10,18,239,236,8,244,7,25,14,30,202,240,11,240,243,2,238,248,251,243,253,251,218,245,11,236,232,0,251,223,227,255,249,252,211,247,12,12,14,1,5,227,239,2,11,27,208,0,11,236,9,20,21,3,252,2,7,11,236,236,12,3,1,235,242,251,12,24,238,252,226,249,12,4,8,8,1,252,0,20,2,27,225,15,13,14,240,247,20,15,36,1,246,10,227,4,13,0,232,249,0,4,17,250,241,255,235,250,13,237,232,241,240,253,43,9,235,7,16,245,13,16,16,243,16,30,8,239,250,253,4,3,12,15,232,12,11,38,24,22,231,0,12,18,13,4,12,252,240,21,25,255,0,26,18,0,12,244,12,237,245,38,6,243,231,17,11,238,11,5,248,21,226,31,17,2,7,252,38,253,12,2,3,250,223,62,9,5,246,255,15,246,11,235,12,4,233,43,12,253,250,249,22,5,11,255,10,238,224,35,30,8,245,241,22,7,10,250,11,7,221,42,22,234,247,23,43,2,8,13,245,4,7,47,49,14,11,241,49,2,6,255,3,238,2,34,39,244,249,247,45,4,5,6,251,244,253,53,9,247,236,247,37,10,4,234,8,3,11,35,7,244,20,13,38,7,3,254,243,7,28,55,8,238,14,1,30,17,2,8,235,5,15,49,11,4,5,3,21,5,1,19,248,244,13,19,14,6,22,249,53,3,1,255,245,241,39,12,3,251,240,2,54,19,0,234,0,243,42,29,249,249,254,3,55,253,255,11,18,243,58,12,254,243,245,229,54,252,254,234,237,0,65,12,247,234,25,254,33,5,253,8,239,9,51,32,15,237,6,10,4,4,252,236,248,238,39,250,242,240,24,238,0,13,251,251,2,5,49,21,6,234,14,233,12,12,250,21,238,0,16,16,244,250,1,254,10,253,250,242,243,7,21,242,3,4,4,1,254,17,250,253,244,5,21,5,244,6,239,0,255,16,250,18,6,3,251,240,253,234,22,231,241,20,249,236,248,255,253,226,16,8,237,230,242,17,249,250,239,252,254,231,249,253,252,236,249,18,248,11,234,22,227,3,0,252,250,9,20,249,248,255,238,5,227,249,26,10,6,250,13,254,248,247,242,14,224,0,255,18,19,3,239,255,248,3,7,10,235,215,246,243,255,8,213,245,247,253,16,251,251,238,22,255,242,6,239,0,247,13,14,250,3,210,249,4,4,236,236,16,247,6,242,0,231,235,1,11,2,9,236,11,248,248,244,6,10,252,253,5,242,7,251,253,248,247,15,14,238,246,239,249,245,251,3,254,249,245,251,247,235,253,10,4,242,239,255,2,249,7,242,4,15,237,15,237,10,254,228,13,250,17,14,246,245,225,23,242,246,255,231,13,250,241,13,20,14,225,14,248,236,245,245,3,250,18,12,18,0,3,243,243,0,17,222,2,251,255,4,255,255,225,249,247,251,245,239,19,251,249,8,21,240,12,25,10,2,240,236,32,252,12,254,5,252,4,241,19,250,236,247,27,254,251,19,7,22,245,19,241,16,16,8,22,1,246,255,253,23,13,253,8,249,2,254,25,3,17,6,20,246,250,247,18,15,7,0,21,4,239,8,246,16,21,243,1,0,253,6,21,4,253,237,14,6,242,9,15,3,239,23,41,4,19,245,243,248,19,241,253,252,252,248,38,3,247,6,22,245,249,4,253,16,14,240,36,3,239,255,246,253,249,19,1,245,16,244,31,3,12,18,241,28,7,249,8,246,10,7,27,4,15,238,255,15,3,1,13,8,249,1,35,5,0,255,247,14,254,24,252,253,245,0,32,5,248,244,12,25,15,21,22,250,20,6,30,5,237,7,238,2,9,250,250,8,236,41,38,5,1,17,243,0,8,22,242,237,4,16,44,5,15,4,248,6,22,244,20,22,252,20,37,4,5,15,3,248,29,7,247,249,242,15,36,3,252,248,7,253,29,0,0,242,254,15,38,3,10,5,15,254,248,14,237,236,249,7,23,2,22,243,8,11,3,251,244,242,250,2,39,1,18,8,15,240,239,10,7,4,16,254,34,1,17,10,239,10,22,243,13,249,15,7,36,1,241,245,14,13,8,231,9,0,19,245,39,2,18,235,17,250,7,19,15,239,21,247,22,2,244,238,20,0,13,11,243,7,2,243,20,2,254,15,7,17,255,242,235,22,239,243,31,2,248,2,250,1,253,5,22,14,6,253,30,2,8,252,246,244,251,19,242,248,241,0,22,2,12,19,1,20,251,13,247,254,241,11,23,2,236,254,246,23,14,247,242,253,7,2,25,1,20,8,6,244,249,8,5,245,238,251,20,1,3,242,26,19,239,3,2,2,1,247,24,1,252,14,25,3,21,251,1,247,251,6,20,1,242,247,2,238,247,240,235,20,14,6,23,1,11,251,17,252,238,248,5,0,253,249,21,0,14,234,8,15,8,245,2,10,248,241,30,0,255,19,248,12,246,251,21,243,245,5,23,255,5,235,12,14,239,0,15,5,5,250,27,255,22,2,248,247,250,233,233,231,231,44,156,245,241,20,8,0,11,232,239,252,0,64,185,244,3,238,17,239,35,15,8,242,228,58,207,244,246,4,253,228,33,6,235,255,1,35,183,243,6,255,231,9,248,28,4,229,226,28,203,244,18,248,250,254,253,5,231,243,230,50,23,246,8,24,239,20,231,28,234,234,239,5,7,249,233,252,249,25,253,247,230,232,8,6,13,252,253,10,235,6,204,251,248,239,242,17,27,254,249,234,6,20,224,247,245,12,18,250,14,255,232,245,22,42,222,20,5,254,237,7,0,2,8,11,249,35,205,246,11,231,8,229,19,5,248,237,19,27,216,18,21,12,235,129,252,8,13,234,1,54,234,222,250,236,4,190,232,11,237,0,255,15,233,243,236,3,2,230,1,14,1,233,6,22,213,11,10,21,18,229,238,14,241,249,233,28,214,246,15,236,251,203,238,13,232,7,18,240,218,16,19,247,245,254,15,12,5,230,251,8,231,241,5,16,248,232,15,11,11,1,236,234,245,30,238,224,237,1,24,11,247,20,235,2,204,8,22,241,29,244,3,12,254,236,17,8,194,28,243,250,25,230,14,14,14,232,13,251,212,22,24,228,11,221,246,16,12,228,238,246,207,29,248,235,4,184,20,19,241,232,244,243,245,240,4,239,243,191,3,21,19,2,10,246,218,13,242,16,3,179,14,23,238,8,16,244,234,5,9,227,4,202,244,24,11,228,250,225,10,12,11,0,19,225,238,24,238,229,23,210,252,34,252,4,249,248,1,24,241,14,240,237,11,12,234,19,29,239,246,24,9,4,252,241,16,60,10,245,243,233,0,23,232,0,232,243,241,68,19,249,18,26,240,22,5,255,243,215,23,63,240,10,254,236,31,21,232,16,21,233,8,70,10,15,21,236,254,20,16,244,237,1,30,73,252,19,12,7,255,20,7,13,233,11,9,64,238,237,22,27,246,20,12,228,248,25,246,32,13,18,10,25,27,20,233,11,9,14,34,23,12,6,7,7,35,20,245,238,20,36,47,52,1,28,240,16,9,19,7,238,237,3,42,39,243,244,30,35,11,18,9,231,2,13,54,17,20,30,10,56,20,16,231,247,27,7,28,11,239,240,27,60,4,14,242,8,18,9,45,4,17,19,253,28,7,12,250,232,10,20,17,24,248,241,5,37,245,10,10,1,0,236,47,7,21,255,3,88,246,8,8,1,11,10,46,37,230,244,236,74,23,6,3,242,16,239,32,33,247,20,254,70,8,5,6,237,14,16,247,11,248,17,242,77,15,4,255,254,252,33,243,252,244,240,22,59,5,4,13,13,23,248,11,37,250,1,232,53,33,4,7,12,249,18,27,37,250,3,5,22,247,4,3,17,17,39,7,255,233,20,230,61,14,4,8,252,254,35,22,16,251,9,250,54,42,4,1,241,245,28,255,240,21,33,247,89,27,3,244,2,7,26,17,10,20,253,9,84,20,2,8,248,2,37,31,226,16,13,236,42,7,0,247,6,12,46,20,234,12,243,230,44,249,253,7,21,236,26,247,254,15,245,1,6,12,252,240,2,9,28,24,224,231,8,249,24,6,252,23,233,12,52,7,235,255,2,18,24,7,252,24,234,240,10,250,227,18,10,9,5,23,253,13,22,28,33,2,226,9,8,245,8,12,253,248,243,14,48,14,221,236,2,242,10,34,253,24,247,13,22,7,239,22,232,7,31,1,253,246,255,1,28,2,217,247,248,236,26,23,254,241,254,0,26,233,253,235,11,230,39,24,253,18,20,10,26,242,14,17,8,244,37,18,253,240,232,22,0,15,242,23,229,231,246,11,252,240,252,236,251,248,228,0,255,13,248,13,251,4,22,5,254,228,254,7,228,231,251,24,251,5,19,22,255,225,7,12,238,22,15,28,251,253,243,255,0,234,226,5,18,1,13,6,251,245,7,246,250,23,238,237,246,239,37,4,251,23,238,0,242,0,253,6,233,231,30,7,251,21,23,1,226,230,9,242,228,245,11,246,250,25,1,25,229,242,4,231,241,15,4,4,249,247,12,23,224,10,255,2,231,22,7,247,250,252,255,3,10,230,236,243,228,230,243,247,252,240,14,249,4,228,14,246,228,240,225,248,254,14,16,11,253,244,1,239,12,238,242,247,1,18,8,1,244,3,37,12,241,8,216,26,3,14,245,21,6,239,35,234,237,10,242,230,3,8,238,18,233,245,17,242,22,245,50,240,2,25,243,15,13,8,255,236,229,242,32,232,1,22,12,23,22,25,5,232,238,254,13,225,255,235,1,245,19,233,29,8,12,237,226,0,254,16,235,0,23,246,245,253,232,14,248,250,254,17,236,10,239,230,241,23,19,240,196,255,254,10,10,2,27,10,14,20,233,14,198,12,254,3,242,1,21,14,239,11,0,238,240,245,0,254,10,240,26,14,25,16,10,23,3,6,1,253,239,17,239,13,9,24,252,243,27,230,2,235,1,11,8,6,249,4,253,233,34,244,2,15,9,241,27,14,7,237,8,16,15,250,1,255,5,25,6,33,227,22,13,6,78,248,1,7,3,247,20,2,248,3,13,19,13,5,0,13,12,243,14,26,7,240,243,235,0,252,0,1,252,244,250,248,228,15,5,4,233,239,255,243,9,28,247,0,232,255,251,15,241,236,255,17,8,14,8,10,238,5,233,21,235,246,255,251,253,10,8,245,20,21,235,22,239,20,255,254,1,249,234,7,2,255,239,5,227,5,255,242,236,22,11,238,12,5,244,13,242,242,255,235,242,253,243,237,11,6,2,16,216,11,255,17,15,20,249,245,4,251,11,16,213,1,0,15,232,26,241,234,5,18,241,235,236,3,1,240,20,18,253,17,243,18,241,22,244,244,1,18,15,21,8,21,246,7,245,255,10,3,0,25,12,27,251,11,249,234,254,19,253,230,0,13,240,239,8,240,3,245,4,245,2,236,0,18,245,1,14,232,18,242,235,18,250,255,255,235,236,252,248,1,238,246,1,7,252,5,0,0,22,243,251,15,240,21,9,230,232,249,0,11,240,12,246,251,239,10,235,6,231,247,0,19,240,4,237,0,12,233,251,21,219,229,1,235,1,254,19,2,22,22,238,10,179,235,0,6,255,250,247,233,232,19,242,5,178,3,0,237,252,0,234,12,16,6,20,19,232,238,0,23,11,13,2,243,241,0,243,9,209,0,0,11,237,238,1,246,254,230,13,246,4,238,0,242,254,2,0,18,32,237,0,2,17,247,0,249,247,17,246,0,9,0,18,236,21,247,0,6,7,18,241,253,29,239,236,9,12,254,255,18,246,250,244,14,35,13,237,239,22,251,255,238,235,240,254,6,14,246,15,8,7,17,255,253,19,4,254,15,15,252,254,236,20,14,255,250,234,236,253,235,45,242,246,12,9,21,255,246,255,250,27,244,16,2,240,236,11,9,255,249,244,10,5,17,30,241,243,243,7,16,255,9,237,249,4,252,255,242,26,237,11,2,255,0,249,250,15,249,1,236,18,20,9,255,255,239,252,17,10,17,253,248,3,237,248,10,255,13,247,9,18,240,239,247,255,8,13,1,255,10,1,235,254,12,15,254,14,14,17,2,255,232,242,16,23,236,5,19,0,14,17,15,255,244,248,13,19,243,10,243,4,0,12,5,255,252,247,252,237,234,7,17,246,8,10,255,0,7,242,9,233,17,230,247,245,1,9,14,0,16,239,7,14,232,9,2,245,254,27,241,0,15,236,2,246,244,245,247,3,251,22,244,0,18,240,15,248,250,240,10,15,237,32,4,0,233,252,17,248,6,226,251,237,13,32,248,1,0,243,235,237,24,239,252,240,0,44,255,1,2,239,18,244,2,229,237,252,13,39,2,1,18,250,11,3,252,224,231,247,5,45,248,1,10,9,244,1,20,4,244,239,9,49,251,1,246,253,235,14,26,229,12,241,235,41,254,1,13,16,240,13,249,246,226,246,1,30,248,1,3,254,12,253,28,232,236,9,1,22,2,1,19,0,252,3,249,235,246,4,235,9,251,0,15,15,1,252,247,9,245,238,247,16,1,0,4,255,1,255,20,245,4,243,234,18,248,0,254,242,245,4,6,215,233,241,244,16,248,0,4,4,10,28,248,230,9,239,12,3,12,0,6,1,6,14,246,242,11,1,242,6,250,0,6,5,10,11,7,215,8,12,238,12,249,0,246,5,254,15,246,225,7,243,253,247,253,0,235,246,4,5,246,245,250,245,236,251,241,0,6,239,239,23,246,237,240,229,8,5,245,0,13,244,237,250,208,248,11,239,250,250,0,0,239,12,11,6,237,18,17,229,248,7,252,0,247,8,11,14,210,254,248,228,242,8,252,0,251,15,234,240,218,23,249,240,3,244,5,0,255,248,14,237,199,34,12,232,16,254,253,0,15,248,244,242,204,20,236,246,20,237,248,1,234,2,0,239,206,11,233,12,244,236,9,1,10,238,0,9,214,12,246,250,18,247,8,1,234,249,241,8,217,29,236,14,246,249,254,0,6,245,9,236,231,40,15,235,239,2,255,0,16,242,9,14,226,38,13,251,10,4,13,1,249,12,0,244,225,22,238,15,20,2,6,1,248,252,243,2,9,34,7,255,254,0,19,1,7,11,17,252,240,7,9,245,23,2,10,1,11,9,4,241,249,255,2,13,239,251,15,1,240,246,7,3,245,239,12,18,243,3,15,1,14,17,11,24,2,11,234,254,23,254,14,1,4,239,252,14,11,244,19,10,4,16,9,0,13,233,251,10,15,250,7,3,242,26,255,0,4,7,235,20,251,9,14,240,11,31,1,0,4,17,253,10,247,251,234,244,16,26,6,0,236,242,2,22,252,245,250,24,247,32,9,0,248,238,13,23,255,224,3,19,253,22,240,0,4,251,19,17,253,246,241,16,237,27,252,0,7,15,253,15,240,3,241,255,251,28,252,0,12,14,247,0,14,253,11,243,9,247,254,0,6,234,239,27,249,247,19,236,10,0,247,0,242,14,17,255,242,248,234,3,4,8,11,0,2,19,249,8,24,212,254,9,11,11,20,0,18,232,1,20,18,244,12,252,11,4,250,0,255,238,252,14,22,245,10,12,11,11,244,0,17,2,235,20,31,213,6,239,245,9,6,0,3,7,12,10,18,252,16,233,5,27,4,0,9,2,238,252,22,252,20,234,4,5,251,0,239,241,232,233,14,237,236,242,12,251,5,0,11,7,14,247,251,234,247,11,8,10,251,255,19,4,243,11,15,9,3,233,230,12,3,255,4,14,14,4,25,5,13,12,232,12,14,255,6,11,249,241,253,18,16,235,11,24,9,255,14,238,7,8,244,13,14,4,230,24,15,0,17,238,5,241,18,6,234,11,234,8,251,0,242,236,245,7,250,235,3,231,7,3,254,0,252,2,242,11,11,237,234,1,247,15,247,0,244,252,15,253,23,255,241,14,237,17,238,0,246,233,247,4,253,254,6,255,239,26,237,0,17,245,249,255,249,12,16,252,4,17,246,0,244,4,9,231,20,241,235,230,246,255,242,0,5,244,243,252,251,9,245,235,245,9,238,0,242,13,255,228,237,245,238,248,244,255,242,0,11,246,1,229,237,0,237,242,6,6,233,0,235,251,252,9,250,5,240,233,230,252,247,0,240,6,8,6,9,246,237,239,10,246,248,0,241,9,232,243,244,253,17,10,13,252,250,0,235,246,252,247,9,24,236,241,250,241,242,0,11,248,236,3,4,247,9,239,5,246,242,0,251,11,17,3,220,19,245,19,252,250,239,0,20,9,19,237,0,10,252,5,13,248,240,0,252,255,2,9,223,27,253,233,253,253,241,0,3,245,244,15,235,9,245,250,13,253,241,0,15,3,8,18,224,236,238,248,246,248,246,0,6,254,236,238,7,4,239,235,9,10,238,0,243,241,2,252,3,242,242,9,8,251,238,0,9,20,255,2,235,245,243,19,243,248,240,0,251,248,1,238,4,16,13,9,236,247,237,0,243,3,240,15,13,7,245,241,241,244,251,0,6,11,240,246,232,242,13,252,253,245,255,0,7,20,0,246,11,14,249,17,18,252,246,0,13,239,241,237,8,255,234,18,239,248,250,0,15,239,247,251,244,11,240,17,243,251,247,0,255,240,239,4,8,252,10,233,17,247,252,0,255,238,20,16,254,2,233,13,242,7,251,0,7,12,239,4,237,3,243,12,255,2,254,0,238,243,233,238,234,22,2,252,247,7,253,0,14,251,0,0,17,12,246,8,3,252,252,0,240,20,253,244,9,254,6,245,3,248,252,0,0,247,3,247,240,3,246,15,245,244,249,0,236,252,255,239,233,246,243,241,7,249,246,0,11,242,232,2,3,244,12,7,250,251,247,0,11,232,238,234,241,233,13,236,13,5,254,0,17,235,243,237,246,12,1,253,239,13,249,0,244,242,241,235,3,23,16,14,12,20,254,0,8,249,4,253,243,1,9,1,248,24,9,0,246,1,255,243,14,40,13,10,13,26,1,0,247,242,255,8,3,19,13,6,21,8,7,0,16,242,4,242,248,16,242,17,247,1,7,0,8,8,238,241,21,0,252,7,14,15,5,255,239,243,15,11,251,19,249,247,247,14,11,255,19,6,254,4,19,27,248,2,243,9,7,255,255,3,1,250,247,16,10,254,237,15,7,254,2,8,23,246,21,248,11,19,255,13,6,254,3,254,7,12,5,14,235,27,249,14,7,254,7,243,14,0,24,9,10,1,1,19,8,254,13,7,12,232,13,16,238,250,244,27,0,254,249,13,19,251,27,242,245,251,10,20,5,254,247,244,243,236,248,251,1,6,252,19,9,254,252,12,8,250,24,247,12,18,253,11,7,254,250,255,0,250,255,229,248,22,244,255,245,254,251,15,14,226,4,240,243,246,2,7,243,254,251,247,5,0,1,214,255,250,19,11,234,255,0,244,0,252,242,243,255,0,236,2,233,255,239,240,248,252,249,227,241,8,251,21,1,255,235,253,241,12,28,203,238,5,13,28,251,255,242,16,23,12,6,205,242,11,255,51,238,255,251,242,248,16,24,224,233,244,3,42,5,255,15,252,11,30,21,228,246,5,243,62,255,255,242,8,15,24,29,224,5,241,238,64,10,255,14,9,6,25,50,226,246,15,238,35,253,255,4,240,16,9,43,204,8,8,240,42,3,254,13,251,248,19,22,201,244,17,13,39,249,254,237,247,11,23,34,219,232,253,248,30,1,254,243,243,11,7,31,228,238,248,230,15,6,254,237,11,9,13,0,222,5,233,10,24,252,254,237,247,249,27,250,219,2,234,239,24,5,254,20,9,253,255,246,203,247,233,233,12,2,254,239,3,234,14,239,212,247,13,235,14,1,254,241,18,0,18,244,216,254,10,10,4,243,255,1,242,0,254,0,219,4,2,238,20,232,255,0,14,239,247,11,217,251,3,11,9,253,255,20,248,17,14,250,247,235,240,231,21,250,0,7,1,0,9,224,255,246,253,234,254,236,0,21,20,238,245,1,5,17,247,252,5,2,0,251,12,15,239,215,242,7,239,245,5,253,0,4,16,237,1,238,2,241,242,234,251,2,0,252,255,5,9,233,18,17,1,11,236,254,0,12,0,244,245,222,26,234,247,14,228,252,0,0,255,253,251,249,248,7,2,251,231,251,1,253,244,254,9,228,35,0,7,18,247,1,1,14,249,9,18,225,32,5,247,9,243,2,1,238,2,10,16,11,8,20,244,9,255,253,1,244,238,237,7,14,34,245,248,20,1,11,1,255,247,242,13,7,16,250,18,14,244,6,0,15,240,5,7,13,30,5,4,254,241,6,0,18,248,254,250,228,31,21,249,12,243,1,0,18,235,247,249,0,28,12,252,17,247,0,0,250,252,11,9,228,22,247,0,3,0,3,0,247,251,239,14,232,25,252,15,5,7,255,0,18,1,6,1,16,0,12,7,20,9,4,0,254,1,21,9,232,246,237,2,255,255,254,255,247,7,1,16,8,24,16,22,11,13,255,0,241,251,16,242,0,19,253,11,255,7,2,0,247,241,239,19,19,19,19,11,0,5,249,0,5,7,9,3,19,1,15,4,24,16,248,1,3,10,246,13,0,248,3,16,253,11,2,1,3,243,0,18,2,227,6,252,15,2,239,1,248,7,15,19,3,235,17,18,2,236,246,1,0,14,12,19,9,253,5,10,252,247,248,1,7,22,18,18,0,225,7,19,248,251,7,1,243,4,20,14,6,220,245,254,243,8,245,1,252,16,241,251,18,246,238,23,1,7,248,1,252,241,12,241,27,207,5,250,6,244,234,2,238,236,13,242,33,212,248,17,8,251,246,2,250,245,2,242,34,218,23,12,252,3,248,2,18,9,254,237,11,247,21,2,240,240,250,2,17,2,246,255,3,234,12,17,252,246,254,3,13,246,9,8,10,252,241,7,253,3,239,3,3,5,14,12,7,217,246,250,12,253,238,3,239,15,235,2,10,231,252,238,239,254,246,3,250,238,248,2,14,246,246,6,7,24,251,2,241,246,7,22,21,241,6,7,21,11,250,2,249,2,241,253,16,247,20,245,254,254,245,2,13,21,251,247,10,236,245,250,254,244,249,0,19,244,237,13,20,247,18,243,249,249,246,0,238,3,10,11,246,220,234,6,248,12,242,0,8,21,246,237,2,245,244,9,5,8,248,1,252,252,0,235,1,229,240,240,245,11,234,1,237,5,244,250,243,237,236,236,15,243,225,1,249,249,3,248,10,249,14,247,239,0,226,1,252,16,10,236,253,221,238,230,11,13,224,0,20,9,246,237,6,1,238,251,17,15,217,0,239,5,240,247,3,249,10,239,241,251,224,0,255,9,239,239,236,2,251,241,240,251,229,0,1,9,245,241,236,18,0,232,237,249,227,255,236,19,246,227,4,14,242,8,245,243,229,255,241,242,14,225,3,241,6,246,255,230,221,255,14,1,241,240,235,4,0,12,1,234,213,255,7,10,250,227,226,3,249,14,235,249,214,255,252,10,9,230,227,25,22,11,10,2,223,255,16,1,16,253,9,3,5,247,19,2,221,255,242,241,6,0,4,2,243,234,251,0,238,255,243,18,234,10,16,2,235,246,255,14,221,0,237,18,243,13,243,9,255,251,21,8,222,0,10,20,236,248,246,253,20,18,248,4,224,0,4,20,5,1,14,24,3,15,241,13,225,0,244,0,6,5,249,252,243,236,10,14,231,255,255,14,5,20,246,29,14,247,240,8,233,255,0,252,1,249,28,242,236,16,9,20,231,0,17,252,238,6,245,244,239,248,17,9,233,255,13,246,234,252,241,14,18,244,235,10,240,255,14,245,239,254,239,0,251,12,252,253,236,255,1,253,253,254,20,4,238,10,252,4,241,0,17,13,253,235,8,12,253,13,1,7,242,0,13,18,254,21,10,9,9,11,17,8,245,0,252,4,13,5,4,21,246,12,243,253,247,0,251,249,2,237,252,252,5,14,19,5,242,0,14,238,234,19,249,243,255,239,4,0,239,0,9,20,14,238,255,242,252,7,252,17,239,0,248,23,243,6,240,243,253,254,4,18,235,0,236,7,13,243,246,251,252,3,18,20,241,255,255,4,2,17,255,245,244,246,237,252,252,0,254,235,249,2,254,249,18,0,248,6,4,0,11,238,245,13,11,240,21,12,4,255,254,0,19,232,240,8,254,5,239,21,238,250,243,0,235,243,242,250,248,245,254,11,250,249,253,0,246,12,1,232,9,248,1,251,239,244,244,0,236,6,245,255,246,10,20,20,252,5,239,0,8,18,251,253,18,7,230,5,255,246,240,0,243,241,19,12,15,251,240,17,232,8,3,0,17,15,241,17,234,0,241,229,19,246,249,0,240,238,19,245,232,235,4,243,239,251,248,0,238,255,8,8,233,230,232,240,5,2,252,0,21,20,250,242,240,249,249,243,8,249,249,0,20,243,10,7,231,234,253,245,2,0,245,255,246,3,253,254,240,252,16,246,235,5,12,255,254,16,245,0,251,4,255,6,241,10,11,254,233,235,233,247,7,250,6,3,5,4,13,254,230,249,250,12,239,23,240,235,22,16,243,253,15,231,3,18,23,8,229,238,6,251,13,253,8,246,3,10,17,251,235,17,19,13,232,253,233,7,232,19,8,23,234,14,20,255,22,254,21,247,21,0,27,15,246,243,14,26,20,254,230,11,21,14,9,13,239,0,18,10,12,254,251,234,243,254,246,18,16,21,236,6,9,254,2,247,244,12,26,249,13,21,4,31,249,254,242,238,20,10,4,23,15,255,246,4,252,254,244,238,236,244,244,15,10,233,239,15,248,254,233,3,232,253,31,10,237,2,18,29,14,254,10,233,255,238,20,22,14,14,16,34,247,254,2,231,10,231,242,4,17,253,255,34,10,254,240,19,239,18,16,20,11,250,228,252,0,254,8,22,1,235,13,20,235,20,11,16,246,254,4,9,236,238,15,250,238,240,243,18,248,254,238,2,232,4,252,12,2,235,254,11,251,254,5,12,234,235,240,245,233,16,16,21,6,254,237,232,240,4,15,22,251,246,252,250,12,255,19,242,232,235,9,16,21,9,242,15,6,255,243,245,237,244,240,1,15,19,19,14,9,255,243,12,241,253,19,233,9,237,255,22,252,255,17,5,19,22,7,230,247,236,240,12,22,255,11,21,254,14,21,18,249,24,253,246,255,255,248,6,0,15,246,251,251,248,239,13,248,255,19,248,231,27,236,6,235,0,237,5,245,255,14,241,13,28,8,235,21,8,17,249,243,255,5,6,243,27,250,14,249,5,245,1,2,0,6,20,244,21,234,234,252,241,255,251,246,0,251,13,10,251,255,236,17,3,12,245,5,0,7,4,237,10,230,16,232,18,250,244,3,0,246,234,14,255,229,8,13,241,234,235,12,0,13,253,238,1,225,232,230,254,247,242,12,0,22,241,16,250,13,5,239,244,3,241,5,0,239,233,238,12,15,250,250,241,1,243,243,0,14,242,240,245,12,228,252,250,246,254,255,0,245,237,17,14,225,227,244,232,255,253,243,0,240,4,12,5,230,230,14,7,249,239,244,0,253,18,230,240,6,241,19,18,239,237,247,0,7,242,11,16,248,230,2,253,239,242,254,0,7,12,249,1,9,2,236,239,253,255,251,1,247,13,244,251,243,254,20,11,6,238,249,1,21,234,236,2,251,253,231,13,246,244,251,1,233,252,11,23,5,231,245,254,244,253,5,1,17,243,251,0,4,230,243,17,248,240,254,2,240,18,252,29,242,234,249,15,239,254,242,3,17,239,239,2,6,16,236,12,13,2,6,2,238,234,16,14,242,7,15,240,239,251,9,4,22,241,240,20,234,13,232,243,7,3,249,2,8,232,240,30,16,253,246,242,2,254,18,4,242,236,7,15,0,240,0,248,249,11,12,3,243,17,1,7,28,252,252,233,9,12,236,4,239,247,2,3,17,250,16,20,234,7,6,1,249,251,243,10,33,230,242,239,18,0,1,2,241,250,243,26,23,233,236,4,252,16,250,2,7,242,21,0,245,8,232,18,19,18,248,1,246,249,11,4,0,250,6,233,22,244,7,1,234,10,17,246,29,16,244,13,233,13,5,1,16,3,231,5,6,15,21,13,237,254,242,1,20,11,17,22,38,246,3,8,243,15,245,1,241,252,233,13,245,240,21,235,4,243,13,1,22,235,230,21,243,231,243,242,234,15,255,1,21,4,248,12,2,227,6,246,7,9,241,1,8,248,11,228,244,237,248,246,12,10,254,1,247,232,9,10,26,11,250,10,230,18,252,1,6,19,245,247,7,247,1,233,254,254,228,0,236,243,18,242,0,237,10,255,234,0,250,0,244,237,249,247,254,5,252,248,247,9,241,0,18,8,15,250,9,20,10,3,5,9,231,255,11,6,234,238,246,5,9,19,253,237,233,255,4,21,251,16,1,232,236,237,243,7,219,0,245,243,240,238,239,255,12,9,15,14,225,0,6,251,0,227,235,238,10,0,255,11,220,0,12,233,249,236,18,243,13,7,240,5,235,0,3,238,13,0,9,0,232,19,242,3,221,0,12,2,238,242,10,16,254,250,21,249,224,0,249,253,239,254,19,3,4,240,6,251,245,255,5,7,243,17,0,242,21,2,17,240,232,255,237,14,0,248,243,5,11,0,17,4,232,255,241,255,5,5,240,15,242,245,5,6,220,0,248,253,254,3,6,250,245,236,8,252,241,0,252,238,235,246,247,0,8,17,2,249,239,0,242,251,11,5,249,22,22,249,8,6,219,0,7,238,238,241,21,4,4,19,237,3,245,0,18,241,252,12,250,243,7,232,7,1,247,0,251,0,236,244,19,253,6,3,21,14,236,0,235,18,236,15,12,14,17,247,247,14,230,0,4,248,19,13,250,254,248,21,238,250,251,0,0,4,248,241,251,7,8,1,14,4,243,0,15,10,255,243,253,7,17,239,19,254,251,0,250,234,8,15,250,24,4,16,10,12,239,0,237,12,7,230,7,246,8,20,9,7,228,0,15,240,247,8,8,253,8,9,22,246,243,0,18,16,239,17,234,15,3,22,5,248,239,0,235,244,7,19,232,252,254,253,18,15,230,0,254,10,252,10,12,250,12,13,16,8,245,0,231,253,250,14,242,246,246,6,22,249,248,0,236,247,253,21,6,7,12,4,10,1,244,0,2,20,12,17,245,253,19,19,18,6,230,0,248,237,5,16,16,241,13,246,251,7,232,0,233,235,5,242,4,249,254,239,239,254,235,0,252,16,246,17,5,18,6,7,3,254,251,0,237,1,13,234,240,35,254,10,21,237,47,7,231,11,250,16,237,8,248,249,253,250,32,7,231,232,18,250,247,255,238,20,18,237,60,7,251,236,21,244,0,20,21,243,240,239,51,6,22,232,254,8,250,12,245,253,7,14,49,5,9,9,21,242,1,2,244,10,238,237,4,5,15,3,18,25,6,250,21,20,246,246,8,4,8,14,13,23,13,15,8,19,236,254,17,3,241,9,4,28,14,3,255,234,242,248,242,3,7,233,232,8,33,239,248,13,23,240,254,2,232,20,234,247,23,242,254,7,7,254,13,2,0,244,9,16,34,251,253,239,245,248,253,1,1,237,6,254,15,12,2,250,9,30,11,0,3,13,255,20,2,10,3,22,2,9,3,255,234,238,236,252,21,5,233,21,10,19,252,254,5,253,233,12,34,11,19,9,252,240,250,254,13,2,243,10,25,19,17,246,9,255,9,254,245,236,5,245,7,7,5,250,235,251,253,254,254,242,3,255,23,242,11,16,1,4,239,254,20,8,3,6,19,246,243,11,5,247,25,253,253,247,24,5,5,10,1,252,254,253,249,252,10,236,236,243,246,13,255,249,252,255,251,251,21,13,231,248,26,2,6,18,229,249,255,250,255,11,235,6,14,228,2,13,237,247,249,248,249,255,22,250,238,232,248,238,3,234,237,248,6,17,12,4,247,249,244,253,0,220,255,248,17,252,11,13,228,253,18,6,230,213,235,248,254,246,13,5,220,226,8,19,232,213,251,250,14,233,234,243,251,0,3,9,16,215,238,251,6,238,252,12,245,238,9,242,244,227,233,252,241,22,2,21,214,216,15,14,239,239,231,253,241,241,19,24,219,236,249,245,245,214,249,253,1,10,235,252,233,222,27,235,4,222,241,253,9,235,245,24,235,232,2,253,19,229,10,253,12,242,238,10,5,251,236,238,1,230,230,253,23,238,247,21,240,0,23,237,21,218,254,253,20,241,16,244,245,10,20,5,10,219,3,252,245,240,0,237,247,7,252,0,239,233,31,252,255,252,234,11,238,249,241,247,250,237,250,252,8,241,239,243,224,227,12,235,16,190,239,252,15,242,245,1,241,229,23,13,240,210,2,253,5,253,235,0,4,245,25,243,246,210,8,253,233,247,5,7,249,11,235,227,17,240,254,253,9,16,6,227,20,231,247,237,237,234,244,253,234,21,11,1,247,20,239,238,8,239,15,253,16,5,246,230,16,232,235,229,244,254,0,252,23,20,252,234,37,17,21,227,246,1,5,252,4,248,230,234,36,10,20,0,2,2,11,251,255,241,244,252,17,23,245,233,243,246,252,251,241,233,249,228,11,243,249,226,250,231,238,251,252,236,249,231,9,241,239,246,20,248,10,252,246,235,237,250,19,244,3,3,10,243,251,253,236,253,236,231,25,13,251,227,1,224,238,254,22,2,5,252,235,0,246,226,19,224,250,255,22,8,255,3,11,5,13,241,234,221,19,0,236,238,246,3,15,4,245,251,235,229,10,1,1,4,10,247,251,8,250,237,19,237,250,1,22,245,6,245,36,32,242,239,6,252,255,2,238,21,21,250,19,36,234,3,13,248,247,1,11,241,237,229,25,3,3,235,9,250,4,1,234,253,11,237,31,23,11,249,230,16,252,0,18,22,245,211,250,5,236,13,231,15,252,255,9,242,251,246,242,4,8,12,244,246,5,254,6,7,246,208,13,49,18,234,227,239,3,254,243,14,248,207,254,20,0,252,13,7,0,253,11,236,8,242,252,25,18,12,251,44,231,253,251,7,9,0,252,14,249,246,6,12,247,253,18,5,14,250,13,40,251,248,234,239,250,254,249,6,6,241,240,32,249,11,241,224,221,255,232,5,7,230,231,44,247,236,253,231,10,255,14,22,15,248,242,38,11,243,241,11,247,0,12,17,245,6,237,36,246,20,251,1,245,1,8,17,4,234,217,13,237,245,17,214,240,2,0,253,241,11,210,10,236,14,10,28,5,3,15,7,7,27,239,17,1,244,247,251,19,4,242,237,245,251,235,252,238,17,244,253,22,4,15,244,254,255,239,18,12,3,253,255,29,4,253,232,234,30,9,25,24,245,4,14,22,3,9,1,241,11,235,15,241,243,22,244,36,1,20,3,3,30,15,250,252,25,237,5,38,255,1,16,251,30,2,249,19,8,240,16,31,253,3,251,239,15,239,0,18,242,252,29,40,251,232,242,242,0,255,19,236,254,18,249,48,251,239,12,19,23,248,248,0,254,12,242,25,251,243,1,10,253,6,19,239,10,20,7,58,252,234,10,2,0,2,32,236,23,18,13,48,252,240,9,251,35,254,29,250,7,10,37,50,253,19,239,5,248,6,40,13,248,238,33,48,253,20,241,11,35,0,19,244,237,12,6,75,253,19,16,20,10,237,252,22,13,237,11,71,252,16,245,235,11,16,22,249,5,5,0,70,252,10,5,1,25,19,246,17,255,20,242,74,252,5,15,8,6,254,0,242,11,6,250,58,252,1,3,13,34,241,1,4,20,248,11,46,253,236,241,12,36,252,9,2,24,10,248,67,253,14,3,4,5,3,1,249,4,21,0,64,253,8,12,14,253,7,19,254,253,11,229,51,253,242,4,234,14,255,245,17,245,234,231,56,254,247,242,22,38,7,252,15,21,231,231,48,254,253,251,13,12,10,234,243,9,1,245,56,254,18,235,255,9,231,251,5,27,21,237,75,254,251,233,244,7,5,250,252,4,254,245,58,254,22,255,241,249,13,248,23,16,255,241,69,255,255,6,8,255,10,233,231,255,6,254,41,254,3,21,8,12,233,247,21,20,1,243,44,254,14,12,5,10,254,9,1,5,6,246,45,254,10,13,10,234,232,232,0,237,5,241,54,255,244,242,22,3,20,10,20,248,10,245,67,255,247,4,233,247,238,227,8,235,18,229,47,255,251,22,17,249,1,242,11,22,0,4,68,255,18,248,250,247,233,252,234,233,254,254,59,255,10,243,239,16,244,251,240,22,238,240,39,255,250,240,235,250,1,251,20,232,255,254,53,254,19,246,7,244,254,3,10,252,254,238,45,254,4,231,236,19,7,12,1,10,243,252,65,254,236,235,12,6,242,18,253,17,235,1,45,255,6,239,10,235,19,252,232,241,232,242,45,255,20,246,13,19,239,11,15,240,231,242,63,0,235,10,5,243,243,238,250,7,251,235,59,255,248,9,235,235,232,2,4,231,239,250,249,0,240,246,15,237,13,34,16,6,20,238,3,0,6,247,6,234,10,30,248,245,15,252,243,0,21,0,250,12,5,30,21,233,4,1,1,0,249,23,11,240,23,23,13,22,6,12,240,0,3,17,16,240,5,1,246,238,20,255,253,0,255,5,0,5,9,11,6,22,1,16,11,0,3,239,26,9,10,8,8,16,23,16,4,0,242,244,4,243,254,45,17,254,14,18,255,0,247,243,16,5,8,23,4,243,242,13,20,255,5,16,241,245,10,7,6,16,245,13,6,255,240,7,241,251,26,6,235,252,243,246,8,255,1,21,3,243,251,23,9,244,3,24,14,255,10,254,19,214,244,10,234,29,3,25,19,255,25,6,17,205,4,6,0,7,247,8,251,255,20,241,19,240,249,10,3,22,253,252,19,255,10,8,25,231,2,230,252,21,236,243,25,255,25,241,248,226,11,231,23,246,6,229,253,255,18,18,23,236,9,243,11,247,21,217,226,255,21,25,25,244,255,232,237,249,0,218,226,0,15,9,241,234,247,214,12,253,1,203,231,0,5,21,5,241,1,212,2,32,13,221,241,1,233,250,241,233,228,237,245,254,235,196,255,1,14,245,236,8,11,238,252,3,243,8,4,2,23,24,18,27,244,241,17,253,253,11,2,2,235,21,253,255,253,232,250,242,17,28,234,2,247,18,15,46,35,207,11,16,16,21,28,2,251,248,13,36,7,194,21,242,3,12,24,2,250,238,19,11,14,210,19,251,253,25,28,1,239,8,25,30,13,208,23,253,241,24,235,1,236,11,10,53,6,204,12,20,233,23,21,1,17,2,18,22,13,203,255,245,14,15,25,1,240,249,245,13,18,210,252,0,238,255,249,1,0,17,3,7,3,192,239,3,6,7,20,1,5,248,22,1,249,217,0,231,0,22,253,0,15,14,250,243,255,196,235,14,252,6,251,0,5,244,22,244,23,224,11,0,242,23,227,0,2,242,0,249,27,241,3,254,244,44,225,255,253,15,9,218,10,215,238,255,245,52,232,254,2,18,246,224,27,238,253,230,20,64,231,254,6,11,244,229,11,4,252,8,8,9,7,253,9,239,233,234,38,14,14,1,6,42,4,253,13,17,19,215,31,7,12,242,246,19,235,253,247,21,7,235,254,29,238,253,9,28,13,253,3,4,235,245,254,3,3,226,14,244,254,254,250,242,22,17,241,30,239,4,233,251,8,254,22,5,10,19,31,39,239,253,240,4,248,255,11,3,13,4,36,6,234,253,23,17,7,255,233,3,239,32,24,20,0,17,22,13,4,254,16,17,244,0,4,249,14,245,230,4,244,254,1,4,238,32,8,14,237,18,244,5,240,254,12,0,252,13,250,12,239,2,230,19,243,253,251,243,253,31,31,20,2,241,255,8,4,253,236,20,237,7,19,10,11,250,237,36,251,253,248,21,21,34,10,31,23,241,234,47,252,253,24,14,2,23,5,36,246,26,248,23,5,253,11,18,22,249,2,42,10,240,245,15,3,253,238,9,254,255,229,9,7,248,20,248,3,253,249,250,252,23,244,12,7,28,248,220,5,254,7,13,252,249,208,249,240,14,247,206,1,255,239,14,250,235,210,253,17,242,18,208,246,0,252,252,12,239,220,25,246,6,12,193,237,2,244,15,8,14,221,20,247,19,20,227,246,3,234,234,16,4,247,11,7,26,248,225,7,4,23,18,13,14,241,36,25,22,252,214,249,4,2,5,246,248,225,249,239,28,246,209,0,4,255,241,6,228,250,30,251,3,0,203,251,4,251,254,240,245,3,241,5,14,1,202,0,3,254,6,14,11,244,20,7,7,17,15,250,3,239,6,25,12,248,13,25,11,4,229,3,2,237,245,10,3,22,230,250,243,246,221,2,2,13,23,253,245,239,249,244,4,1,218,241,1,236,233,252,10,239,239,237,23,243,221,13,1,247,18,246,246,14,230,248,24,18,242,252,1,250,23,20,255,237,197,234,12,27,228,0,0,245,243,241,5,246,212,22,29,240,215,237,0,20,16,234,236,12,213,255,243,245,236,218,0,4,252,252,243,7,176,9,20,9,228,201,0,249,19,255,21,5,172,10,5,253,28,234,0,240,20,15,236,17,181,244,240,5,238,235,1,12,238,239,9,244,185,4,12,9,0,223,1,0,241,10,2,251,187,236,250,11,227,252,1,234,13,3,20,239,201,3,8,7,237,2,2,236,17,16,22,1,190,254,240,239,246,18,2,17,25,240,250,14,206,251,255,17,242,12,2,7,252,240,9,245,204,22,252,241,249,240,2,11,6,232,238,28,211,244,249,12,19,10,2,255,241,18,3,14,207,2,246,5,24,243,2,23,19,231,250,21,192,249,252,254,43,231,2,8,13,11,252,25,232,8,10,243,18,254,2,249,24,255,242,240,208,249,238,2,242,246,2,5,7,254,220,231,231,254,226,24,238,247,3,18,17,16,208,249,219,5,230,0,242,238,3,13,234,253,210,9,3,14,235,23,226,239,3,245,235,229,237,28,4,0,240,12,252,230,3,242,7,232,209,254,17,243,8,248,17,206,3,234,244,247,218,1,233,241,222,18,64,197,3,255,6,17,247,6,15,24,11,252,85,217,3,254,239,231,235,18,3,245,252,3,58,244,2,11,4,20,228,33,18,251,8,25,77,245,2,241,26,12,248,26,21,249,252,27,46,238,2,251,24,20,1,18,7,253,243,246,31,230,2,246,3,239,234,26,14,10,248,240,47,236,2,17,7,15,16,27,4,17,236,254,56,247,2,251,19,245,4,19,39,243,252,240,68,249,2,250,234,2,254,7,9,2,234,24,54,216,1,19,7,12,14,13,23,255,234,14,46,238,0,233,20,19,0,255,6,242,249,243,42,0,0,238,12,1,8,17,1,234,249,3,41,252,0,245,249,248,0,32,5,245,247,240,32,11,0,237,245,21,8,21,6,242,239,11,39,249,0,0,252,233,244,253,254,21,19,10,40,9,0,10,251,12,248,23,243,23,234,9,22,8,0,238,23,245,25,12,250,244,7,239,22,3,0,17,24,5,11,247,243,243,237,255,33,255,0,238,1,231,250,240,17,253,4,10,43,0,0,251,13,237,18,20,254,255,254,20,43,250,0,237,240,241,253,31,23,239,7,240,79,246,0,1,11,235,3,29,29,17,255,235,53,244,0,236,7,255,234,5,12,15,14,22,208,49,0,244,240,236,20,6,25,241,232,18,218,23,0,248,249,246,255,252,6,21,233,3,201,48,0,16,240,247,7,238,3,12,20,249,224,9,1,241,8,250,252,250,27,24,236,22,0,25,1,253,15,252,3,248,5,6,21,253,240,239,1,234,12,4,255,242,23,1,3,242,228,243,1,0,253,4,241,18,251,246,5,13,241,0,1,12,8,233,233,24,26,25,0,3,240,242,1,14,250,14,4,19,9,247,16,240,242,237,1,234,20,242,228,34,13,19,20,12,4,253,0,16,9,243,226,11,17,12,248,238,2,250,0,11,12,14,238,17,14,5,251,245,56,18,0,246,21,244,232,39,4,9,255,253,4,249,255,17,24,2,247,18,251,13,19,15,244,250,255,18,243,10,239,25,32,23,7,8,237,9,255,23,241,12,249,238,254,253,254,242,248,251,255,248,12,240,225,245,12,16,15,19,200,243,0,13,17,4,232,24,242,239,250,234,220,231,0,4,237,7,221,2,244,10,244,235,219,254,0,9,244,3,252,249,237,2,6,244,180,4,0,243,238,12,247,227,9,235,32,19,169,8,1,24,236,5,1,253,1,239,7,253,165,250,1,235,8,242,13,255,12,249,14,230,222,244,2,231,15,12,27,222,5,5,245,243,195,227,3,2,15,19,26,4,219,252,8,9,233,249,4,250,255,11,33,219,228,5,1,242,216,26,5,24,22,253,43,214,248,3,26,245,199,18,6,5,247,239,43,251,247,5,0,24,230,29,7,248,254,17,37,218,216,22,17,8,210,236,7,247,255,15,34,242,193,6,238,12,241,3,8,19,250,10,9,240,227,249,246,19,222,8,9,252,8,8,34,238,182,19,255,20,237,0,10,245,254,7,27,249,213,20,239,0,223,247,10,255,5,238,246,240,222,26,12,14,230,245,10,243,9,13,253,8,230,252,8,252,250,227,9,233,1,244,245,40,236,7,14,240,236,248,8,240,7,0,222,17,203,28,242,15,40,206,6,19,254,254,229,30,221,243,224,20,24,244,4,239,2,2,198,37,248,246,228,246,8,0,2,1,15,23,239,27,237,7,229,23,20,254,1,248,6,253,237,18,241,22,0,15,1,245,255,18,9,7,230,41,6,12,222,238,17,221,254,2,4,1,244,35,1,250,239,242,13,243,253,233,20,248,234,34,247,241,0,254,254,6,253,1,5,12,243,43,251,4,3,13,255,241,252,237,1,251,5,15,7,9,9,243,18,242,251,243,243,241,10,27,255,17,252,241,19,1,249,253,237,19,243,33,246,236,230,241,252,253,247,12,4,229,241,49,11,9,240,232,244,241,246,247,246,17,13,41,15,247,229,229,230,228,245,245,238,9,3,32,251,237,231,254,240,241,245,14,1,1,17,245,17,252,230,15,231,228,244,253,251,239,238,2,243,24,7,0,9,234,244,235,244,19,245,245,253,255,235,14,255,240,244,254,249,232,244,233,9,19,7,253,5,240,244,18,8,250,239,12,3,10,245,245,22,3,245,233,11,246,220,234,15,246,4,231,249,244,246,24,7,232,227,255,26,21,1,241,221,255,247,234,233,230,229,232,15,13,228,251,204,20,248,14,3,3,223,233,28,254,253,12,202,24,249,237,23,8,212,211,58,251,14,20,220,3,249,13,233,0,220,254,23,2,237,245,238,12,250,3,243,11,229,234,42,11,249,20,237,11,251,251,21,18,213,4,28,231,238,7,230,248,251,241,1,250,243,242,65,255,28,237,24,250,251,4,251,248,232,249,29,254,240,22,240,242,252,12,19,2,230,234,54,20,33,23,214,233,252,21,250,245,245,248,33,236,249,239,8,249,252,233,20,26,218,9,18,243,11,17,216,13,252,233,5,241,230,240,40,247,14,22,192,16,252,20,10,234,216,243,15,243,9,246,215,248,253,8,232,19,4,245,14,231,1,11,231,238,252,235,0,245,3,4,2,250,26,238,246,23,253,20,247,246,8,220,240,21,254,23,207,0,254,3,251,247,16,235,2,3,15,20,203,251,255,232,241,235,241,209,237,10,252,243,215,250,255,2,4,255,16,243,217,254,244,11,220,251,0,247,236,3,28,246,244,11,31,242,236,231,1,20,1,252,5,251,223,239,3,16,240,232,2,14,245,22,253,240,247,232,22,11,2,255,3,8,7,2,9,255,213,1,16,242,239,9,4,237,244,234,12,9,227,23,240,248,214,12,6,11,248,24,0,4,232,12,251,20,234,61,7,231,250,21,30,241,245,3,3,31,220,44,7,5,231,241,13,243,213,234,237,253,15,13,7,18,2,15,248,13,243,249,0,20,50,50,7,232,3,13,9,8,250,244,254,3,15,51,6,1,241,4,235,2,228,11,0,252,41,37,6,2,7,15,243,238,230,1,9,23,6,47,5,21,1,240,255,230,242,11,239,253,244,35,5,235,248,245,2,234,250,247,254,254,223,34,6,236,3,4,240,254,248,248,232,245,230,37,7,247,237,14,244,247,9,251,251,17,0,31,8,245,233,2,9,0,242,237,245,30,252,21,8,250,3,235,225,31,240,6,251,251,27,21,8,9,231,242,227,30,255,11,11,27,23,8,7,252,9,242,8,13,6,6,13,29,57,50,6,19,242,11,254,25,5,15,240,242,64,60,4,3,232,19,232,249,24,15,15,18,81,54,3,237,255,4,16,16,23,255,17,21,18,28,2,231,25,249,247,28,245,11,8,237,32,52,2,5,12,6,240,19,7,15,20,8,27,36,2,2,9,21,16,253,19,21,249,244,41,72,2,12,13,246,14,2,23,11,249,3,71,18,2,21,236,13,1,28,254,13,0,237,29,4,1,246,16,239,0,31,10,253,242,238,19,24,1,237,22,12,7,247,10,24,25,20,42,58,1,251,242,239,15,248,234,15,20,25,12,50,1,5,5,12,14,19,5,5,244,12,18,35,1,249,8,5,236,11,10,6,1,3,37,52,1,246,237,5,248,245,226,235,6,254,22,36,1,12,255,13,5,244,10,4,253,10,11,51,1,12,7,8,16,0,232,232,246,24,29,41,1,6,0,5,18,236,253,23,11,240,34,56,1,0,2,10,0,26,15,16,19,4,52,46,1,10,236,232,5,23,19,22,21,17,33,56,1,18,5,19,26,17,244,238,24,248,26,56,1,12,12,246,25,18,9,234,10,249,44,28,1,13,17,234,235,255,27,8,242,238,3,254,0,14,241,236,241,250,15,16,5,242,4,3,0,246,241,253,233,2,22,2,242,253,8,4,0,243,248,250,240,242,40,16,255,18,5,4,0,237,242,252,7,16,51,15,251,252,11,4,0,242,255,252,6,3,47,10,245,9,10,5,0,255,12,12,6,12,20,248,7,7,12,10,0,3,247,0,3,248,21,12,10,6,9,8,255,8,253,242,8,245,51,12,250,15,2,7,255,250,0,241,6,16,27,253,13,4,6,6,255,16,250,5,254,7,20,239,253,8,5,5,255,251,9,247,21,5,6,4,5,240,0,5,255,9,13,0,20,254,19,248,18,243,4,4,255,245,252,13,5,14,248,9,17,248,8,1,255,239,12,9,7,10,17,237,10,240,9,1,255,241,238,241,246,9,229,253,250,242,6,6,255,243,9,6,248,9,239,244,14,7,5,3,0,16,12,0,248,239,228,242,10,234,255,0,0,252,236,13,243,11,0,237,246,11,1,0,0,236,242,18,248,5,235,244,2,12,4,242,0,1,238,241,232,245,250,10,251,245,255,248,0,239,4,4,251,252,227,236,4,237,4,252,0,236,251,253,251,8,229,8,24,2,3,247,0,249,246,245,235,19,214,10,22,244,9,251,0,255,8,8,240,12,240,249,254,2,8,250,0,248,248,254,0,5,212,253,11,247,15,249,0,7,6,244,4,252,248,4,15,255,11,253,0,250,250,248,17,249,243,2,13,241,6,255,1,10,248,245,25,251,206,1,4,244,5,0,1,247,8,247,13,254,203,246,239,246,2,254,1,11,17,17,17,0,207,254,3,255,2,252,1,247,7,248,35,252,214,12,12,231,255,250,1,244,240,250,34,246,218,233,234,254,2,2,1,0,14,12,24,252,195,14,251,239,3,253,1,0,242,238,2,6,207,238,2,9,252,254,1,7,246,10,9,255,220,245,3,247,249,2,1,249,249,240,20,240,204,6,228,253,249,254,1,5,13,254,248,227,224,255,231,8,254,232,1,242,239,246,241,253,251,14,253,240,254,254,1,245,237,6,9,247,252,240,244,5,254,248,1,249,15,250,248,243,255,10,251,5,4,253,1,248,248,0,241,235,8,7,243,251,1,253,1,16,243,236,253,238,0,13,2,12,253,255,1,9,255,13,232,249,16,16,1,3,253,0,2,244,10,10,229,240,12,6,3,254,250,250,2,3,236,15,247,251,11,243,240,240,252,1,2,2,10,249,237,250,28,244,245,6,255,3,2,245,16,10,239,6,34,16,4,252,0,1,2,1,14,241,7,249,20,255,5,17,1,2,2,243,14,253,246,6,34,9,6,250,7,0,1,251,3,253,248,243,30,9,2,250,255,3,1,3,250,255,245,244,38,243,252,251,5,3,1,3,0,244,246,242,24,255,3,253,255,4,1,243,249,14,17,13,45,3,6,0,1,2,1,1,3,13,246,4,15,9,252,10,3,4,0,1,255,17,3,248,18,242,8,19,4,4,0,8,1,10,3,5,5,9,245,13,10,2,0,252,252,241,249,21,24,240,14,237,8,2,0,2,4,253,252,8,252,243,9,8,8,5,0,15,245,0,11,245,8,8,247,254,6,3,255,240,237,241,11,0,14,2,19,248,7,255,255,7,5,255,4,8,2,1,7,1,6,253,254,237,0,248,247,26,9,9,12,7,10,253,254,252,254,16,1,13,239,237,244,238,4,255,254,14,250,241,236,8,1,11,7,8,2,253,254,253,251,249,240,8,247,15,247,238,253,246,254,3,5,238,254,13,245,8,253,0,249,252,253,247,5,3,3,254,249,14,6,250,250,253,253,9,247,250,8,247,233,245,7,246,255,1,254,252,237,9,3,4,227,252,241,5,251,253,254,3,255,240,2,13,0,3,254,9,253,252,253,252,244,11,245,244,241,14,239,235,1,249,253,10,249,0,3,251,240,14,241,243,243,250,253,4,5,243,3,249,248,249,238,238,255,255,253,5,254,15,245,249,235,11,14,244,252,255,253,11,5,2,255,5,255,12,249,237,250,253,253,4,12,10,255,238,235,16,2,5,254,1,253,239,15,7,251,236,240,249,252,233,253,1,253,13,17,12,245,1,227,10,245,238,4,3,253,4,4,241,11,245,232,2,242,234,6,6,254,6,254,248,236,7,251,236,7,248,1,3,254,245,5,3,14,7,254,3,241,251,247,6,255,12,2,12,15,4,247,251,238,238,248,5,255,246,236,253,4,0,1,250,7,250,255,4,0,0,246,248,254,4,235,254,240,4,255,4,0,252,251,245,234,244,246,246,235,5,2,255,1,254,249,242,247,0,231,253,237,251,4,2,1,254,252,238,236,247,245,242,237,236,9,1,0,12,8,242,0,247,11,237,243,245,11,1,0,252,13,236,240,18,237,252,251,246,10,3,0,249,14,244,247,6,240,6,241,238,254,6,0,6,251,250,248,3,247,11,241,250,255,5,0,239,241,12,230,247,254,5,243,1,252,6,0,12,1,7,7,246,15,246,245,4,250,5,0,249,15,255,7,233,0,244,242,249,251,255,0,239,253,236,242,234,11,253,9,11,0,0,0,244,1,2,7,10,2,16,2,252,0,1,0,13,254,8,244,238,0,8,2,15,5,4,0,5,253,13,10,249,9,241,14,11,2,3,0,249,237,243,243,4,14,239,6,236,7,11,0,1,13,4,3,7,249,240,244,235,0,1,0,3,5,236,6,249,253,247,249,6,253,2,0,245,3,12,244,248,18,238,251,10,0,2,0,247,5,252,1,15,236,252,2,250,1,2,0,244,250,1,248,254,249,237,247,16,1,6,0,10,245,246,10,0,10,252,250,247,253,4,0,245,0,235,2,1,248,237,255,15,254,4,0,251,6,252,248,254,244,7,16,5,1,6,0,246,15,255,13,7,243,255,8,2,255,8,0,240,249,255,2,12,3,5,243,240,0,8,0,4,241,235,243,239,11,242,9,15,0,8,0,13,249,11,250,235,246,243,15,8,0,8,0,252,244,16,250,246,247,253,252,14,0,8,0,251,253,235,16,245,234,2,237,13,2,9,0,0,239,251,16,254,242,250,16,246,1,9,0,11,249,248,242,5,253,243,239,245,6,7,0,13,247,9,16,253,15,255,236,248,7,7,0,247,5,243,241,5,13,252,254,239,8,7,0,2,2,240,242,251,9,248,253,245,7,7,0,252,3,7,2,14,17,4,249,249,31,230,0,242,231,19,243,15,250,248,240,243,58,16,0,253,235,253,250,14,2,241,2,233,48,5,0,230,230,19,243,27,246,230,241,18,31,251,0,19,6,250,241,247,3,2,255,6,6,254,0,6,230,16,243,7,36,6,4,237,12,34,0,22,10,15,252,236,18,243,21,251,18,24,0,234,233,19,24,235,248,233,243,3,34,8,0,20,232,21,243,15,6,254,251,253,15,3,0,231,9,247,22,253,12,230,19,243,8,1,0,5,6,251,24,255,255,237,9,234,23,28,0,240,6,241,16,254,10,7,235,2,9,251,0,252,5,16,16,1,253,15,239,237,234,1,0,248,244,233,254,231,0,252,15,8,1,7,0,246,250,24,247,5,5,233,9,233,15,15,0,23,23,253,27,2,13,232,18,4,49,12,1,24,0,3,17,245,250,247,240,3,26,27,1,252,238,245,247,241,229,12,1,245,32,25,1,15,15,6,250,250,10,20,233,253,35,16,2,6,255,0,15,4,249,253,241,241,37,208,2,3,21,8,19,4,247,9,5,242,37,220,3,16,9,250,16,240,3,10,20,255,55,22,3,3,254,3,239,250,248,249,17,14,41,239,4,20,238,251,22,250,236,244,19,237,70,234,3,8,14,23,250,39,243,224,1,5,65,15,2,236,239,237,236,28,242,254,21,233,73,1,1,6,14,243,233,255,223,236,17,22,59,237,255,232,235,3,233,255,10,15,255,13,45,231,254,5,255,252,2,28,232,9,235,242,51,243,252,23,12,3,249,4,6,249,8,241,31,4,250,13,13,250,3,14,15,244,9,232,49,235,250,14,25,243,232,25,250,231,0,237,34,250,250,12,4,250,241,36,20,241,1,11,30,252,249,234,0,9,3,9,231,247,252,245,35,227,248,252,20,231,243,241,14,234,230,238,11,6,246,20,233,233,19,240,236,248,21,238,6,231,247,24,236,19,247,2,232,233,10,251,41,9,247,243,17,238,10,224,11,246,14,15,10,5,248,1,8,248,249,238,24,229,243,10,0,12,248,240,10,1,2,