unsigned char model[] = {32,0,0,0,84,70,76,51,0,0,0,0,20,0,32,0,28,0,24,0,20,0,16,0,12,0,0,0,8,0,4,0,20,0,0,0,28,0,0,0,152,0,0,0,240,0,0,0,204,31,1,0,220,31,1,0,68,43,1,0,3,0,0,0,1,0,0,0,16,0,0,0,0,0,10,0,16,0,12,0,8,0,4,0,10,0,0,0,12,0,0,0,28,0,0,0,60,0,0,0,15,0,0,0,115,101,114,118,105,110,103,95,100,101,102,97,117,108,116,0,1,0,0,0,4,0,0,0,144,255,255,255,16,0,0,0,4,0,0,0,9,0,0,0,100,101,110,115,101,95,49,53,56,0,0,0,1,0,0,0,4,0,0,0,234,222,254,255,4,0,0,0,15,0,0,0,100,101,110,115,101,95,49,53,53,95,105,110,112,117,116,0,2,0,0,0,52,0,0,0,4,0,0,0,220,255,255,255,19,0,0,0,4,0,0,0,19,0,0,0,67,79,78,86,69,82,83,73,79,78,95,77,69,84,65,68,65,84,65,0,8,0,12,0,8,0,4,0,8,0,0,0,18,0,0,0,4,0,0,0,19,0,0,0,109,105,110,95,114,117,110,116,105,109,101,95,118,101,114,115,105,111,110,0,20,0,0,0,216,30,1,0,208,30,1,0,172,30,1,0,92,29,1,0,76,28,1,0,60,21,1,0,188,20,1,0,172,13,1,0,156,12,1,0,204,0,0,0,196,0,0,0,188,0,0,0,180,0,0,0,172,0,0,0,164,0,0,0,156,0,0,0,148,0,0,0,140,0,0,0,108,0,0,0,4,0,0,0,182,223,254,255,4,0,0,0,88,0,0,0,12,0,0,0,8,0,14,0,8,0,4,0,8,0,0,0,16,0,0,0,40,0,0,0,0,0,6,0,8,0,4,0,6,0,0,0,4,0,0,0,1,0,0,0,235,3,0,0,0,0,10,0,16,0,12,0,8,0,4,0,10,0,0,0,2,0,0,0,2,0,0,0,4,0,0,0,6,0,0,0,50,46,49,53,46,48,0,0,26,224,254,255,4,0,0,0,16,0,0,0,49,46,49,52,46,48,0,0,0,0,0,0,0,0,0,0,244,223,254,255,248,223,254,255,252,223,254,255,0,224,254,255,4,224,254,255,8,224,254,255,12,224,254,255,16,224,254,255,86,224,254,255,4,0,0,0,192,11,1,0,218,4,2,17,39,200,37,46,58,235,14,208,40,178,20,60,253,59,215,22,222,47,77,249,217,252,45,254,220,31,60,192,41,200,235,10,192,201,50,223,18,23,232,49,65,4,216,42,253,60,198,63,57,203,232,225,11,214,213,175,33,245,42,171,24,46,5,19,7,7,53,36,210,192,77,242,255,23,231,221,245,197,182,27,208,226,1,21,57,249,251,231,228,11,227,22,234,202,55,200,220,214,217,219,234,236,62,68,238,222,76,32,48,205,33,3,243,15,249,250,201,20,216,18,7,31,234,255,216,238,25,5,214,19,225,239,235,24,21,22,218,29,255,245,5,246,9,224,238,73,248,11,202,246,212,197,19,243,59,17,230,35,171,240,27,13,227,216,51,210,16,228,40,27,193,235,24,32,40,18,5,52,220,235,61,205,57,51,35,238,30,61,214,40,69,22,69,251,244,201,14,247,218,239,10,210,237,223,211,229,212,46,69,238,40,50,235,7,34,33,17,6,73,243,231,250,68,31,251,60,18,40,233,61,199,247,71,44,18,240,246,199,218,22,7,43,234,248,2,220,209,20,31,1,46,190,28,187,211,203,253,244,0,218,22,230,22,250,45,60,255,46,238,22,25,255,45,211,222,235,73,223,58,244,250,33,25,50,190,250,255,63,243,2,216,200,51,28,71,51,38,28,223,55,226,2,226,78,25,53,205,5,231,40,232,7,50,196,55,31,47,214,221,17,226,93,24,36,18,212,16,215,197,44,66,213,10,253,65,232,59,13,213,19,248,12,248,53,250,45,40,195,54,224,22,215,23,24,34,248,26,91,187,24,66,209,40,243,53,60,109,194,254,50,26,224,32,65,50,8,31,52,17,226,52,223,66,202,92,254,0,36,37,24,26,12,254,9,9,221,192,180,1,25,13,68,84,240,42,41,1,52,0,77,26,76,2,78,248,223,8,239,19,233,55,248,17,2,230,18,18,41,47,37,244,210,196,153,190,216,68,2,228,41,225,34,255,205,236,248,214,57,22,253,188,251,208,217,10,72,9,243,248,8,195,10,240,226,85,41,231,50,239,4,252,5,217,48,17,232,15,210,243,36,246,29,19,239,34,43,38,15,235,242,73,54,250,29,242,27,43,192,56,62,13,1,24,243,68,243,36,52,232,4,59,238,194,52,221,203,65,234,14,57,18,241,14,225,222,231,204,240,5,255,191,245,47,248,52,27,201,8,33,252,0,242,5,213,252,26,17,20,168,216,0,35,42,60,9,253,54,215,16,212,233,199,51,3,254,5,202,248,29,9,214,227,237,17,254,247,45,48,25,62,205,29,0,11,253,242,0,254,35,25,32,13,200,195,87,236,243,23,218,24,215,209,207,44,15,203,247,52,250,205,189,227,21,186,33,236,21,246,46,202,216,0,52,226,201,24,236,10,222,3,48,21,247,236,237,19,205,220,163,224,91,18,19,241,4,253,241,33,6,62,200,190,228,201,190,235,183,1,229,36,220,36,229,239,248,194,218,239,251,217,2,218,236,183,243,28,27,200,254,16,240,18,18,34,235,203,232,230,251,168,252,212,8,39,81,29,216,66,224,18,229,242,207,40,222,9,61,7,18,227,232,47,246,12,43,235,36,1,212,226,202,252,213,251,22,24,19,30,0,243,220,245,49,57,35,237,211,8,251,0,241,57,4,4,251,226,202,199,20,240,30,233,245,255,9,198,243,254,3,4,15,48,221,241,248,222,253,227,192,21,239,73,220,65,199,13,252,9,11,16,233,202,218,232,230,238,205,54,31,233,228,244,242,45,200,14,212,213,26,19,29,9,12,234,61,248,253,19,221,252,216,23,19,63,245,4,51,16,217,233,4,42,234,200,30,20,206,192,218,175,2,250,202,221,6,213,6,183,173,58,50,227,242,250,201,71,215,29,204,246,14,255,12,189,30,44,185,9,222,41,11,34,219,49,247,36,20,200,203,241,225,221,5,238,51,20,197,218,248,16,196,52,213,244,236,241,60,235,232,41,10,242,18,251,87,22,193,210,68,62,198,21,225,45,207,232,222,222,14,17,33,27,232,225,6,62,222,2,227,220,242,218,4,6,4,253,24,21,243,247,45,40,251,79,227,235,47,251,215,222,31,31,11,2,4,53,26,206,207,238,244,239,55,226,242,10,217,59,194,212,244,74,45,12,237,217,238,251,212,248,9,249,34,190,245,215,57,5,44,32,251,0,8,12,23,40,17,196,237,49,209,74,218,210,56,16,34,67,87,244,34,204,11,211,39,27,64,67,219,19,18,33,63,226,223,61,20,199,246,229,240,249,218,244,12,15,254,47,19,39,34,203,215,213,9,9,56,1,27,184,228,193,205,220,35,18,255,8,229,220,252,247,254,21,233,242,62,56,240,1,235,16,214,19,197,241,222,225,34,45,21,242,25,244,243,228,11,242,65,28,1,16,14,5,46,217,232,229,250,12,243,22,47,245,36,53,51,255,244,18,40,18,211,207,53,29,27,246,212,250,46,19,249,248,40,28,246,30,21,253,31,241,253,74,243,248,18,234,48,211,6,240,0,16,8,240,18,1,17,1,37,69,34,248,252,1,47,46,240,219,53,17,227,3,21,40,251,247,233,4,247,215,11,220,3,209,0,12,41,28,230,243,40,249,254,214,251,228,243,24,3,2,38,201,243,32,220,12,27,17,209,217,10,244,9,222,247,21,248,48,244,8,18,214,205,215,241,229,39,235,43,200,3,199,240,34,238,26,230,11,27,239,47,15,223,26,209,48,232,19,44,207,254,222,5,29,6,45,3,6,218,222,230,32,11,44,38,191,241,250,227,11,226,197,1,239,196,209,12,14,244,16,36,42,24,18,227,183,3,255,255,9,229,14,22,5,221,221,225,236,212,1,34,9,216,253,242,34,239,43,213,13,1,233,227,222,7,242,15,47,199,26,209,216,11,222,241,238,26,214,200,46,179,221,18,228,231,219,212,18,1,183,230,9,239,13,236,20,14,16,180,6,234,241,41,4,37,3,248,237,11,216,19,43,219,7,24,240,239,5,37,211,223,227,217,24,14,207,229,12,233,221,17,231,243,218,199,7,20,237,223,227,217,13,237,246,228,4,9,200,206,207,45,43,192,31,57,248,10,15,240,240,29,227,25,4,17,250,228,198,214,231,247,14,226,8,208,197,199,210,46,200,239,6,28,211,220,1,214,199,241,35,1,0,33,219,28,4,211,36,35,221,243,11,199,233,16,219,5,3,24,35,242,199,46,26,231,247,48,233,21,4,43,1,6,35,47,47,248,231,235,13,204,222,255,240,231,250,30,42,240,5,205,237,21,226,249,239,2,14,34,217,228,39,15,4,250,240,216,47,206,235,8,239,6,223,245,6,17,219,28,241,237,244,229,198,13,4,3,223,8,40,10,35,219,4,234,238,17,215,240,47,4,18,16,210,210,223,224,252,240,249,236,251,46,2,57,12,7,10,221,7,236,28,221,61,217,16,233,25,239,203,4,255,27,224,26,253,218,238,219,27,28,62,15,45,33,35,250,212,42,6,18,236,11,238,10,11,41,42,3,254,245,3,26,237,21,12,221,23,6,57,234,223,7,200,37,225,205,220,222,0,216,18,7,233,52,12,239,252,16,16,235,33,22,204,240,210,225,224,245,236,250,249,52,17,31,27,12,5,217,26,20,42,33,223,2,13,235,12,208,216,19,247,211,191,6,238,253,18,236,16,240,253,40,8,213,20,220,38,31,245,218,229,5,232,31,229,251,220,224,241,249,215,20,0,47,205,25,10,47,31,232,16,211,244,235,210,214,15,35,6,237,22,252,12,50,245,38,190,238,22,9,6,34,11,17,37,7,232,222,248,252,236,33,209,252,189,234,25,217,230,14,234,215,4,23,250,243,25,208,12,44,227,200,26,236,232,23,241,223,6,30,197,239,14,249,217,229,20,218,227,208,210,241,250,8,26,207,224,201,202,220,209,233,246,220,43,229,241,30,189,239,7,27,6,238,228,203,246,22,255,23,8,32,213,17,19,230,3,216,20,35,36,17,238,200,210,222,210,212,16,6,18,253,40,7,223,17,251,19,209,202,250,216,213,214,237,253,1,24,29,212,14,17,255,236,244,232,24,41,7,223,31,192,239,253,226,19,31,243,40,249,242,230,236,3,205,28,230,225,244,247,218,242,230,250,237,244,15,16,239,15,12,224,207,24,243,195,193,6,239,11,237,26,18,2,36,204,31,27,248,17,224,243,2,210,15,245,38,248,6,33,226,247,230,215,230,11,226,240,14,249,234,5,195,245,23,0,221,36,41,12,22,226,46,229,223,4,254,28,19,243,241,236,7,235,13,49,20,9,244,228,50,237,40,3,10,0,20,192,4,246,8,216,221,1,218,250,219,216,197,16,238,12,32,234,1,244,12,220,18,248,15,236,45,247,227,6,233,245,28,6,228,7,26,255,37,23,3,9,7,238,27,227,205,19,205,228,0,6,5,28,38,254,216,26,251,8,30,215,252,251,220,252,4,43,21,224,255,198,229,14,236,31,246,239,26,221,246,235,52,3,11,43,8,8,224,223,245,15,31,234,22,233,253,7,2,248,38,254,238,3,31,237,1,223,206,39,218,21,34,238,15,228,249,22,250,7,33,5,232,1,241,22,197,16,34,51,18,34,237,7,250,15,25,236,250,11,16,199,215,41,207,245,207,226,229,28,1,248,11,200,239,47,206,11,248,237,24,22,9,220,23,252,30,19,11,236,7,29,32,28,251,227,227,6,255,255,201,17,38,209,251,225,3,1,225,244,203,246,227,255,7,236,252,31,22,8,205,3,244,3,212,222,13,17,0,61,48,222,228,56,217,204,218,44,50,28,58,67,39,5,236,23,229,233,52,34,251,68,246,238,18,214,57,53,11,240,200,211,244,24,42,87,41,36,59,32,211,221,50,60,84,61,61,39,21,14,207,49,51,239,78,94,225,253,203,10,221,218,55,66,54,74,55,221,227,250,3,220,11,29,7,239,42,243,33,207,36,33,19,247,185,41,246,234,74,14,32,34,196,14,36,237,255,231,5,8,28,196,6,216,245,227,63,64,252,31,248,255,204,206,63,4,93,4,209,211,202,222,5,65,37,254,18,21,231,38,229,235,24,31,68,41,222,10,25,220,50,25,39,244,4,23,230,16,62,214,57,67,210,51,12,12,7,47,44,33,245,54,20,234,34,11,231,57,232,208,18,236,12,8,223,21,219,249,255,27,229,62,227,232,241,71,229,212,57,252,196,2,222,207,226,31,208,3,221,225,36,227,42,225,25,209,227,36,73,11,52,234,243,12,55,233,9,61,193,209,245,208,56,218,32,236,61,243,36,67,41,42,3,248,201,60,215,59,218,44,9,2,232,190,21,40,5,25,223,49,16,242,169,238,54,7,3,231,238,247,214,203,44,2,213,221,65,36,212,0,195,229,221,6,45,61,67,248,51,229,12,232,226,234,46,232,59,226,192,213,226,10,248,213,204,239,49,28,237,1,185,18,229,7,206,248,242,245,46,66,255,200,219,228,50,163,33,219,46,240,2,37,247,16,6,232,40,236,0,50,13,48,224,181,15,22,26,236,5,23,33,19,194,189,253,222,228,202,15,254,240,41,231,45,12,37,227,39,54,41,239,31,38,2,247,233,229,247,202,22,255,226,222,223,217,214,197,39,68,28,223,3,248,13,227,3,35,234,223,38,20,38,255,18,14,227,230,238,26,195,41,55,22,18,223,39,13,237,30,252,30,190,208,180,92,237,217,201,53,21,254,2,40,25,228,209,239,61,0,17,242,189,32,209,38,189,53,233,255,35,211,9,33,56,45,221,45,198,196,197,88,192,227,240,232,6,219,61,210,244,240,19,230,234,50,246,7,223,57,164,225,81,252,255,207,43,249,36,238,224,8,233,11,61,237,186,216,4,23,82,34,222,26,32,4,23,197,31,240,71,13,52,232,46,241,199,221,233,237,59,224,10,202,214,249,36,190,25,39,1,32,205,56,16,14,22,222,11,17,194,39,77,48,7,232,25,1,19,17,63,222,34,181,214,249,17,216,193,236,64,20,29,35,28,39,38,187,67,40,66,217,52,207,52,61,196,243,74,246,241,233,28,226,250,245,213,30,38,238,232,12,66,200,189,232,234,56,34,248,53,23,255,198,232,254,57,43,37,8,48,232,4,253,58,51,3,254,253,42,60,0,34,62,201,220,65,224,45,55,217,21,232,47,185,253,3,219,244,198,32,205,242,218,2,252,48,44,214,242,230,15,236,193,60,51,9,238,9,246,49,45,45,250,243,230,238,69,16,215,212,17,30,201,242,245,252,9,33,211,236,206,205,220,232,211,15,204,35,41,208,57,207,243,230,191,236,1,4,20,49,57,255,222,156,21,251,254,12,206,213,38,255,17,51,39,7,34,253,229,238,53,159,24,227,14,14,74,8,252,248,169,67,20,184,7,27,211,0,61,12,251,173,10,53,18,255,64,218,188,230,187,251,0,22,219,58,250,7,4,3,244,243,196,245,47,7,234,234,46,18,243,217,63,8,68,172,68,9,39,226,72,227,226,4,242,242,231,9,248,47,229,223,19,216,237,15,201,36,54,232,36,255,179,209,180,3,9,200,234,238,235,187,8,225,234,55,47,255,51,66,244,71,186,234,42,226,197,248,2,178,60,30,46,32,219,58,186,21,18,45,11,18,26,53,225,162,18,201,217,219,8,19,239,1,14,245,17,223,35,28,24,43,241,229,13,5,226,190,9,19,23,34,190,213,31,38,67,255,217,58,239,197,213,229,189,20,207,39,214,199,6,245,239,45,194,254,37,16,228,239,195,23,16,194,15,34,230,228,244,212,23,40,41,230,28,59,247,4,50,253,48,255,201,55,244,204,188,6,49,237,5,30,248,5,203,4,6,45,210,61,1,210,250,201,229,36,245,245,17,224,3,0,234,14,34,244,9,229,53,254,41,217,234,221,39,43,5,202,230,198,223,233,197,28,227,18,225,0,29,31,34,14,250,193,247,238,224,22,207,210,228,253,246,219,8,55,246,4,28,14,205,50,206,225,57,22,6,12,225,237,190,14,71,12,253,62,244,240,228,55,213,222,59,210,15,55,204,197,248,225,0,253,221,221,227,26,37,215,44,18,13,249,26,1,5,55,220,242,223,196,226,210,4,238,30,27,1,97,20,211,0,56,217,43,47,248,246,203,17,253,62,38,252,207,181,255,249,70,27,42,48,248,212,248,192,242,53,1,61,254,248,242,245,245,13,210,233,248,215,8,211,56,239,249,15,54,207,60,251,220,45,254,255,218,237,27,23,49,13,205,229,20,1,227,251,217,216,38,30,55,2,33,254,31,223,63,230,2,10,18,208,198,225,238,18,250,8,47,56,29,233,217,246,205,223,216,53,251,44,255,203,34,223,243,27,254,51,14,245,1,2,46,217,73,248,245,9,75,200,62,6,26,29,190,36,19,80,191,248,212,45,207,35,39,38,221,209,235,70,48,244,196,26,13,16,204,195,10,185,56,5,243,215,246,48,13,53,190,0,3,213,231,53,206,226,244,207,20,250,28,218,205,29,17,244,249,213,18,215,203,32,2,50,240,19,41,246,31,8,198,55,228,227,196,225,196,46,52,31,23,24,0,218,17,43,38,220,60,24,18,55,221,221,241,25,34,7,29,203,59,6,216,49,36,11,241,251,53,35,208,18,40,1,50,207,218,203,235,239,21,181,52,239,43,204,204,27,228,53,34,250,239,66,47,28,206,231,10,14,13,47,31,44,66,36,187,254,45,224,45,229,70,6,26,231,9,247,234,247,204,214,234,16,36,255,84,2,233,20,217,62,230,219,48,218,232,73,56,228,15,185,28,249,27,198,67,54,44,235,2,231,53,236,50,2,239,240,4,216,6,41,10,23,3,19,237,50,224,60,208,3,233,38,244,206,209,239,188,249,198,53,243,13,240,7,11,206,201,212,213,227,218,42,237,207,226,245,232,34,6,243,198,207,240,196,12,200,44,230,16,44,43,11,252,223,205,24,215,35,185,88,23,171,207,199,243,202,44,209,101,199,51,66,219,46,31,217,238,255,229,36,44,184,51,32,14,208,80,62,17,199,20,246,204,234,211,83,240,45,62,26,45,12,219,236,91,4,41,47,27,36,220,39,6,96,206,79,175,206,222,236,230,22,88,204,24,238,42,22,247,228,248,52,36,3,2,209,241,253,25,251,31,243,30,244,3,233,255,249,196,71,1,28,45,246,224,70,246,26,250,208,75,31,243,33,219,228,7,56,5,227,40,209,254,24,199,234,36,45,235,241,68,252,69,206,230,49,254,50,54,28,248,219,28,52,46,15,45,75,178,221,40,41,61,218,240,218,37,6,243,230,251,1,230,7,195,194,68,13,0,54,14,243,59,242,42,34,16,25,222,238,5,14,224,79,230,13,247,248,248,22,208,253,15,76,189,19,33,250,32,213,56,195,244,52,4,244,218,232,42,243,230,254,211,22,31,217,41,247,189,7,41,33,231,211,248,193,243,29,213,40,7,9,15,204,33,221,217,231,192,10,8,35,21,187,21,36,30,240,28,222,10,33,35,11,199,249,6,205,217,16,214,252,200,21,35,245,49,62,23,209,251,188,216,194,251,201,10,207,190,242,211,201,185,239,25,14,220,241,13,15,232,216,206,214,41,19,239,240,38,248,8,30,47,250,217,198,38,1,12,50,180,253,213,233,230,204,223,1,29,20,43,17,227,1,220,219,4,15,205,237,68,243,255,238,243,222,51,254,233,252,8,29,37,250,20,15,0,217,2,240,44,202,197,196,3,241,16,78,62,30,216,187,153,252,15,14,47,38,209,22,10,250,0,36,231,223,16,234,251,247,27,0,9,218,221,240,27,221,211,40,36,25,189,230,222,26,45,202,202,20,226,38,246,7,255,8,218,254,225,187,35,222,210,49,24,169,255,235,193,13,7,208,47,29,242,34,16,59,209,28,38,243,228,247,220,31,5,11,7,241,239,0,32,199,17,14,236,48,244,28,224,180,246,0,34,254,246,65,35,70,35,22,48,38,1,66,34,234,34,248,198,10,37,33,221,197,7,213,7,52,213,240,29,4,7,0,249,4,195,233,187,0,28,242,41,236,49,27,231,24,202,8,251,27,11,219,9,2,240,196,39,36,168,83,226,31,253,251,5,186,35,203,10,5,226,212,231,35,213,194,14,252,242,227,30,245,194,208,18,48,50,57,39,235,249,60,231,39,197,85,218,34,204,201,210,34,59,207,13,67,184,199,76,7,250,254,199,37,20,221,41,28,243,15,201,242,67,1,49,254,229,243,228,216,32,229,39,94,203,0,9,39,239,250,71,78,210,247,27,246,222,62,41,11,47,19,229,21,11,250,221,27,245,65,61,21,223,53,35,214,246,222,69,250,202,237,235,251,204,54,41,239,249,241,209,14,208,11,11,229,67,210,76,199,22,211,189,217,63,246,248,23,66,16,27,248,65,6,13,178,237,254,2,67,242,253,254,233,229,16,36,5,219,33,12,233,27,246,29,23,33,44,44,57,252,251,39,214,250,14,254,237,42,250,235,62,197,243,223,40,237,202,8,10,232,251,234,203,218,245,212,236,198,44,30,181,6,238,51,224,26,232,204,187,228,48,213,57,201,6,240,26,232,239,218,240,209,34,14,234,40,10,0,26,250,20,18,3,230,55,43,58,231,249,73,27,40,34,15,242,23,223,31,239,25,193,7,186,12,225,31,34,21,51,187,9,3,222,44,24,204,230,34,207,196,203,71,237,17,246,42,6,30,207,224,232,6,212,3,255,214,251,216,29,201,232,240,234,43,202,8,207,228,53,18,253,48,214,46,196,9,55,225,239,213,9,37,72,254,202,176,210,227,3,4,4,18,0,199,29,201,10,50,1,41,239,6,186,250,63,45,247,8,32,218,206,197,12,24,245,213,239,208,19,215,36,239,243,28,5,219,56,54,28,252,45,199,18,20,56,12,72,36,28,217,4,3,43,233,237,211,42,25,51,230,36,19,33,237,231,241,60,5,36,201,28,227,37,62,215,218,230,212,1,30,207,24,232,220,230,3,242,254,239,210,231,40,81,217,48,208,13,56,239,232,0,43,235,44,243,209,215,57,232,218,28,80,59,9,231,1,40,226,39,31,24,230,28,50,247,249,10,243,79,245,69,5,16,61,206,12,206,78,221,248,184,22,218,2,19,242,25,75,19,249,233,252,50,33,12,50,254,218,25,253,10,254,12,191,241,91,17,33,232,18,66,252,49,0,64,240,212,11,225,3,60,184,234,62,254,20,29,251,2,221,243,85,38,67,249,66,209,211,250,240,246,20,39,187,239,3,235,255,1,37,56,97,185,201,246,228,57,222,87,41,241,225,216,46,43,48,248,77,228,58,8,235,233,239,255,62,227,1,12,10,37,253,38,232,25,52,242,35,78,14,235,9,218,16,203,186,55,58,31,11,253,211,247,22,211,31,229,1,33,232,244,23,56,50,251,208,197,221,222,8,240,246,40,223,12,200,42,20,0,42,42,229,58,211,224,231,246,63,80,202,9,20,64,231,227,3,51,60,218,209,239,8,3,62,20,1,60,226,4,235,54,241,66,202,10,239,191,1,27,224,2,218,247,208,37,11,35,25,252,254,241,17,22,219,229,16,229,4,206,208,217,231,245,163,51,248,226,34,53,0,14,32,21,250,199,77,13,192,52,29,16,169,47,37,17,191,12,26,18,233,241,46,253,11,39,235,225,222,36,222,221,14,244,42,12,29,241,238,194,58,209,25,244,218,234,0,218,229,28,9,189,227,41,250,7,42,193,255,240,229,203,56,17,54,22,39,240,35,200,232,34,7,220,211,210,45,10,55,5,252,219,17,201,209,28,233,232,44,232,48,208,4,242,42,42,10,246,55,27,225,58,1,201,182,33,53,208,206,212,250,247,12,208,26,53,197,64,22,88,220,26,194,216,31,209,233,54,1,219,10,20,63,49,249,6,36,13,22,33,252,214,20,208,251,33,46,217,240,198,61,196,46,226,208,246,35,27,218,6,12,41,237,40,17,211,198,46,24,52,49,37,234,29,199,218,9,36,16,214,252,222,57,20,224,8,227,252,215,26,5,13,48,5,56,20,33,254,233,233,254,201,190,229,4,222,67,219,45,76,55,40,189,197,252,195,237,41,228,35,210,25,5,20,58,50,52,225,18,221,6,45,19,240,17,4,51,214,23,46,211,196,52,204,225,19,47,217,249,20,15,36,244,5,231,19,233,9,4,205,221,8,200,30,1,31,5,35,33,5,13,17,236,92,203,53,64,181,59,207,224,80,84,50,241,216,15,33,197,231,184,17,244,12,170,39,29,233,46,4,84,247,33,68,28,208,217,65,223,255,25,255,8,244,38,25,5,242,246,209,54,41,206,219,25,234,240,47,24,16,29,26,17,19,1,244,226,215,229,204,44,35,239,235,209,84,54,42,17,214,232,45,27,218,16,222,47,253,22,54,37,55,244,7,234,250,43,65,213,14,234,23,244,234,54,213,37,45,62,245,206,189,238,26,219,194,27,21,255,16,36,62,61,255,2,233,40,225,2,56,210,28,3,224,78,43,241,3,193,43,24,199,39,235,26,203,34,1,254,235,5,26,239,217,44,225,217,51,229,33,29,5,219,253,33,51,242,66,203,19,25,235,40,14,220,51,232,176,6,220,246,243,18,196,227,68,226,235,204,209,55,4,216,25,250,37,9,233,50,248,243,14,233,255,48,181,3,217,196,232,12,13,60,40,235,42,1,15,29,32,242,225,195,210,221,44,13,45,234,43,45,20,251,15,51,196,30,191,50,59,226,22,242,49,22,40,52,20,32,24,39,11,4,216,235,42,226,251,40,242,40,11,239,5,229,11,222,193,181,236,28,204,10,28,61,242,209,246,59,207,30,229,14,205,10,3,179,60,206,22,54,47,6,39,218,202,22,48,35,52,49,20,251,220,80,236,54,234,48,47,231,25,10,241,243,248,241,245,31,235,64,202,234,232,26,238,2,194,33,23,81,193,47,20,217,30,44,19,10,36,22,26,218,36,242,0,255,215,46,240,207,58,16,215,28,42,29,39,237,230,219,58,61,35,25,177,218,26,14,239,58,18,217,195,1,55,52,6,24,244,230,45,237,33,234,13,199,4,215,45,244,20,29,245,215,35,0,16,2,217,1,0,216,206,249,23,46,83,243,213,207,11,237,246,30,9,235,225,214,65,0,18,5,30,1,242,224,231,208,189,227,224,252,217,216,215,209,251,24,36,237,245,28,78,57,207,227,237,39,38,57,37,12,39,236,249,53,218,19,0,57,21,39,253,243,51,183,9,219,19,238,236,36,7,3,6,213,7,35,223,36,61,235,42,208,38,29,36,221,188,34,22,18,218,1,198,20,234,22,20,216,212,37,26,223,40,3,231,225,249,241,26,34,229,31,11,237,242,238,2,23,238,37,18,37,2,14,58,236,219,9,242,55,33,10,1,237,31,219,11,185,23,12,31,244,23,0,22,217,213,208,204,253,27,187,248,8,249,254,235,219,248,43,193,54,29,238,22,53,6,247,17,193,242,50,43,7,220,14,185,195,28,235,56,30,231,40,40,3,210,39,217,27,56,234,11,221,201,6,222,198,46,48,210,209,245,165,212,37,229,245,255,241,243,204,192,251,37,226,227,184,211,252,18,165,190,26,38,15,42,38,7,33,213,226,202,53,25,14,16,44,66,220,7,178,10,34,228,232,13,243,198,17,194,16,225,231,1,30,33,171,20,232,0,217,22,48,22,236,15,244,206,66,70,9,1,234,49,244,23,197,20,35,222,211,208,220,236,14,217,24,217,224,51,213,253,215,225,32,26,20,234,247,196,246,185,42,8,240,30,13,4,7,33,233,19,218,238,225,254,224,203,185,189,24,7,253,250,202,192,20,22,253,11,232,61,235,35,237,57,233,13,207,238,6,250,58,25,206,193,23,206,254,218,219,40,189,214,2,16,18,236,19,42,245,253,52,210,210,10,251,251,238,28,205,17,232,2,201,20,254,230,229,200,202,200,18,244,251,22,241,194,238,28,242,65,211,248,223,31,16,50,39,168,224,52,221,221,14,57,19,232,255,50,226,67,254,186,202,10,242,228,50,35,58,9,38,29,23,40,31,234,57,1,224,217,42,210,209,34,52,53,17,206,34,38,25,0,240,40,204,255,249,233,228,49,2,236,21,25,221,209,40,67,203,200,52,248,3,222,26,223,218,198,62,21,30,243,31,15,250,42,32,251,48,48,239,4,20,58,58,39,49,47,14,15,254,205,8,251,218,214,244,23,9,246,12,197,21,225,24,225,64,218,19,208,49,203,42,194,34,11,219,212,246,212,13,2,33,35,227,30,24,216,36,61,35,28,227,232,26,253,237,170,28,222,8,250,27,253,231,199,21,222,1,202,56,46,40,93,208,184,247,230,212,53,40,26,45,219,0,16,252,25,10,216,229,88,68,253,56,40,49,243,25,73,221,240,239,13,12,58,47,42,56,208,58,253,246,218,47,15,26,253,66,249,216,231,238,229,21,14,39,61,233,249,212,205,193,208,52,242,5,233,43,37,251,206,5,28,19,205,19,248,221,6,29,232,1,246,251,58,46,15,215,28,31,18,79,76,212,6,223,248,197,244,31,39,31,112,250,54,198,30,209,254,87,226,212,179,243,196,7,250,200,0,244,44,188,235,65,5,24,245,71,29,238,62,217,213,2,18,228,5,5,249,13,0,252,29,35,224,60,48,224,236,63,232,51,5,210,29,15,68,204,18,49,19,26,223,72,243,22,51,2,225,250,228,29,31,5,222,30,221,248,45,63,164,14,246,10,189,224,17,50,24,249,42,72,56,16,254,14,54,58,232,202,185,43,69,42,50,64,8,13,59,26,42,244,60,16,34,222,232,204,170,42,43,205,27,12,1,15,213,247,63,244,0,213,240,36,0,240,247,26,218,255,252,206,251,246,249,216,42,187,27,48,63,229,228,203,222,12,47,62,235,32,66,20,30,207,218,40,221,63,37,244,231,237,237,225,247,3,225,214,244,0,242,234,228,184,68,0,245,30,224,28,215,95,197,252,203,31,51,198,193,11,40,21,56,251,252,61,12,211,251,43,19,249,199,40,222,245,15,253,230,66,50,228,40,44,242,198,205,43,10,208,203,212,206,5,236,241,210,68,4,234,65,241,42,203,188,8,215,237,197,5,55,255,44,241,17,249,196,52,60,0,20,226,186,26,231,31,207,0,4,38,244,11,51,207,77,37,42,189,240,25,3,66,42,38,32,6,242,10,250,6,203,205,217,189,48,1,26,60,212,223,230,201,237,26,11,199,216,221,250,0,50,206,38,235,199,24,251,13,213,219,232,55,254,49,228,10,42,229,249,11,242,4,27,19,246,41,44,26,213,189,7,8,42,253,253,43,218,31,48,59,78,231,9,37,6,235,203,215,0,241,9,50,247,231,37,43,234,208,74,30,56,56,5,232,32,233,247,246,38,2,234,5,206,244,217,240,248,67,84,243,252,247,253,13,59,90,222,52,9,39,246,44,52,246,249,68,73,3,249,44,229,225,250,244,253,17,34,188,237,1,0,67,251,252,21,32,24,201,25,207,108,100,27,18,205,32,27,243,244,58,17,7,22,8,60,253,231,185,247,251,22,228,239,189,11,243,197,99,56,30,238,23,230,48,208,219,246,234,47,217,239,1,1,249,225,201,15,232,20,56,213,22,194,25,1,203,43,37,242,51,236,220,239,35,229,0,56,230,220,2,70,23,247,190,213,58,60,1,206,45,225,21,203,197,36,8,237,12,6,213,238,6,220,253,201,1,244,37,244,28,28,251,44,237,68,12,251,6,74,184,177,31,208,236,41,27,57,36,184,10,193,24,241,211,16,241,247,210,173,16,245,16,14,198,247,37,236,242,208,36,96,51,237,227,189,180,246,10,224,30,222,9,223,204,234,218,23,6,37,12,250,35,52,192,218,211,47,243,6,22,194,13,225,189,235,14,37,255,213,186,235,208,243,203,212,6,41,55,0,225,157,222,28,36,32,23,255,226,244,236,230,222,10,78,250,47,35,225,175,181,208,33,243,229,244,239,54,1,253,232,228,184,226,235,207,36,167,15,208,57,62,232,23,36,248,223,4,235,26,60,16,220,47,51,188,206,232,32,7,227,237,17,31,255,29,188,35,55,29,9,191,21,255,75,168,2,24,43,36,22,12,214,35,37,29,1,16,50,30,239,199,233,18,202,250,223,246,239,38,209,33,234,39,20,252,224,217,234,215,27,191,232,222,8,32,182,231,152,66,150,239,225,24,211,204,247,232,5,32,228,30,35,34,207,230,228,25,2,17,218,22,249,18,214,188,229,59,104,47,69,196,11,249,223,238,70,213,250,48,248,240,180,216,200,221,40,28,35,241,202,158,25,208,27,27,0,22,178,45,216,2,210,241,252,222,220,215,239,247,220,4,4,203,9,24,241,51,224,254,45,50,242,33,31,243,234,224,87,47,254,231,13,212,199,233,216,1,53,77,244,206,206,255,231,54,15,238,60,16,6,17,53,3,197,9,35,61,15,252,237,58,8,14,48,57,11,20,230,26,32,42,254,86,225,3,8,28,13,6,229,220,84,47,238,56,174,249,254,198,232,56,28,4,28,0,232,41,231,94,249,237,12,251,21,207,173,243,216,26,33,8,244,173,240,43,1,72,54,253,7,39,66,252,224,226,64,251,1,247,234,223,10,43,242,36,88,223,36,3,227,16,213,206,231,47,221,1,5,2,216,229,10,223,251,12,23,40,201,255,22,36,14,60,239,71,49,255,49,45,229,207,4,44,78,58,249,217,63,233,17,3,250,87,19,244,239,231,1,62,82,77,118,51,230,201,247,30,233,22,244,246,203,50,189,240,22,11,24,49,248,191,201,9,18,251,44,236,20,252,8,28,199,220,238,227,5,80,250,247,254,34,40,37,201,49,56,12,213,11,236,51,247,217,61,7,8,220,232,34,214,190,176,222,40,1,223,3,23,10,39,221,47,10,34,247,216,206,61,18,221,210,58,68,245,1,217,194,3,250,218,62,3,233,237,0,221,5,174,233,70,47,242,8,4,58,16,245,242,49,232,246,13,170,72,31,36,189,62,221,241,243,225,11,21,206,232,79,27,18,193,249,56,44,239,160,20,215,248,252,236,212,64,198,190,59,208,238,222,226,23,46,248,158,217,217,17,21,200,208,31,212,171,216,223,34,206,58,39,8,50,189,73,46,24,44,226,227,67,250,179,9,215,214,28,180,50,48,236,224,5,54,225,0,231,247,250,195,203,249,240,219,240,202,250,48,44,45,238,10,211,218,9,239,248,58,255,241,237,22,238,198,219,54,23,200,71,237,253,240,199,12,252,27,160,196,183,253,37,253,254,11,20,198,232,188,33,34,222,248,61,218,194,245,78,197,233,254,24,237,57,198,42,217,11,229,16,242,45,14,214,49,15,78,44,20,247,250,10,209,42,246,30,9,252,55,249,38,252,21,250,42,246,0,187,6,60,24,199,253,5,2,26,13,44,255,255,190,7,13,250,246,202,225,251,238,247,200,0,0,201,37,239,216,16,241,38,218,25,246,32,214,206,237,37,248,8,37,218,244,196,44,218,13,200,247,1,243,55,5,240,40,217,26,242,217,60,227,11,225,213,173,48,38,230,226,229,41,191,6,60,196,218,236,208,252,24,34,221,11,197,14,233,197,5,41,236,254,21,214,207,246,213,19,235,232,45,26,34,53,251,31,216,191,254,42,50,253,29,251,33,234,71,0,212,0,4,54,245,217,37,34,57,249,21,188,251,221,224,239,194,216,241,232,228,255,229,44,236,47,245,15,184,200,20,241,20,55,4,219,202,190,206,28,2,53,14,23,37,16,156,208,25,223,30,242,214,211,216,245,229,38,241,39,233,185,45,247,185,241,227,216,50,48,236,247,229,26,255,13,244,43,223,215,28,28,217,206,47,41,36,255,23,35,56,226,251,238,252,23,197,218,217,43,216,248,3,21,56,225,203,212,47,199,239,249,243,241,232,226,41,230,2,33,59,18,26,39,190,48,42,240,15,231,15,12,36,253,44,29,226,234,196,46,212,215,216,235,5,24,6,11,20,227,4,46,230,31,228,48,49,249,47,21,34,247,72,54,33,206,223,0,250,18,234,66,254,5,182,6,202,254,49,235,73,6,224,10,49,51,252,225,71,250,247,29,238,223,50,5,30,25,230,237,15,15,17,66,25,37,230,26,56,244,230,239,246,221,244,228,5,87,226,255,237,213,228,27,71,39,229,239,9,247,206,227,243,213,52,17,211,216,252,209,17,224,251,6,5,201,43,222,42,228,45,15,27,217,232,45,246,6,26,56,228,247,70,243,250,245,214,253,13,218,210,27,27,50,48,22,198,31,36,236,60,27,243,234,27,0,59,250,223,38,247,24,13,52,255,228,249,0,4,248,63,224,226,209,204,223,248,39,48,241,45,40,13,59,226,234,6,236,229,35,34,235,18,30,247,226,10,19,248,62,54,245,178,54,0,13,212,233,235,7,47,39,211,1,3,240,198,204,61,239,31,36,240,21,217,242,35,43,15,34,14,240,212,25,229,249,70,212,252,236,42,255,193,239,39,213,255,47,229,41,181,8,22,34,237,46,56,232,43,0,255,246,232,54,36,56,221,42,11,225,252,5,49,52,235,22,31,214,226,8,7,217,250,225,217,188,216,20,223,55,221,231,252,56,239,242,221,2,61,208,238,13,36,242,251,6,45,221,30,199,37,14,12,31,26,32,207,41,219,1,210,176,249,4,205,20,225,232,24,42,23,231,26,213,247,227,18,6,63,23,194,15,0,38,250,237,221,40,235,211,48,204,216,232,232,30,249,233,6,18,4,63,12,55,225,3,22,221,249,222,218,190,10,20,10,251,214,24,252,248,31,232,20,237,18,250,188,244,16,225,211,221,12,211,38,35,243,5,28,248,20,250,35,253,47,12,6,4,213,250,43,18,212,234,228,17,41,36,205,202,19,36,61,37,66,14,222,23,245,201,243,216,235,210,0,228,37,254,41,34,218,185,235,50,15,229,201,234,224,53,252,37,45,255,21,231,4,219,23,203,239,223,229,220,12,227,43,5,214,29,22,44,213,8,9,246,215,28,252,13,213,238,200,66,20,189,49,40,204,19,239,240,12,218,249,220,1,36,247,8,2,233,1,36,21,235,3,15,35,199,222,23,3,216,204,23,20,195,190,231,237,216,26,13,218,206,222,199,253,182,250,223,230,18,36,252,35,54,208,255,2,0,196,10,58,205,9,9,222,229,10,213,45,10,205,219,244,6,218,47,3,25,226,252,8,221,26,221,57,13,218,66,41,1,245,16,242,16,238,5,21,3,221,253,37,235,218,5,27,28,246,242,25,32,233,217,244,214,234,7,23,213,8,252,207,226,58,14,199,52,223,243,24,249,48,227,54,192,7,224,240,241,10,245,196,50,207,232,206,209,30,28,226,30,223,208,242,10,28,238,37,226,248,53,254,63,244,32,29,255,37,223,27,203,9,245,10,50,217,8,216,32,27,75,234,237,252,236,220,208,59,6,246,16,237,211,243,38,241,255,46,214,6,76,203,62,14,17,234,14,224,18,213,252,207,32,226,32,28,236,175,208,255,30,252,239,32,216,247,236,240,34,227,229,50,40,4,22,202,236,254,8,20,243,14,34,46,11,237,227,37,216,210,230,248,201,235,237,209,227,45,237,213,223,211,1,31,239,52,204,40,27,10,237,15,64,4,212,228,229,77,42,31,196,16,29,210,0,249,4,2,197,30,7,233,13,5,232,226,33,50,13,251,10,11,251,21,24,48,219,2,6,11,46,17,14,221,200,239,226,11,248,253,31,2,15,18,244,18,213,14,248,35,38,237,223,216,237,247,0,56,7,36,205,10,43,196,242,232,2,198,4,7,228,231,214,240,52,241,29,234,20,42,210,239,6,16,13,26,47,249,227,49,251,5,43,5,213,215,37,248,16,33,40,250,219,224,2,236,7,11,238,31,0,4,30,22,254,1,37,5,244,254,238,217,10,228,244,193,20,231,249,47,7,39,210,9,191,223,26,235,230,208,246,217,9,20,13,35,16,246,211,234,45,237,37,52,246,236,24,13,225,23,203,27,234,238,204,225,229,36,228,201,233,220,225,237,11,248,26,218,58,42,50,208,228,53,48,216,255,37,80,69,48,50,34,196,52,252,41,99,53,242,215,219,247,15,199,18,55,96,231,68,32,227,3,20,97,59,53,43,207,59,46,229,208,78,14,69,43,254,243,245,208,64,97,78,241,243,253,217,26,69,41,65,32,1,6,252,19,68,49,198,45,66,6,32,47,28,241,214,243,250,49,241,15,31,205,226,19,247,6,71,48,2,240,228,217,14,253,202,64,13,248,35,41,48,27,4,14,231,220,60,207,49,51,8,5,188,246,2,232,28,217,229,24,23,184,249,28,193,232,252,45,68,5,191,209,202,40,32,203,221,253,235,247,213,38,231,21,73,61,23,176,2,253,245,3,9,237,50,65,17,213,6,218,14,244,21,47,215,224,184,221,216,211,41,200,216,209,7,198,196,9,1,213,47,209,23,13,10,167,57,177,72,20,26,9,205,43,183,42,208,3,204,216,21,21,204,39,252,246,227,186,20,20,222,184,164,17,245,70,241,18,44,20,35,174,8,6,186,23,43,32,237,212,192,230,215,240,211,21,38,254,190,208,187,11,37,244,16,228,6,13,238,248,165,225,64,44,57,46,58,151,34,234,246,246,61,251,20,55,198,200,24,74,228,38,229,241,226,178,199,207,230,222,63,60,210,60,141,203,226,222,210,223,0,65,5,204,17,7,25,18,45,26,79,241,150,210,50,32,213,30,249,11,61,0,22,62,23,17,218,28,15,50,161,50,220,220,229,235,8,56,3,46,194,245,40,23,30,28,247,30,236,0,250,87,215,252,233,21,36,217,33,11,244,219,244,57,229,37,238,63,58,2,249,20,48,246,76,209,158,227,244,48,203,60,251,95,225,59,230,50,9,214,49,183,77,31,245,227,41,32,214,211,170,25,25,4,57,222,3,17,38,176,21,239,242,5,10,230,26,63,236,84,236,18,217,252,215,64,36,170,11,10,246,248,248,38,216,212,27,46,243,61,36,228,44,232,246,249,7,8,19,46,26,17,228,226,233,16,38,48,230,204,44,46,16,178,20,50,237,64,25,13,9,211,236,80,35,255,167,237,27,62,248,232,77,32,40,32,25,63,31,63,28,71,255,39,6,21,44,199,225,235,254,253,58,64,12,23,49,38,43,223,40,238,228,200,1,243,208,4,11,31,28,27,238,205,39,240,6,25,255,254,243,51,45,52,14,53,36,72,4,206,16,221,214,236,200,41,233,19,11,202,192,56,249,1,42,222,28,62,255,188,219,22,4,239,46,229,17,248,25,56,57,5,231,28,44,49,250,47,25,254,202,34,35,10,54,25,239,50,9,232,238,211,229,197,21,11,68,211,233,190,254,187,24,254,40,213,29,202,53,217,196,7,59,248,25,247,171,45,41,254,59,25,222,13,54,181,196,23,49,68,43,55,248,13,27,199,252,247,232,64,232,247,232,11,14,232,207,241,246,24,21,14,214,206,2,4,6,209,18,60,225,8,211,6,228,27,32,38,29,42,206,33,188,233,183,31,250,46,69,24,42,13,215,195,42,231,220,59,195,222,9,33,227,68,197,44,69,242,199,159,207,50,25,206,28,2,198,220,245,13,21,46,239,246,66,181,207,218,228,225,33,8,213,225,26,15,233,150,50,250,5,240,241,245,187,227,204,185,230,233,33,234,222,231,216,41,182,7,252,230,212,218,40,185,179,206,221,180,254,60,5,4,215,192,209,84,240,25,43,246,7,249,243,36,17,228,13,53,242,3,173,247,24,21,247,41,206,190,11,249,187,18,0,49,26,50,200,41,209,2,32,17,194,242,211,236,227,15,39,250,19,9,25,247,5,53,233,251,6,36,252,221,34,36,66,211,225,245,4,12,68,214,206,56,1,161,7,243,227,220,213,23,211,215,202,181,27,216,11,225,230,51,13,10,7,248,15,58,247,21,223,195,207,19,167,14,48,217,157,224,51,15,255,41,2,1,217,210,4,246,19,229,12,44,237,56,176,41,234,223,231,33,218,56,26,205,255,239,62,46,247,179,9,8,182,37,242,18,228,37,243,231,193,179,41,7,76,204,18,27,18,36,211,243,31,206,32,43,198,227,254,200,72,64,0,237,41,199,56,45,3,252,246,222,235,243,23,249,248,238,43,242,40,248,203,7,28,0,70,43,67,31,197,42,185,252,193,252,2,75,59,241,38,4,209,33,242,21,7,224,37,243,3,49,64,27,31,222,44,245,255,244,8,65,61,32,248,241,41,235,246,217,52,29,230,25,49,12,233,230,211,199,254,47,227,253,211,250,6,232,21,67,5,27,22,222,240,205,58,208,11,216,250,31,61,40,189,218,231,36,72,58,51,207,16,242,51,242,52,255,226,228,56,226,234,57,206,78,216,42,79,199,37,15,50,216,47,230,221,23,45,228,249,23,44,232,19,82,233,193,232,79,234,55,2,35,230,77,2,31,212,39,45,2,244,35,22,91,13,62,44,226,204,83,241,54,19,25,59,9,5,207,72,21,46,55,205,244,15,0,19,254,98,29,54,4,44,211,221,23,229,70,0,211,8,254,226,214,11,80,59,79,236,53,227,2,254,223,241,250,17,13,233,234,12,56,53,227,47,199,47,211,65,42,47,254,57,29,37,254,37,48,238,235,7,25,54,24,33,38,53,62,0,54,232,1,66,19,231,51,19,38,233,218,1,221,207,199,236,244,251,200,240,213,249,204,37,32,4,42,4,33,190,5,234,246,247,41,253,229,196,12,39,197,189,24,43,30,202,22,214,173,250,8,50,3,251,210,184,238,14,202,227,39,198,229,194,0,187,44,37,228,15,6,37,241,181,11,30,36,185,48,215,10,196,216,192,61,245,20,12,66,247,233,35,27,229,21,33,34,244,64,212,219,207,55,41,229,43,33,254,246,244,194,215,203,223,64,49,241,11,50,241,49,253,29,53,20,250,196,244,14,44,193,193,68,42,54,36,39,181,60,5,227,250,216,56,24,213,233,221,181,235,223,23,38,66,32,195,59,36,229,1,247,214,19,59,230,78,172,43,54,251,14,29,67,199,31,191,252,57,243,24,206,235,209,248,223,11,0,252,44,16,222,186,36,14,252,22,12,243,65,252,170,255,44,52,247,26,244,35,246,202,14,40,229,215,234,8,41,34,172,5,24,10,59,230,53,216,228,242,4,208,1,246,200,21,255,250,168,25,236,41,238,232,206,200,246,221,207,6,11,14,14,197,4,76,245,82,19,242,16,253,55,170,230,238,241,212,60,227,68,197,232,22,231,51,38,17,48,49,10,12,17,236,26,20,200,198,7,188,9,232,85,42,250,203,52,11,37,27,52,32,14,47,253,3,17,241,3,43,0,226,215,65,215,25,45,9,244,17,29,6,20,231,231,197,237,235,246,31,0,43,55,75,0,248,58,30,212,6,23,42,193,10,7,44,90,244,236,192,21,201,203,21,200,240,33,223,208,5,27,5,219,218,18,241,239,229,26,40,245,208,249,43,227,241,30,198,62,22,65,45,45,203,0,2,201,202,207,233,52,31,0,17,68,34,46,222,57,57,18,211,213,201,246,215,60,212,241,244,239,66,232,250,58,203,15,9,72,17,215,12,246,56,215,190,239,3,192,17,44,246,215,202,236,238,56,29,29,190,251,46,13,223,200,29,1,190,209,43,59,240,222,48,35,35,1,214,2,233,214,245,206,211,57,34,45,31,219,30,194,38,210,39,35,39,194,45,34,190,25,55,50,244,244,247,61,46,186,212,226,208,246,42,211,233,248,229,6,9,41,52,248,49,2,248,230,237,197,10,240,209,192,247,240,185,27,221,222,64,84,234,69,233,8,14,209,232,226,26,185,241,61,228,45,3,38,38,58,41,13,77,4,13,229,78,187,231,247,207,47,224,230,215,27,255,53,7,70,221,255,214,236,1,225,52,226,71,52,9,20,194,228,228,239,36,214,217,241,232,18,52,50,224,220,246,236,30,34,198,10,40,23,11,40,70,5,29,168,49,237,77,190,222,61,235,0,230,26,227,5,189,229,227,70,14,149,218,220,34,242,13,0,231,59,241,221,180,225,38,254,1,28,42,158,232,206,250,2,12,245,51,71,220,196,162,237,32,231,71,10,63,209,249,210,243,17,223,54,248,234,193,20,206,251,231,237,232,255,60,180,236,212,21,215,42,199,228,64,217,10,13,24,211,216,204,15,79,155,219,233,184,238,9,208,53,30,185,8,189,38,221,19,201,208,55,177,14,224,81,50,217,247,220,48,242,247,207,208,241,213,30,204,224,178,13,202,27,221,38,244,201,28,237,58,212,224,17,12,0,170,237,0,3,255,9,241,65,18,13,207,33,224,248,27,206,19,218,181,36,214,8,44,231,238,19,225,234,234,19,223,196,53,200,217,253,155,0,252,44,20,200,35,228,216,180,70,215,48,201,220,23,214,58,235,24,255,241,246,38,39,60,207,165,252,4,61,226,237,17,244,222,179,66,42,25,233,18,7,57,208,213,25,17,201,225,219,13,52,12,22,58,49,238,239,221,255,224,248,32,30,82,232,225,27,173,37,205,233,10,79,51,19,231,191,68,31,0,245,20,40,233,25,178,206,211,56,232,230,50,246,205,195,210,227,41,20,241,34,65,240,221,220,201,228,58,66,244,239,20,252,25,197,208,9,27,40,246,187,32,208,236,216,217,46,13,1,251,211,218,252,29,231,218,237,37,43,210,212,206,225,251,2,6,13,245,17,10,20,240,242,52,9,3,47,35,15,222,16,28,53,241,238,196,43,54,252,212,60,220,70,31,37,224,11,235,31,232,56,6,230,247,230,1,30,70,225,12,40,4,235,225,254,215,30,36,250,169,20,219,205,44,34,0,4,217,190,176,228,10,16,251,72,230,7,244,22,190,243,61,233,223,252,202,230,254,8,232,233,45,244,211,232,198,2,177,9,7,244,247,250,145,21,32,218,35,235,0,7,231,246,225,203,236,57,219,223,42,40,15,3,3,252,212,207,240,45,218,13,23,32,47,45,241,3,8,9,233,213,47,71,229,12,2,6,63,51,38,252,22,12,241,214,8,23,245,40,8,3,241,253,253,216,47,18,45,202,45,236,216,188,4,34,65,214,255,213,196,217,235,22,225,10,255,41,233,220,219,19,252,35,33,40,206,253,20,223,4,221,68,225,61,41,209,56,45,21,37,227,241,225,45,232,51,11,43,231,54,67,40,172,5,235,204,245,74,73,219,23,180,45,54,0,250,83,2,74,206,91,212,198,236,206,24,75,65,33,255,28,223,24,40,92,22,59,13,211,6,36,66,242,54,45,12,251,242,204,188,230,33,86,232,38,71,36,55,57,58,2,223,241,2,229,0,2,61,210,36,237,207,71,244,216,48,234,30,199,248,56,52,226,34,31,33,28,50,220,224,65,49,238,60,10,249,58,211,47,23,10,41,42,38,56,213,204,56,52,43,40,252,16,215,231,15,212,88,38,195,26,219,63,17,196,5,1,3,247,43,6,207,48,231,230,58,226,188,203,218,43,19,10,11,74,49,0,228,40,209,242,238,25,25,221,240,28,210,209,29,34,6,74,48,66,21,26,21,215,26,3,62,241,242,196,30,68,31,243,226,77,5,28,13,57,240,34,251,241,25,4,227,1,41,223,51,237,240,35,75,192,1,1,55,52,50,51,7,181,235,13,209,15,207,39,249,210,227,32,219,41,244,254,16,47,211,242,218,205,38,235,237,43,42,238,39,53,9,7,31,43,241,230,175,20,21,221,32,229,10,34,35,173,189,8,222,254,51,14,236,209,12,246,233,224,52,240,239,49,240,181,241,13,251,2,23,217,8,195,165,242,40,240,13,205,51,78,198,199,29,204,49,247,250,204,226,33,175,208,246,254,223,230,54,13,179,19,209,235,229,231,238,41,212,209,153,230,13,11,215,34,41,62,211,190,241,227,167,72,43,221,207,248,171,208,190,244,20,7,215,5,25,221,226,23,232,6,36,212,17,209,225,162,246,248,37,7,251,231,237,27,224,46,242,241,24,246,253,30,200,234,195,211,213,242,41,207,204,237,22,12,62,52,224,220,212,52,192,191,43,211,231,221,10,20,24,42,24,226,173,241,209,24,45,200,62,228,243,198,20,10,3,11,30,217,251,70,189,221,27,250,235,226,19,12,18,174,244,254,53,240,6,233,217,223,31,242,21,252,52,218,246,24,243,61,246,40,233,220,39,252,11,173,3,50,200,41,62,246,223,230,240,241,254,13,24,239,19,17,225,28,8,235,218,198,236,235,33,201,3,42,47,196,48,37,219,64,209,7,42,76,249,38,62,249,49,0,80,8,26,224,247,71,13,51,17,232,244,67,236,214,57,28,226,192,0,243,254,249,12,45,29,22,197,6,253,225,222,52,248,52,31,43,6,240,3,12,254,88,19,35,35,220,24,3,237,18,46,193,74,214,44,248,23,4,36,5,231,239,4,36,63,241,43,44,44,30,221,237,63,63,190,214,38,16,226,72,12,60,64,24,6,217,231,197,42,217,42,215,30,253,17,49,47,71,241,34,223,67,238,4,24,233,249,218,18,11,58,220,235,41,224,18,42,60,40,19,255,224,98,222,235,243,5,63,255,13,6,21,222,54,1,44,254,36,220,253,74,29,230,247,237,221,22,197,199,21,64,252,208,32,25,1,219,226,13,210,52,206,230,213,250,239,38,39,43,31,33,38,253,65,230,247,62,4,26,205,238,206,39,215,46,20,22,240,220,226,70,223,193,209,33,214,188,239,213,44,231,232,22,76,44,221,69,206,51,45,199,250,11,238,224,35,3,229,21,201,212,43,26,210,12,238,210,78,253,6,32,41,206,211,42,29,31,231,38,2,232,217,195,21,202,7,31,211,84,44,247,224,233,243,219,198,10,64,219,200,60,222,225,36,48,244,221,201,53,66,23,218,228,34,44,38,214,198,14,252,224,42,15,221,224,224,225,228,220,255,249,14,240,32,249,66,251,237,233,238,213,18,37,186,211,206,190,206,237,34,199,6,29,11,253,241,207,51,62,221,1,205,241,7,221,248,231,236,2,43,34,43,45,23,208,64,198,51,17,200,17,225,222,62,60,11,73,13,247,202,188,13,240,46,1,219,9,75,218,211,189,246,34,44,213,10,248,2,236,214,16,209,253,14,39,61,202,72,23,8,67,34,1,204,236,203,239,208,191,77,12,248,252,236,59,189,231,14,249,254,224,45,28,232,57,247,79,209,252,233,232,19,73,246,57,22,18,5,244,21,33,64,70,19,191,244,63,20,232,244,242,226,249,221,22,211,224,48,87,220,56,250,235,16,5,223,230,18,1,13,17,1,209,246,254,252,10,228,70,224,45,220,59,203,42,52,228,176,16,252,225,15,16,246,32,75,237,186,220,188,211,17,44,46,34,22,52,189,231,239,58,242,30,26,2,219,50,231,218,66,35,68,244,23,83,61,42,26,4,23,22,14,244,228,247,21,45,52,6,44,36,22,61,59,7,10,30,255,63,53,236,40,222,32,50,50,243,57,27,232,205,223,212,37,221,74,217,255,190,218,45,218,51,3,9,44,245,55,47,3,49,52,202,229,3,211,246,242,242,61,214,214,209,200,206,228,20,58,215,11,198,234,187,196,243,40,224,23,45,60,235,190,39,54,11,245,214,52,0,242,239,213,218,176,247,9,231,50,196,31,38,5,10,81,211,235,1,45,198,205,244,17,37,213,241,207,193,253,213,26,215,221,234,40,255,210,221,252,201,184,5,55,23,229,40,208,193,194,40,226,46,250,49,10,240,238,14,230,30,17,255,254,46,244,221,196,246,2,3,1,255,224,31,163,12,27,60,214,227,227,20,231,200,23,239,5,6,27,38,220,218,169,147,32,29,203,4,18,50,208,33,14,27,13,5,16,30,8,254,231,30,21,75,35,227,232,207,3,211,221,28,13,35,29,187,250,13,1,205,251,41,196,239,232,246,24,37,170,82,249,246,15,204,240,232,235,254,255,241,230,21,49,3,202,232,232,47,8,10,37,238,23,249,247,26,28,230,5,239,201,192,204,232,186,35,247,246,48,235,241,37,8,206,14,188,195,22,34,14,55,232,232,47,203,209,58,15,175,19,239,209,50,37,22,253,200,179,6,4,56,11,229,5,253,31,219,50,233,32,36,25,16,240,4,202,16,224,40,232,205,20,192,10,207,79,44,242,249,248,201,201,28,200,252,229,246,50,244,41,38,202,218,38,12,30,238,82,46,218,214,11,93,52,10,234,224,49,39,19,21,0,34,235,230,55,209,44,30,177,56,239,49,4,231,252,10,26,211,26,60,6,228,28,248,2,209,23,6,219,6,8,25,247,37,228,1,48,241,81,11,225,252,65,213,43,23,241,237,14,227,235,7,29,12,222,48,25,9,238,10,237,35,231,38,218,40,78,85,233,241,21,12,17,48,54,217,16,217,13,218,38,55,229,208,12,200,230,7,236,242,5,232,50,57,54,24,23,255,217,245,250,237,251,231,241,206,28,36,58,251,233,215,29,31,34,208,193,43,36,27,175,243,39,1,2,229,17,62,7,11,42,0,8,69,169,16,9,7,216,191,51,26,19,1,27,9,205,235,248,0,66,24,14,6,57,233,252,29,232,40,19,5,207,31,230,192,16,23,8,7,195,68,40,43,22,7,216,40,39,7,4,57,7,217,219,254,210,243,242,16,248,184,185,227,14,41,244,20,40,43,32,4,65,34,49,230,55,227,226,205,242,247,200,0,2,10,62,1,3,215,179,240,42,221,33,200,230,185,51,211,32,79,15,14,210,64,0,55,33,240,241,54,187,205,67,253,39,255,240,68,254,249,33,235,214,46,39,18,197,235,223,6,5,186,254,8,14,214,37,9,15,230,245,245,207,7,245,239,242,204,215,36,0,4,36,211,209,8,202,242,229,242,246,249,214,205,33,248,47,224,89,19,9,38,31,11,198,15,157,28,253,234,33,39,249,249,247,216,254,63,61,191,40,245,200,210,205,240,33,6,59,11,252,204,213,162,243,39,45,33,28,35,254,11,206,210,66,241,30,59,43,247,224,239,81,35,55,31,246,211,186,60,185,190,247,251,210,27,28,252,237,24,252,28,210,59,227,218,239,38,188,3,21,253,255,9,67,183,190,39,214,247,53,59,14,10,64,214,237,41,214,235,34,42,3,64,222,2,179,201,228,49,38,65,39,28,38,190,25,238,203,12,198,45,36,24,35,249,6,202,70,219,220,199,232,237,17,22,28,233,232,55,248,219,55,234,1,65,214,28,235,194,9,239,3,209,211,235,47,0,44,37,63,41,38,49,252,188,224,232,20,48,1,211,11,213,27,45,44,236,251,48,226,72,206,237,58,202,238,255,40,198,235,45,60,29,186,225,18,253,37,227,41,232,15,39,52,209,25,252,1,225,63,236,233,46,227,252,46,23,211,40,64,214,55,26,15,203,42,206,221,253,33,25,22,30,32,24,199,23,233,58,218,223,242,245,62,186,255,204,210,182,4,83,189,225,244,11,49,239,48,218,219,179,33,4,23,252,50,214,54,18,211,40,233,69,3,251,201,189,66,215,241,6,226,235,252,29,51,245,158,67,200,57,60,196,187,8,22,250,219,210,218,244,14,11,7,231,37,41,0,212,12,7,202,251,9,55,251,228,204,3,9,56,2,228,23,219,57,37,202,19,251,246,11,204,14,211,241,220,228,186,197,48,11,197,224,56,4,8,248,17,161,2,247,53,20,10,196,218,233,224,233,244,247,37,6,250,223,240,67,29,214,236,218,207,24,172,251,56,211,254,220,32,244,228,193,39,241,6,220,219,5,188,219,38,30,212,196,220,59,234,237,46,237,27,7,35,225,237,4,189,65,223,72,33,23,12,227,26,229,31,227,26,41,231,249,63,248,248,209,246,0,12,238,47,42,204,177,0,180,242,232,254,53,0,252,26,1,20,237,22,30,200,211,184,12,225,7,4,229,249,241,230,32,235,207,191,196,251,197,240,30,32,51,6,193,198,229,214,242,8,9,21,223,193,59,253,45,227,20,39,254,50,198,54,38,14,27,34,236,16,222,33,11,229,249,29,3,199,62,31,37,197,12,226,189,14,232,42,53,230,226,227,217,61,236,0,228,4,38,61,11,50,225,1,235,58,11,234,236,195,240,37,237,249,55,225,211,48,13,245,51,206,243,246,46,197,177,219,228,251,211,11,215,27,81,224,248,223,31,67,203,27,71,246,230,35,222,224,2,232,39,250,17,73,231,240,11,13,223,34,232,27,222,46,209,52,219,13,78,73,47,56,5,250,68,237,216,79,79,0,22,4,21,49,50,240,244,53,28,237,49,219,225,22,252,65,46,63,213,172,29,74,62,40,48,34,240,244,18,237,234,62,187,49,61,55,32,220,251,10,211,18,45,230,254,206,215,51,13,254,35,53,219,55,4,224,46,2,51,251,43,3,35,241,65,12,9,13,4,18,28,46,62,13,68,39,33,65,53,213,63,246,31,45,0,237,204,62,225,96,239,222,41,210,2,59,65,205,44,19,219,49,229,219,62,59,20,41,9,34,7,6,58,55,46,15,255,32,209,46,254,4,82,52,221,13,12,202,8,243,235,17,234,216,229,218,19,28,46,52,72,216,218,45,204,251,50,221,38,245,2,25,218,201,244,5,229,58,30,230,16,12,24,235,212,246,222,66,31,214,31,232,216,47,30,221,252,53,49,218,11,34,255,17,240,44,7,51,44,237,27,230,2,53,4,39,243,246,240,253,19,44,3,34,2,216,12,232,189,205,43,2,242,199,1,252,239,222,47,37,59,254,41,43,6,224,208,13,55,229,44,3,201,252,66,48,212,244,62,9,15,185,209,243,226,46,226,208,23,234,55,210,253,44,44,199,33,226,226,38,243,235,229,54,44,26,238,15,197,3,7,3,36,0,65,226,232,4,214,19,32,238,202,47,41,231,183,248,33,54,213,254,195,0,184,2,229,17,254,54,221,246,8,12,41,13,244,2,18,214,192,228,7,176,220,200,92,206,235,45,14,27,186,246,61,24,235,29,60,6,225,2,181,208,21,208,248,30,195,213,15,144,177,201,206,25,44,233,249,239,190,236,253,10,237,35,12,248,21,7,233,215,246,54,2,222,3,189,22,58,61,60,241,247,251,211,243,211,240,6,223,214,208,235,240,2,231,44,222,41,200,8,230,218,248,246,68,221,22,6,36,224,4,43,21,246,42,241,1,62,226,43,193,178,13,251,30,40,242,43,21,232,182,209,245,214,31,0,249,203,25,235,187,214,220,25,205,250,5,6,26,218,76,219,252,235,84,251,20,254,237,222,218,19,54,248,67,244,0,253,18,17,181,233,16,224,197,197,5,22,58,31,41,242,43,23,243,9,4,50,57,239,6,34,6,251,248,68,4,220,244,232,249,226,58,253,242,227,44,39,3,4,0,232,217,16,33,19,29,3,26,55,222,27,27,201,222,234,2,59,220,195,187,185,54,214,14,204,77,245,32,63,9,33,23,8,19,54,25,36,224,22,11,28,232,46,42,35,54,23,241,54,52,45,193,229,225,31,34,17,243,247,193,14,34,210,246,219,17,7,9,51,222,220,24,47,217,242,23,229,0,201,220,10,24,1,41,241,240,216,19,26,241,225,223,253,63,220,21,202,255,23,188,183,31,15,248,229,198,33,207,50,10,87,205,70,201,19,4,63,233,10,248,31,239,50,36,46,254,3,250,229,216,245,195,3,13,212,34,233,18,9,211,201,253,78,49,22,232,22,233,210,46,19,29,46,248,16,252,30,197,223,237,235,57,196,254,229,215,255,227,19,254,211,252,14,44,24,56,53,32,219,36,217,225,7,230,41,226,238,69,229,57,61,181,43,21,255,3,5,57,186,34,67,217,238,59,49,16,47,19,236,52,239,49,229,12,37,34,0,80,238,204,217,55,41,43,34,61,228,203,224,251,28,25,215,6,229,40,48,213,7,60,4,240,254,1,222,21,16,223,223,221,42,231,94,246,51,48,49,226,237,223,253,32,24,254,22,65,20,243,66,20,219,19,69,38,46,14,238,199,224,54,217,35,201,2,207,47,231,10,12,221,250,33,42,214,216,8,234,245,214,61,44,202,211,188,183,237,25,33,6,208,7,216,210,213,237,166,3,203,254,11,15,4,218,225,237,248,214,211,58,67,215,166,25,181,224,222,9,213,1,16,244,13,217,27,34,243,246,210,193,178,9,224,42,216,55,32,230,243,146,53,3,255,204,23,47,62,213,253,58,30,3,246,213,196,23,164,221,39,233,57,255,16,205,224,249,179,14,5,177,198,0,228,49,230,239,210,25,254,24,21,58,204,10,179,228,247,202,27,235,58,27,9,225,23,193,206,68,208,43,28,150,13,250,10,23,225,25,15,1,16,48,51,200,35,252,2,37,225,239,15,223,211,251,12,193,212,249,158,43,232,253,234,69,32,21,45,220,233,216,210,240,35,1,221,207,237,219,80,209,10,54,54,244,215,178,56,20,33,51,0,22,238,243,213,245,61,20,234,232,233,206,17,191,43,60,226,37,186,38,243,245,213,13,31,192,200,54,200,243,228,232,87,63,250,252,5,7,227,7,251,242,220,47,45,201,16,39,61,8,57,69,252,235,17,55,36,235,19,42,26,241,230,255,1,237,62,3,67,231,237,216,239,31,234,55,40,244,50,226,229,251,59,229,43,211,42,227,244,193,254,43,54,64,6,49,35,64,194,4,43,197,235,190,53,34,242,235,170,205,227,46,201,246,49,54,203,39,43,5,243,4,78,34,255,23,200,227,55,248,33,243,237,31,243,18,6,8,202,15,23,253,48,207,197,39,219,14,244,80,47,193,249,40,204,31,21,243,89,14,58,47,240,54,56,222,246,235,46,69,209,13,28,8,231,228,80,57,43,19,255,239,46,21,251,66,56,76,53,1,235,222,73,11,10,212,47,214,35,247,17,37,1,246,28,77,247,35,250,220,227,77,252,47,34,208,192,19,23,245,87,71,35,41,52,8,228,42,36,235,239,38,42,0,255,21,186,254,43,50,21,43,235,149,211,214,11,85,221,16,60,218,184,237,255,220,31,241,219,47,191,42,214,243,39,238,61,60,3,237,231,201,18,68,57,69,11,220,19,88,54,65,52,3,239,202,23,75,242,197,22,70,228,247,33,252,38,224,248,241,19,10,14,244,24,238,244,222,32,31,254,28,27,239,220,19,4,25,78,34,236,17,240,64,28,191,13,208,225,226,179,224,10,48,30,218,15,71,180,46,235,27,199,208,237,242,68,200,232,230,224,18,39,17,225,16,19,11,5,22,238,185,26,195,238,24,198,181,42,85,41,42,240,217,236,15,187,10,30,211,3,36,180,171,218,198,223,59,19,202,32,26,29,221,54,253,49,222,50,215,241,230,255,14,222,62,233,243,68,233,234,154,61,248,195,9,210,54,15,26,244,184,242,45,50,30,245,175,215,203,220,239,229,0,38,215,242,219,184,172,11,207,195,42,212,174,17,205,203,32,230,214,12,234,232,26,245,245,28,175,213,253,53,222,231,170,217,228,10,205,255,3,176,4,15,190,41,27,1,18,5,221,238,220,191,69,49,35,198,10,30,202,177,221,221,27,224,255,46,231,228,224,212,20,238,243,43,45,192,239,227,191,243,53,202,18,227,203,222,28,241,215,239,53,229,239,49,37,193,8,254,26,36,250,226,44,46,47,245,206,0,228,242,32,229,55,234,38,8,223,212,1,234,204,37,3,43,9,251,216,21,217,38,48,253,44,249,230,21,220,2,231,16,245,37,238,52,220,195,249,218,243,233,34,252,23,215,11,51,40,226,250,87,222,247,24,251,45,211,50,183,238,229,203,2,238,50,55,45,20,208,23,8,48,243,47,190,243,59,239,250,189,47,13,51,43,45,225,59,226,219,207,229,50,195,44,216,39,25,1,250,243,189,189,202,18,222,247,33,7,236,26,184,81,0,46,248,91,244,32,194,234,29,40,61,234,252,197,53,19,243,36,240,43,220,40,224,67,22,8,51,46,51,7,247,202,2,190,236,59,207,211,188,238,6,1,219,13,31,222,52,13,237,205,222,44,230,233,42,252,223,61,10,219,196,255,90,19,13,218,6,249,217,244,195,67,34,33,244,192,5,35,222,250,1,215,235,185,204,1,234,214,217,11,214,17,223,15,24,17,25,21,5,58,2,0,67,211,199,29,30,63,1,50,20,45,185,211,252,49,7,61,33,42,54,12,19,1,226,67,246,229,27,234,187,10,254,239,198,41,231,228,16,199,0,44,57,70,46,26,254,9,231,1,236,204,57,32,37,19,53,65,229,55,7,63,246,75,251,11,250,61,47,250,200,42,58,193,210,22,9,44,222,221,26,17,187,234,2,255,209,36,13,27,253,220,71,253,239,15,215,208,239,1,27,6,16,32,238,32,18,222,56,234,9,11,208,206,224,4,227,10,21,241,3,27,37,54,242,43,68,17,228,221,57,231,14,53,23,9,248,14,245,8,32,18,37,254,20,247,12,23,15,228,11,40,53,252,217,15,234,242,17,238,231,3,50,230,227,48,55,7,247,249,232,59,236,237,245,252,27,212,238,251,244,223,15,17,215,46,20,47,26,253,194,223,27,29,223,65,35,225,226,222,28,241,233,14,234,41,228,34,216,219,55,204,24,4,213,233,248,212,226,25,247,2,24,252,190,14,26,18,206,246,238,4,17,232,24,3,4,30,212,231,38,22,202,243,25,200,40,3,14,37,246,197,18,248,228,16,229,21,34,41,39,55,213,4,28,25,234,31,250,0,21,9,206,212,226,27,45,234,198,249,32,23,253,41,4,26,41,12,19,31,211,19,212,203,37,250,27,21,12,24,24,29,223,34,40,225,7,77,20,40,45,231,2,231,47,251,243,9,246,244,15,1,61,235,29,253,218,7,50,48,20,55,50,10,251,229,10,243,10,56,18,40,49,201,48,238,244,247,10,222,218,29,241,253,253,15,221,45,21,22,12,198,9,25,249,208,20,233,55,35,232,248,226,45,2,236,3,231,244,236,5,15,39,15,247,49,19,53,200,249,53,11,26,241,51,32,244,241,9,25,238,47,203,14,39,13,224,2,60,214,202,227,253,210,243,47,247,16,235,5,61,224,18,5,25,204,246,255,19,248,254,247,234,33,198,237,17,7,13,8,18,220,22,36,250,240,5,14,2,38,245,11,209,47,68,27,253,51,221,195,254,72,221,210,254,244,195,11,26,34,83,236,227,34,226,221,203,249,234,248,222,255,12,42,25,40,2,6,248,247,238,37,208,187,48,229,206,248,208,19,233,30,196,40,244,54,243,63,250,234,24,213,29,206,250,22,5,246,232,233,0,40,231,30,254,2,48,22,37,213,23,9,9,250,6,59,252,207,197,253,49,248,28,17,5,251,45,253,248,17,246,227,1,9,14,247,162,226,247,248,73,29,23,11,29,199,14,246,250,15,212,46,34,9,237,249,195,252,1,219,24,34,35,171,20,251,45,227,233,211,242,217,234,241,18,12,32,228,8,37,214,14,42,194,41,28,19,189,47,1,43,34,221,13,35,22,2,208,215,231,250,5,233,230,2,28,248,32,0,51,13,255,248,255,16,214,229,251,255,221,14,238,255,22,36,4,225,21,240,232,226,233,242,250,33,32,5,231,2,239,205,231,245,28,6,41,9,27,22,36,241,57,25,2,23,10,220,35,22,40,31,51,234,33,245,5,47,223,220,51,196,234,56,249,45,254,251,213,16,244,240,37,37,6,213,224,203,227,30,22,35,36,2,8,14,21,210,234,57,21,252,50,39,23,4,213,226,41,37,250,18,32,241,212,218,245,69,27,240,214,35,38,198,252,30,254,248,50,19,6,34,1,44,216,74,4,28,29,37,17,224,14,43,73,222,237,254,48,239,230,54,228,2,244,51,52,21,17,40,231,249,228,253,239,8,12,231,226,14,84,248,40,41,210,63,225,2,227,6,209,216,7,198,213,19,233,231,245,252,200,250,6,236,226,27,27,24,22,223,58,220,224,237,24,235,52,12,244,37,255,20,231,43,217,51,57,210,241,239,34,252,252,1,45,49,204,4,228,203,223,40,241,208,60,229,25,13,230,251,39,20,234,75,223,77,246,241,56,1,53,1,13,19,51,238,253,14,24,18,31,234,216,10,222,19,247,3,28,241,240,2,240,232,225,55,222,243,208,238,218,249,39,4,26,237,245,233,46,214,67,213,210,220,225,202,40,248,243,235,213,23,12,218,212,245,253,239,38,23,4,75,210,220,213,40,35,33,20,245,246,58,241,191,221,240,35,0,31,233,225,8,16,52,22,240,21,38,6,63,21,38,35,8,253,11,206,3,238,225,18,199,1,9,5,2,231,249,33,204,16,215,242,12,230,219,224,232,228,239,10,236,203,4,25,231,28,9,214,253,254,20,13,26,216,218,245,211,249,244,240,14,50,10,232,42,248,34,246,13,249,33,12,243,243,178,235,216,240,21,227,31,6,236,190,43,218,218,22,235,224,49,205,19,207,230,10,233,62,253,11,252,196,240,15,242,186,11,49,26,217,193,43,253,13,26,233,0,217,254,35,217,246,220,223,236,26,227,3,236,245,248,228,225,214,246,229,234,52,51,10,8,238,233,228,230,222,210,197,17,216,62,252,227,209,251,40,231,227,250,241,7,36,210,240,19,33,255,10,236,72,11,207,238,238,249,17,218,252,0,38,250,214,199,245,16,37,31,245,0,31,23,208,214,18,3,242,41,38,15,23,33,228,215,0,1,65,20,222,27,34,24,19,238,209,61,54,10,196,37,45,10,203,25,235,250,231,16,20,70,240,255,68,255,16,216,251,53,213,239,14,34,33,48,52,209,44,43,49,232,11,224,0,49,43,240,56,18,250,66,246,242,232,7,0,76,226,23,27,209,17,236,4,51,52,11,205,17,12,200,224,229,251,252,54,250,251,35,247,5,40,245,61,228,24,233,8,58,42,234,242,5,2,21,10,0,200,216,0,19,6,195,215,192,39,241,242,190,5,216,203,237,223,20,22,226,51,253,14,206,211,241,254,27,207,19,223,25,243,219,227,28,61,252,249,180,32,11,22,215,231,217,50,39,32,212,22,230,27,44,208,244,192,179,28,28,248,3,195,212,47,34,181,26,3,213,201,244,14,212,1,221,254,45,239,4,218,27,224,9,251,233,25,21,29,39,220,237,198,219,255,5,32,210,247,214,57,33,204,28,213,226,222,74,244,250,243,247,207,194,36,221,2,194,243,216,29,229,223,214,211,206,199,57,184,40,39,3,253,209,237,35,12,232,229,52,199,248,199,67,203,48,199,219,29,9,75,180,11,38,21,6,11,234,25,181,80,233,20,243,228,46,55,20,4,222,12,9,223,72,237,244,79,251,187,196,22,40,36,2,254,65,214,12,211,211,55,4,78,254,232,36,215,27,212,52,252,23,247,53,238,7,7,243,30,58,45,244,44,62,34,55,24,210,48,7,45,187,10,208,45,20,52,254,33,33,28,38,49,31,17,53,16,13,201,31,48,181,224,200,212,8,8,4,44,251,9,14,220,0,211,70,205,41,13,48,23,34,216,253,70,188,20,230,223,189,234,235,3,65,11,7,40,233,44,4,55,18,62,1,44,21,82,26,36,64,50,87,185,225,55,38,41,210,4,204,49,251,46,234,9,41,243,39,31,233,234,57,19,252,0,199,234,233,87,24,19,61,207,63,218,68,62,235,73,249,40,228,63,245,56,209,5,67,22,232,25,221,220,21,70,214,25,53,11,6,41,238,12,11,16,80,36,61,56,46,188,36,32,185,0,231,197,62,9,1,219,63,212,52,37,54,248,246,208,13,82,13,31,210,234,245,50,56,7,14,1,46,9,198,18,21,34,229,252,222,30,229,54,19,216,31,236,245,233,75,33,11,226,25,8,228,253,232,41,193,247,250,197,7,237,21,5,27,30,35,56,229,1,222,241,28,46,32,252,30,203,216,19,255,212,216,6,14,16,209,36,43,7,255,234,14,250,42,44,27,34,53,18,247,199,25,61,231,33,233,60,240,22,238,246,221,238,34,205,202,203,238,213,233,233,55,23,200,214,207,177,32,214,5,187,242,25,22,19,18,213,20,235,215,227,68,4,196,185,224,48,35,214,219,58,27,31,249,206,238,50,16,196,52,47,223,36,204,227,3,218,5,254,7,186,226,186,80,68,12,64,248,227,2,207,58,247,230,0,201,231,226,228,190,178,38,70,254,221,56,39,24,193,1,38,214,199,203,40,226,247,160,17,198,36,190,244,39,197,40,183,45,45,11,37,224,22,45,9,218,245,9,252,35,12,50,42,11,195,9,207,23,234,7,243,23,191,228,3,39,87,25,3,56,220,251,180,201,251,30,26,204,182,27,50,226,31,250,12,255,22,4,48,219,253,236,0,207,15,251,218,7,16,234,44,4,51,9,25,212,219,228,8,223,4,208,17,222,197,10,240,227,235,210,26,181,34,211,14,68,197,2,214,3,210,12,30,243,27,29,251,193,25,213,194,250,228,73,246,212,39,247,5,6,209,247,55,222,229,233,31,176,67,18,185,216,254,55,30,23,205,43,12,203,59,37,206,244,20,196,217,40,36,251,247,233,220,12,35,63,47,38,55,202,0,204,41,243,34,201,191,206,27,250,242,173,32,2,208,241,215,222,193,11,11,49,202,26,1,232,28,35,244,243,245,10,5,31,38,223,241,240,222,41,247,233,240,221,36,56,235,244,223,0,193,37,211,41,220,196,220,191,32,227,209,208,232,58,191,31,47,4,28,21,241,80,37,196,5,48,54,189,5,205,21,46,31,0,42,51,255,34,242,20,25,24,27,215,198,233,14,27,19,218,227,241,21,52,33,232,24,59,221,30,223,21,218,34,12,9,36,17,223,44,219,190,249,44,244,57,221,249,24,210,192,53,193,42,230,42,8,193,183,34,209,241,244,67,16,190,42,242,33,248,52,207,44,241,37,14,233,217,211,233,48,0,25,38,72,208,10,56,233,2,220,227,195,91,56,216,10,10,201,246,16,233,14,193,208,6,38,31,0,43,18,60,24,24,197,59,55,222,208,34,36,40,57,45,41,201,243,4,46,25,40,249,26,217,13,245,224,39,66,8,30,9,45,243,250,44,205,6,48,54,185,29,46,55,16,211,56,225,236,221,25,34,213,46,21,226,8,39,243,238,235,227,181,247,234,237,48,47,254,219,182,29,186,240,50,248,203,203,208,5,23,201,2,238,54,30,205,26,197,163,206,253,248,28,203,204,184,179,221,231,21,10,65,228,227,215,247,13,208,227,0,40,57,214,13,3,172,20,17,249,234,250,231,215,234,179,8,211,224,236,55,216,237,206,9,246,27,62,39,62,228,223,228,27,28,20,212,24,231,24,180,43,236,246,74,253,219,39,172,213,59,32,6,15,3,238,51,12,252,34,195,31,27,51,54,235,187,179,220,228,53,33,13,231,197,253,7,246,60,227,215,21,232,208,175,230,43,185,242,18,22,36,51,218,31,237,222,194,4,221,49,12,2,6,55,6,1,240,10,32,15,190,236,12,41,54,17,213,202,43,219,245,29,182,195,49,38,54,23,56,235,20,9,254,183,233,7,43,223,50,254,20,232,194,243,237,201,19,254,229,253,231,50,247,214,42,7,3,3,225,12,67,17,38,47,53,25,65,244,34,221,11,36,239,28,225,237,246,53,33,239,231,249,11,225,17,202,56,195,222,0,30,244,244,92,224,235,51,58,39,203,42,224,244,197,240,8,24,28,204,236,48,58,24,22,206,44,213,25,36,82,5,247,60,237,59,208,225,42,1,65,220,9,52,55,50,222,243,82,105,235,195,244,196,14,55,222,218,41,54,226,248,202,26,24,15,42,236,223,231,57,31,209,228,14,242,51,20,213,222,198,226,44,183,202,61,201,31,36,54,43,37,34,13,38,64,251,40,246,253,202,33,20,54,21,254,24,40,245,207,70,30,22,224,237,27,36,46,16,65,66,236,41,12,205,216,233,56,225,31,29,229,35,206,234,249,28,55,81,237,55,248,222,48,222,37,77,67,227,20,28,252,27,34,254,52,242,220,252,244,32,236,49,29,74,244,209,249,24,254,233,13,28,233,8,248,226,253,15,232,246,10,237,238,18,68,37,70,243,230,254,55,65,44,232,15,255,213,32,9,18,51,231,32,204,236,37,22,245,88,245,255,238,6,11,232,31,51,44,44,246,55,211,19,35,236,33,236,254,18,14,0,246,55,247,58,244,243,253,47,209,239,223,24,32,12,254,248,224,241,19,20,221,37,239,61,189,11,22,224,231,227,72,58,233,193,228,255,249,34,30,25,48,2,187,25,190,247,32,241,51,13,4,205,206,255,74,56,249,46,226,39,221,205,21,238,254,21,66,64,45,187,239,55,96,197,57,223,238,215,191,6,32,51,53,56,219,38,218,207,9,247,217,39,200,248,241,224,210,16,55,66,219,251,236,1,19,33,207,26,39,46,21,44,31,0,8,182,17,19,207,235,235,62,183,219,200,230,245,47,42,222,55,219,252,249,16,234,196,17,206,60,191,4,251,24,224,33,207,220,58,51,6,198,212,215,64,246,45,232,237,236,59,49,235,0,18,41,250,7,183,208,235,7,60,221,0,10,240,56,240,16,16,25,199,46,210,255,193,255,227,17,62,196,60,238,30,220,38,12,201,232,239,6,244,250,25,254,40,34,58,253,53,214,9,254,38,198,216,26,16,225,251,30,23,217,18,250,245,26,63,14,241,25,202,19,9,201,51,18,36,40,249,165,242,195,228,228,51,231,30,60,233,55,214,253,254,30,212,12,4,23,225,41,245,32,18,20,217,20,14,202,206,7,8,217,0,238,44,8,67,29,48,248,234,248,194,25,247,251,4,251,254,29,15,37,210,232,8,48,240,45,212,39,48,18,223,45,48,225,193,33,38,219,229,17,252,53,209,47,56,59,207,66,230,37,41,4,203,0,219,243,76,2,240,249,211,223,47,22,230,76,240,250,19,252,48,68,233,220,74,235,224,179,209,52,208,12,29,250,217,177,249,12,232,54,212,213,236,19,254,208,68,194,238,224,204,254,25,6,205,240,209,220,211,52,3,30,41,38,54,13,244,32,234,54,251,14,55,3,223,245,232,31,247,235,20,61,10,54,212,18,236,49,37,209,240,211,234,52,229,22,228,60,45,235,48,245,250,211,44,12,60,43,249,35,248,15,235,43,200,251,25,19,208,5,64,217,45,11,66,250,38,50,18,200,239,70,250,56,246,70,53,255,31,0,10,0,48,219,231,240,42,67,216,26,51,4,222,216,207,251,217,228,216,24,21,29,191,10,35,229,49,16,48,223,232,248,60,56,66,255,27,11,221,15,219,30,44,22,231,245,60,26,248,17,53,49,14,3,65,29,32,7,222,239,233,39,239,249,20,36,237,5,50,51,29,190,16,20,252,246,12,207,66,203,26,233,241,184,205,32,11,246,236,226,22,217,227,230,227,245,40,24,20,227,6,53,223,0,36,33,65,67,210,17,238,197,14,59,34,10,59,221,202,237,36,215,235,47,223,45,245,247,26,203,250,204,242,36,194,2,55,3,4,201,216,26,38,231,33,41,45,215,42,46,190,235,208,208,31,26,60,212,12,20,3,24,2,53,75,45,225,202,1,52,47,253,244,237,22,242,24,188,60,67,12,68,30,221,4,16,5,230,9,19,7,221,27,5,200,241,0,229,24,74,247,31,41,251,250,228,221,224,26,33,248,241,27,22,249,34,205,59,4,236,237,28,41,8,213,225,26,224,250,250,237,223,34,42,42,247,246,0,61,238,225,7,22,62,41,48,207,254,22,216,7,29,195,26,222,225,239,224,22,41,16,43,23,45,30,228,249,38,54,59,252,44,32,227,30,12,239,30,216,208,209,13,204,7,232,16,20,200,248,242,198,22,28,52,21,47,18,21,187,234,14,13,42,3,64,13,226,227,213,220,248,242,27,18,29,8,228,170,66,12,42,223,252,33,25,217,27,9,14,243,225,206,211,232,11,218,242,236,38,215,241,49,16,226,1,249,48,192,246,204,202,0,23,248,210,25,238,235,207,236,35,39,251,37,44,212,58,15,220,24,236,54,219,228,5,50,38,45,231,192,38,10,48,207,4,251,248,241,236,6,244,11,26,249,192,230,62,37,225,244,23,222,211,0,254,242,36,0,215,219,13,204,251,247,29,26,71,242,19,11,218,40,22,70,9,253,247,43,237,222,225,25,232,224,12,0,227,236,234,252,7,225,208,209,235,239,253,29,46,226,11,249,36,228,54,4,214,67,204,50,253,56,1,25,46,239,21,228,24,36,250,197,251,48,44,245,241,2,220,8,13,247,208,206,229,180,20,215,31,34,232,217,34,254,192,10,209,20,227,245,195,23,22,6,25,190,219,255,17,204,248,197,39,229,243,250,40,233,228,39,46,194,62,58,27,17,236,46,218,32,23,11,45,12,28,44,238,205,199,33,14,56,228,245,17,250,18,47,59,254,29,7,45,0,34,231,27,242,240,240,234,20,232,204,18,207,26,13,19,199,220,232,17,210,17,241,36,58,3,73,251,248,28,43,35,23,34,231,17,227,219,236,250,1,217,79,223,220,14,225,216,5,6,191,235,215,249,15,213,37,248,22,220,40,219,14,33,255,50,10,1,233,216,206,19,216,213,22,49,243,208,72,27,230,232,233,40,0,227,15,235,195,242,214,24,11,233,254,38,9,187,245,246,235,208,243,212,30,237,58,241,249,204,206,229,14,210,247,223,7,2,19,28,253,32,25,53,34,255,248,45,207,248,215,231,201,36,20,6,43,216,48,224,243,29,221,219,22,255,221,237,16,49,214,205,11,209,42,239,14,232,239,25,37,233,6,4,243,199,187,212,29,253,210,242,214,52,19,238,213,58,24,36,40,40,47,6,191,29,235,247,54,47,20,23,234,246,49,14,210,11,196,246,248,37,6,212,220,214,1,44,3,21,212,216,244,240,225,2,2,208,11,34,36,34,224,2,214,45,22,23,13,49,34,238,19,23,22,24,228,1,252,33,221,11,243,15,202,12,19,6,41,41,217,2,238,19,232,16,27,41,197,248,54,255,239,18,207,83,225,198,241,243,253,254,15,8,251,220,198,201,188,11,31,251,245,6,202,9,49,214,244,233,34,45,66,199,246,233,217,49,30,243,254,65,244,250,232,32,9,227,40,47,13,236,163,44,196,231,217,225,66,247,217,200,233,171,205,61,16,231,232,215,207,7,244,212,239,39,253,46,64,13,228,207,249,223,29,45,17,47,226,50,193,221,216,22,6,31,249,200,246,20,66,46,14,210,227,247,176,245,6,21,26,47,23,240,13,19,64,28,2,60,33,16,215,254,236,63,14,3,20,239,201,209,3,250,69,10,229,8,214,225,209,248,206,91,11,41,13,255,250,248,75,225,3,5,36,36,232,201,26,246,209,237,247,216,208,245,223,209,206,200,215,37,11,221,60,212,249,62,46,80,247,32,219,26,7,177,62,206,12,232,1,20,47,216,193,0,248,255,17,20,242,55,227,255,35,225,26,55,11,230,52,233,222,40,217,10,24,235,213,57,5,205,32,63,249,30,49,41,206,202,217,41,16,236,244,39,31,220,217,211,10,238,35,36,28,243,251,26,44,18,206,206,192,29,204,14,7,43,58,1,30,20,1,30,208,30,206,206,220,28,13,238,230,216,200,60,210,73,255,206,17,25,57,228,233,36,211,250,14,217,28,211,254,226,20,229,5,249,230,40,193,33,5,21,2,201,13,20,10,230,24,200,18,251,31,232,225,16,35,244,211,63,45,20,231,234,11,218,26,231,38,234,231,215,5,252,221,220,47,225,212,16,242,10,219,40,14,227,238,15,7,20,253,48,254,232,12,205,248,47,3,236,56,11,196,3,247,199,39,16,186,213,60,42,1,212,43,237,212,77,9,236,236,50,211,204,234,60,247,1,42,2,210,241,239,176,8,203,11,35,1,6,53,228,5,14,44,47,45,3,230,179,192,227,20,35,249,12,226,17,0,212,174,26,181,7,243,27,15,193,220,7,229,245,237,29,10,230,150,209,228,186,201,3,42,9,30,1,183,198,218,254,191,204,36,188,0,222,198,185,4,210,4,201,6,242,201,21,58,7,236,210,226,240,239,46,228,21,232,202,226,12,255,213,250,227,42,33,255,8,27,215,187,57,221,251,165,25,53,69,238,185,228,174,21,250,18,227,193,32,197,36,252,48,13,18,19,213,249,219,235,251,214,32,254,2,16,238,202,212,11,4,212,239,18,200,238,252,238,14,254,50,236,200,42,244,32,77,213,28,3,253,8,231,187,12,209,23,47,211,39,48,201,31,10,40,229,226,239,250,247,19,202,244,58,217,203,20,46,231,247,243,224,235,15,33,51,252,217,232,212,46,93,194,219,248,3,242,37,209,72,37,206,8,255,238,227,233,50,247,94,204,72,217,55,4,197,8,248,81,204,22,192,255,13,31,195,78,33,232,253,33,187,7,22,24,42,93,210,238,4,207,206,226,232,231,8,182,212,43,251,20,11,225,218,241,15,221,13,248,187,21,176,97,5,204,78,220,207,26,236,220,7,94,199,249,248,211,219,39,28,1,113,221,253,26,254,253,42,37,29,54,238,232,217,254,245,61,214,46,236,28,53,246,213,46,240,207,250,246,235,223,232,225,36,231,209,50,97,11,205,205,230,220,57,233,5,253,228,2,192,17,25,8,6,243,53,62,239,250,249,234,240,4,249,14,86,213,63,235,37,61,228,7,54,242,255,213,7,195,35,239,67,5,9,222,21,199,208,254,5,29,19,54,51,214,35,241,55,58,38,220,224,227,235,44,35,246,28,72,13,235,18,253,8,53,211,14,1,30,61,199,232,16,250,248,39,219,224,36,16,204,36,218,241,237,15,180,233,24,64,65,192,8,11,6,13,225,240,235,12,13,56,24,239,187,245,213,25,201,192,248,10,41,14,194,241,29,2,198,210,44,9,21,54,55,199,209,10,226,223,241,185,211,234,20,4,11,62,80,29,211,34,209,255,252,10,222,9,15,13,5,236,23,233,225,67,246,235,249,247,249,42,216,255,245,2,215,173,231,255,208,27,3,239,49,42,174,68,200,199,180,198,21,41,251,221,218,233,43,224,28,229,6,42,229,180,235,7,15,208,242,75,211,254,197,249,16,226,225,18,235,239,235,184,233,19,39,54,30,6,4,213,249,68,236,5,203,59,2,207,17,243,10,53,238,33,27,70,231,210,6,11,55,218,226,205,231,10,218,195,10,13,235,4,6,221,208,28,230,55,23,60,205,208,232,228,11,252,68,62,243,42,46,21,226,43,252,0,72,48,3,209,227,19,196,220,39,193,29,212,40,82,228,197,18,18,158,220,50,210,41,14,5,189,49,87,248,57,15,251,212,39,187,209,34,249,231,25,35,210,38,222,245,210,239,221,29,13,225,44,192,241,177,68,229,218,17,246,205,246,61,201,222,251,23,232,192,2,15,3,235,229,198,233,10,194,11,202,43,3,35,192,16,242,196,27,159,28,68,63,42,31,241,189,77,206,242,62,1,25,213,236,232,58,24,61,15,26,177,36,42,5,63,188,19,75,68,31,6,5,211,45,223,22,242,33,4,215,40,238,77,243,47,87,254,41,249,217,229,72,196,234,239,61,197,220,5,48,37,205,255,48,43,223,18,218,208,81,199,210,251,73,33,204,199,62,31,236,255,219,21,250,246,38,237,226,36,243,30,2,224,10,63,245,16,30,224,8,209,18,54,254,252,50,15,23,14,86,37,25,14,210,248,24,3,3,3,19,225,61,27,65,232,255,6,228,254,65,247,20,20,25,52,31,59,251,227,5,31,217,32,54,19,48,56,13,65,255,55,17,58,10,69,252,245,41,5,38,202,224,219,210,18,11,20,72,15,45,226,59,235,206,230,22,27,9,56,17,75,32,240,233,16,50,226,26,7,218,67,229,248,249,0,27,232,232,190,62,249,221,24,200,20,222,202,192,39,203,49,6,240,242,14,255,39,213,210,251,214,37,26,241,211,213,236,40,251,242,67,33,83,215,26,37,232,218,41,234,22,24,14,17,201,1,194,44,67,49,243,232,199,255,2,9,218,251,42,231,18,208,242,6,201,212,235,21,39,210,56,50,42,249,223,244,225,246,201,6,221,250,255,213,242,246,221,15,210,36,62,43,48,224,233,193,10,27,48,2,243,11,254,4,212,253,214,43,43,14,204,203,203,35,17,29,216,27,230,31,34,28,238,244,29,55,222,206,254,8,14,8,214,27,223,28,234,50,49,217,65,219,67,8,29,41,24,208,64,33,244,31,237,11,237,47,245,52,250,245,247,5,3,14,215,227,226,237,236,9,199,248,255,253,2,37,12,29,12,250,225,203,7,233,235,248,23,33,249,255,26,22,225,233,232,1,4,207,236,242,203,17,28,28,236,237,36,30,247,231,236,242,12,26,10,206,22,28,248,252,43,26,23,12,219,39,220,254,17,223,248,234,2,2,8,27,214,243,14,29,214,244,8,236,216,214,242,36,20,19,237,24,237,227,26,38,1,6,27,16,28,202,224,4,47,214,13,246,10,231,223,242,230,238,37,229,247,7,225,43,6,251,14,226,23,249,13,211,221,18,249,4,231,244,19,24,226,245,11,59,221,240,248,27,255,46,213,222,234,226,16,242,24,229,13,231,214,248,252,199,7,5,9,42,6,249,230,2,234,23,248,16,254,30,255,234,16,10,23,52,242,34,218,38,16,210,252,246,0,242,17,207,32,216,210,21,2,0,238,236,27,13,241,239,211,21,243,247,41,221,35,254,252,236,17,20,226,223,228,204,219,24,224,243,226,243,233,209,222,235,19,222,239,247,18,25,247,28,244,235,19,18,254,242,12,29,203,237,203,220,35,14,227,39,255,26,255,235,17,26,6,252,222,202,226,211,252,206,247,241,244,30,26,208,228,196,20,223,4,227,198,35,194,29,7,223,14,18,252,22,12,207,250,245,228,237,20,9,2,225,0,230,203,239,227,231,248,202,215,248,209,19,224,237,20,239,15,223,199,255,201,225,240,24,9,218,214,246,220,193,9,246,252,25,6,232,222,42,202,200,19,231,13,218,225,236,27,240,18,29,241,16,19,243,243,2,185,31,6,253,22,244,255,209,3,7,237,249,254,239,244,227,16,225,186,226,20,247,33,12,3,19,25,188,15,250,238,250,39,39,0,237,194,20,16,241,254,12,248,235,19,182,237,237,252,16,11,231,10,6,236,24,246,243,0,12,11,13,222,254,253,248,36,245,2,226,243,232,200,15,233,33,3,209,11,225,252,209,199,20,30,253,219,2,41,234,253,29,30,6,10,245,212,213,231,10,251,226,252,8,0,222,233,231,240,201,254,16,28,37,11,225,218,252,7,230,16,22,1,206,25,220,207,43,11,251,251,212,219,16,249,10,213,0,24,3,4,208,249,8,215,28,28,25,1,14,201,3,243,222,42,31,251,3,15,235,238,14,0,18,5,249,13,225,213,12,244,9,43,22,242,244,228,238,204,246,8,255,2,18,223,226,213,196,4,36,22,8,16,223,228,12,5,242,225,4,23,231,211,229,222,219,250,28,224,252,3,254,243,236,29,30,17,247,241,242,19,220,219,234,251,241,222,17,8,239,8,200,246,49,45,248,11,36,8,4,34,216,13,35,60,6,223,15,10,231,223,214,252,229,249,225,228,13,33,27,36,223,224,13,14,15,244,221,35,246,17,47,19,17,228,23,220,218,251,48,45,244,20,252,1,251,31,28,244,14,50,250,239,241,16,248,30,20,16,36,239,25,30,245,250,33,229,228,23,23,250,21,10,221,2,248,250,24,253,5,237,25,223,25,9,9,232,17,30,217,13,242,26,232,243,23,245,20,219,211,42,17,58,36,1,13,236,214,10,19,234,10,249,23,246,230,8,232,4,212,224,251,46,241,5,243,16,200,200,235,237,16,3,21,234,30,10,247,31,227,16,249,12,242,26,234,249,204,28,47,31,239,34,0,26,251,221,49,15,8,9,44,237,209,222,12,11,51,254,9,238,3,222,252,14,226,3,43,18,214,241,248,11,239,31,20,32,7,207,220,232,241,211,34,242,21,239,236,206,33,213,202,7,226,251,238,5,240,22,243,191,52,236,31,20,236,40,2,229,22,225,243,247,221,18,238,218,230,22,39,232,38,244,223,26,1,255,240,207,43,254,246,250,232,205,250,231,6,18,232,247,212,215,252,229,251,47,21,26,23,15,203,33,228,4,242,249,226,15,0,232,232,225,249,229,220,223,13,15,224,207,52,26,194,233,20,251,4,230,221,225,225,212,215,229,21,242,214,213,24,216,30,17,16,11,223,237,8,241,3,209,224,15,9,222,231,31,15,238,204,6,17,34,243,35,41,18,33,195,10,251,239,240,18,25,227,5,213,233,251,2,237,228,226,237,206,248,249,15,251,5,239,33,226,213,32,206,26,240,232,225,233,18,253,211,24,14,27,221,255,28,251,9,239,229,31,234,19,247,11,229,212,32,0,242,17,27,215,255,7,208,234,18,243,228,37,213,223,27,233,16,16,38,251,41,228,41,25,250,238,231,21,254,217,227,245,250,211,244,7,253,225,16,219,14,17,1,27,4,7,248,203,30,205,3,17,231,2,23,225,24,214,7,23,214,238,20,21,214,229,41,232,245,19,34,242,2,232,222,237,211,223,2,7,246,34,33,222,224,38,22,254,231,216,18,240,22,203,227,197,41,202,218,11,17,43,233,0,196,220,217,210,212,43,57,220,198,228,207,184,205,245,230,201,38,46,14,20,243,244,231,209,20,206,54,1,202,185,185,213,233,243,231,11,3,255,222,236,239,194,3,0,10,194,221,228,212,238,254,240,20,197,22,22,195,41,212,55,210,199,232,192,231,231,172,240,220,220,52,43,213,232,11,226,16,29,37,48,205,255,0,39,255,54,22,34,234,49,182,174,22,185,191,215,255,56,207,57,3,28,32,233,36,29,204,15,196,12,225,161,249,247,20,243,242,247,183,224,254,254,245,233,23,7,7,239,238,226,213,194,249,196,20,11,18,238,48,22,85,2,14,230,47,232,239,31,211,194,246,249,65,243,245,64,16,211,244,218,255,35,56,18,0,240,63,237,210,219,219,44,245,64,48,245,64,34,16,227,248,244,249,28,48,193,208,37,245,230,238,56,249,96,53,214,247,224,202,246,248,251,59,12,48,0,238,19,33,68,242,0,22,199,45,248,49,77,3,6,8,14,245,39,206,237,12,64,221,5,63,43,235,236,23,81,31,238,248,206,3,43,43,55,241,44,250,233,238,232,251,242,39,74,8,11,195,222,234,14,45,18,4,9,231,68,185,61,217,250,254,76,49,230,230,202,222,208,246,43,53,85,73,9,232,17,214,218,10,48,67,15,12,17,249,241,209,230,10,6,64,23,27,51,246,71,227,8,243,26,4,75,36,203,247,54,36,34,233,229,5,206,5,221,239,3,58,52,32,239,60,30,9,28,87,83,88,212,28,9,1,220,245,48,0,28,15,31,46,213,56,210,39,244,63,210,250,212,216,28,246,241,47,22,1,49,229,250,52,44,3,217,230,7,241,66,252,254,86,252,186,216,176,25,8,32,6,22,2,48,16,242,201,29,223,246,27,48,193,34,31,15,37,20,71,246,217,239,27,232,241,8,6,238,33,225,214,18,208,247,222,225,36,19,10,229,56,195,10,31,1,236,27,232,225,44,254,38,235,2,214,4,38,33,36,2,46,15,236,236,48,183,196,91,189,189,21,10,48,81,190,221,168,33,243,48,17,197,17,216,174,207,23,243,8,45,213,27,189,243,41,212,227,207,31,246,76,13,181,6,218,205,39,46,37,52,210,202,194,232,51,8,52,1,247,234,203,213,58,24,32,246,241,30,30,249,7,2,237,253,200,7,61,214,27,215,209,8,237,225,31,8,209,10,250,207,227,61,252,31,236,30,32,177,196,8,6,47,254,234,195,175,178,208,255,55,215,36,6,208,27,4,1,18,34,210,33,52,202,13,219,16,63,249,58,23,39,194,230,211,75,209,199,242,241,47,10,185,233,242,230,243,13,52,36,222,233,17,249,246,194,206,249,4,238,179,35,89,12,241,192,226,81,10,187,12,25,43,240,41,219,63,214,15,27,56,210,36,234,245,21,201,202,13,255,91,230,30,1,3,232,194,251,222,25,243,2,219,244,233,236,214,3,16,227,26,4,209,20,18,237,54,235,50,230,241,214,6,208,249,43,186,40,38,251,241,37,230,253,214,198,237,233,10,223,1,254,252,24,199,230,34,34,31,1,15,254,13,59,13,240,241,44,220,4,246,30,56,221,186,22,35,20,24,255,227,198,77,233,200,11,32,215,52,16,244,34,1,53,218,2,24,45,4,252,226,254,46,243,32,10,205,225,242,245,18,42,229,42,243,24,249,230,231,14,23,6,5,31,60,210,0,18,206,18,23,59,2,25,231,53,234,229,24,58,70,17,242,59,28,233,39,9,53,8,216,40,27,205,62,232,20,18,76,54,244,221,38,52,218,244,54,231,59,31,232,239,20,236,229,40,231,72,10,241,23,20,62,214,219,222,34,46,197,184,6,218,52,27,36,78,244,215,13,216,250,218,39,58,225,32,210,214,227,235,1,23,42,63,230,27,238,49,244,198,18,18,209,18,227,220,35,191,250,219,22,48,49,228,58,220,206,226,213,242,9,60,239,223,7,36,56,28,22,226,3,248,36,45,61,3,205,30,43,21,45,249,62,43,202,66,194,222,255,204,17,218,210,37,11,17,231,43,26,0,29,65,50,36,36,33,60,26,35,7,250,35,213,25,248,254,28,233,237,231,248,49,227,0,224,45,227,252,232,237,52,56,244,217,53,228,3,64,232,26,225,246,207,233,7,60,218,44,224,217,17,4,199,199,245,205,250,212,52,38,18,234,255,61,62,244,240,254,215,13,219,44,17,13,222,29,5,211,47,242,48,192,30,32,233,226,222,3,62,236,255,201,255,240,40,43,245,215,168,63,216,9,51,28,14,213,21,218,231,33,216,34,240,14,231,20,211,39,63,39,0,193,247,70,32,55,41,6,213,7,231,30,3,8,57,5,60,207,37,234,38,226,3,66,39,58,26,11,201,5,234,232,233,216,35,48,237,234,233,248,33,251,3,226,239,20,4,211,224,3,45,238,192,226,229,200,238,1,241,244,205,221,15,237,220,171,207,252,219,245,42,227,12,195,246,228,2,222,222,27,60,197,10,11,223,197,39,239,208,214,251,41,9,174,247,1,24,196,221,16,32,161,191,201,225,244,33,237,22,13,184,44,249,48,45,61,59,250,0,179,212,12,33,28,17,36,194,228,11,10,181,243,16,226,208,221,73,203,244,223,32,62,226,53,6,27,8,245,200,60,15,60,239,251,21,27,244,241,248,39,8,218,24,254,219,14,8,246,46,56,44,50,72,235,243,227,253,5,14,0,34,53,248,248,65,8,237,235,19,6,0,206,7,206,242,205,254,251,90,230,72,40,183,198,250,249,53,243,253,32,6,199,92,40,55,54,52,49,38,250,89,8,57,32,14,6,217,244,253,252,33,29,41,218,86,2,40,37,10,241,217,238,248,90,27,97,6,247,18,38,7,64,9,67,244,249,207,237,240,253,224,18,64,45,44,243,217,73,26,31,13,45,10,19,236,232,58,24,227,11,6,243,56,242,19,61,61,61,246,254,90,59,197,81,7,213,232,41,40,40,219,8,176,51,238,36,24,230,71,237,255,243,9,218,64,37,241,255,202,9,12,17,237,56,217,6,80,248,223,238,59,236,218,226,246,59,198,229,202,228,217,0,201,34,66,47,16,36,30,24,213,208,21,31,23,0,18,70,245,2,221,19,48,15,12,6,2,22,22,235,250,70,236,215,171,227,246,39,22,51,15,232,33,178,0,41,212,26,3,44,252,215,63,55,35,33,78,50,27,28,242,255,224,222,229,235,215,233,180,19,28,226,223,17,30,254,237,233,209,174,11,14,3,37,246,1,231,10,7,214,19,8,62,248,188,37,46,217,234,17,201,39,207,246,189,39,234,250,17,5,51,216,211,24,225,190,50,53,66,56,229,161,153,7,197,50,219,43,41,237,183,154,223,6,223,206,41,46,166,253,212,208,27,233,223,255,247,244,190,195,208,11,8,6,13,188,191,243,17,44,1,222,243,35,37,194,177,245,210,225,26,244,20,50,221,240,233,4,248,230,74,52,246,3,221,218,22,218,16,182,41,183,209,14,30,8,62,5,15,18,221,204,209,241,165,69,210,249,14,194,20,26,232,16,169,3,56,25,205,31,205,28,17,15,253,34,196,231,212,207,30,238,0,237,9,201,45,7,54,69,232,225,31,253,8,14,221,201,211,34,43,254,228,5,237,57,241,48,191,238,56,34,13,42,33,238,231,227,26,43,15,62,22,41,239,17,33,231,255,252,224,252,67,29,24,240,3,17,1,245,65,199,26,212,222,243,43,33,250,18,249,19,61,220,82,58,228,228,42,244,37,3,176,205,247,200,205,61,38,63,34,240,30,56,10,208,235,201,241,12,219,33,245,51,227,220,246,37,245,62,47,23,46,211,0,227,230,250,17,44,26,180,12,17,13,43,20,25,21,0,218,10,253,198,37,58,65,34,46,209,30,66,196,201,208,43,179,231,24,7,104,252,65,24,238,49,28,47,243,62,204,226,0,34,235,249,227,199,230,209,232,16,26,236,201,211,6,15,242,31,54,209,5,49,212,40,14,246,6,234,60,4,51,4,221,226,21,80,166,225,23,223,40,54,18,16,208,10,19,39,39,9,254,12,42,8,2,54,37,33,54,45,244,255,8,255,232,240,73,16,214,21,255,61,27,247,204,244,32,13,245,232,39,65,37,227,250,244,45,21,53,46,13,2,89,55,30,19,58,72,41,234,51,219,55,29,255,0,26,235,183,16,5,37,232,200,228,255,17,217,0,34,29,24,218,35,59,253,207,35,245,23,42,26,26,32,43,216,228,68,240,227,234,212,28,234,211,8,217,234,60,9,36,67,37,7,229,35,227,201,66,21,252,8,50,252,183,21,48,55,9,241,5,57,86,220,32,30,34,221,39,21,5,40,41,11,1,222,49,240,237,251,38,217,17,23,34,56,40,222,223,223,3,12,30,199,62,204,221,188,68,20,230,227,37,6,200,43,251,236,51,58,208,204,54,233,254,7,244,213,253,7,0,17,206,16,231,13,38,28,7,221,209,201,253,26,23,62,23,4,34,224,23,216,200,235,182,239,215,248,49,35,230,240,214,242,31,217,197,35,226,242,255,223,251,58,10,25,10,208,53,239,235,18,44,213,22,233,31,210,240,17,251,223,226,220,25,54,216,218,215,29,47,3,31,20,37,23,5,250,245,213,9,68,17,219,53,219,12,234,97,39,38,35,235,247,241,240,225,36,203,23,255,209,36,215,240,179,53,10,65,239,236,198,230,222,223,235,211,61,220,49,69,254,245,241,49,46,209,243,193,33,248,34,36,69,210,0,4,255,47,202,44,9,232,11,23,25,201,224,244,38,35,197,194,220,215,29,254,11,23,250,236,202,193,198,17,50,224,240,21,9,229,228,45,226,6,21,237,59,44,35,251,45,62,0,227,224,233,203,55,245,56,218,216,60,11,40,245,245,243,19,235,234,246,200,50,29,55,231,40,41,49,225,223,218,243,49,235,30,185,23,31,245,21,28,246,233,41,249,36,241,4,219,26,43,233,200,27,21,7,216,41,238,31,207,227,243,17,237,235,248,254,12,8,234,25,208,242,38,242,10,242,243,1,222,31,37,2,207,231,198,226,24,34,199,221,8,25,236,198,53,248,20,247,236,237,221,237,6,239,193,21,228,252,254,51,2,33,3,208,210,11,10,8,52,248,45,209,34,17,15,194,5,34,207,219,212,0,39,243,211,238,204,0,8,203,29,225,37,228,187,254,9,216,27,35,218,39,44,5,48,247,225,11,227,26,198,233,212,17,49,37,50,40,50,35,207,0,49,206,208,251,6,27,223,210,26,17,224,24,222,223,23,208,203,1,244,16,250,239,241,53,35,14,254,218,225,189,45,222,213,240,226,20,10,35,57,27,41,54,190,229,202,28,235,206,190,37,220,20,254,30,246,20,28,187,42,30,253,0,60,0,28,232,249,203,243,42,229,22,221,22,221,205,254,218,217,52,254,12,244,27,207,44,17,207,49,28,252,205,234,2,245,231,232,20,4,204,48,46,14,11,223,190,219,250,206,0,36,34,245,239,221,33,44,30,54,236,204,55,42,250,227,27,228,15,238,251,222,240,234,224,252,16,18,247,219,251,11,211,220,217,29,4,22,17,220,243,26,14,31,2,27,219,222,237,220,48,252,232,33,40,209,8,18,232,27,23,52,14,31,32,4,241,46,24,28,35,201,49,255,217,18,46,47,56,221,245,47,220,0,190,217,9,253,235,252,237,251,234,15,60,60,37,37,13,246,230,253,242,31,49,237,219,2,248,34,20,204,16,209,253,204,57,251,7,213,211,77,217,58,31,31,220,224,245,252,51,219,229,56,209,247,36,242,47,229,203,10,216,254,31,30,23,233,209,2,57,237,53,226,205,216,212,211,213,6,238,51,43,29,61,222,9,26,213,0,37,217,26,37,12,21,239,233,235,249,242,230,200,20,206,0,226,33,11,236,24,45,60,6,245,36,212,252,250,203,18,43,45,16,253,23,255,28,208,197,27,214,28,246,54,227,196,239,242,224,214,0,241,252,35,240,212,28,46,222,44,206,8,28,51,43,252,24,255,17,192,4,53,222,210,209,231,32,219,235,29,41,252,233,3,211,248,225,226,17,217,244,17,252,227,235,236,234,231,38,197,40,40,183,43,34,198,47,234,197,29,244,188,16,18,228,242,246,190,19,217,220,192,248,203,210,222,50,199,48,209,194,193,224,251,40,226,203,36,252,230,209,21,6,1,224,22,19,13,11,241,242,50,254,9,34,56,6,212,20,233,235,241,210,42,231,26,216,7,214,241,236,20,49,15,18,24,209,211,252,193,233,53,25,226,228,242,216,39,32,228,254,209,205,13,252,14,2,204,8,244,240,12,4,227,252,26,5,48,243,45,17,52,9,212,205,9,210,38,234,23,242,50,11,15,37,40,32,199,209,196,224,215,23,204,192,49,31,196,51,194,58,11,206,9,37,236,253,227,211,216,236,43,9,4,195,221,190,225,206,230,255,251,227,191,232,183,41,225,255,45,34,218,2,23,18,219,7,61,55,40,208,215,2,35,247,227,250,1,219,206,53,247,219,205,245,44,247,49,25,43,190,5,41,51,14,29,202,240,5,215,224,14,47,216,28,3,60,16,45,249,36,11,10,255,202,12,214,45,8,204,205,44,255,190,38,12,194,201,253,5,204,0,213,213,37,35,54,233,46,11,255,203,206,49,218,53,201,62,210,201,29,21,33,14,255,26,2,220,44,213,43,37,13,16,8,228,255,207,193,250,212,243,49,210,228,59,34,247,190,193,2,245,223,53,227,227,44,29,238,55,227,217,217,228,11,239,50,26,21,198,224,227,11,212,214,20,253,28,39,46,54,27,252,14,45,22,229,37,202,33,248,39,254,49,43,239,27,218,245,216,30,221,235,34,234,200,41,49,25,204,214,9,30,213,226,238,222,196,51,45,20,44,44,205,22,15,196,251,220,53,51,11,253,35,2,52,247,202,18,12,229,54,34,211,32,50,251,54,218,249,33,53,202,249,57,11,53,33,208,212,44,0,31,246,10,208,254,249,209,241,228,50,16,199,215,205,197,50,44,220,27,246,244,207,36,250,217,236,17,37,41,220,248,197,26,35,230,11,206,241,231,244,220,225,209,226,215,46,30,185,207,240,239,244,229,251,7,255,197,218,219,250,219,46,231,12,242,29,226,224,253,8,237,32,224,19,210,12,44,201,16,35,30,33,217,240,15,44,244,201,28,47,36,33,212,48,202,213,49,227,4,19,232,244,253,29,250,221,14,239,221,232,18,229,247,224,211,220,247,247,249,208,237,190,11,42,21,17,242,221,201,31,9,241,234,209,254,44,223,243,221,42,251,41,212,0,25,227,253,16,19,48,197,5,234,235,247,202,210,240,212,32,7,220,216,7,209,24,27,34,195,231,248,41,222,231,22,5,21,41,15,5,254,207,214,5,243,196,20,52,246,16,222,230,23,234,202,209,192,218,1,202,249,225,227,1,35,37,14,214,232,232,254,236,15,255,243,37,223,17,232,251,1,233,225,207,29,34,39,215,47,23,223,3,187,14,209,225,206,5,231,29,43,27,239,55,3,250,46,229,250,45,18,251,219,255,41,211,205,231,200,17,0,211,2,211,224,40,6,211,21,38,249,12,247,16,206,31,239,16,5,0,217,224,49,216,240,16,224,245,253,31,205,233,5,0,235,249,247,255,230,34,200,197,214,223,193,12,54,19,231,197,39,230,40,209,43,240,242,219,234,40,232,232,25,215,47,209,220,221,254,24,232,206,16,7,25,45,213,254,24,38,31,22,34,15,213,227,240,3,203,212,35,6,18,13,246,39,30,4,0,27,16,44,21,43,206,38,17,240,209,15,217,233,6,237,21,32,37,207,236,36,251,34,46,210,223,209,33,235,2,224,198,2,192,229,31,243,9,239,249,234,9,194,216,252,21,226,244,42,41,243,7,34,224,202,8,227,27,246,240,8,244,227,252,54,30,5,31,16,194,13,214,9,240,213,201,32,202,206,231,45,8,248,228,201,223,246,197,249,22,244,42,237,200,38,15,187,4,45,221,15,24,251,1,234,250,3,230,213,17,25,11,236,208,206,230,252,221,252,33,233,9,237,12,26,14,251,204,226,26,214,28,27,237,231,227,18,41,254,49,231,255,251,217,11,23,43,222,199,195,0,21,27,231,35,15,8,204,234,247,236,7,255,243,27,29,212,8,1,205,38,224,234,36,38,17,254,229,202,18,245,44,23,217,227,26,201,248,57,23,51,14,35,238,250,212,204,48,255,1,214,38,207,230,252,30,205,0,3,246,8,6,40,28,213,28,222,25,26,244,33,245,220,252,35,240,0,33,225,200,217,5,198,19,222,20,218,0,10,39,6,214,238,216,249,254,217,10,223,249,233,36,10,231,2,235,10,40,210,49,39,15,224,9,196,35,52,197,246,230,202,5,0,8,10,15,216,220,226,232,201,244,228,204,199,248,29,190,221,238,25,201,35,210,14,195,255,218,46,38,1,244,5,197,251,220,206,31,247,36,36,237,219,11,217,217,25,224,51,239,198,22,43,206,248,43,251,5,39,226,250,193,228,44,232,41,232,202,238,21,48,204,239,49,24,49,38,248,253,39,43,28,42,22,245,14,212,203,34,40,11,32,240,243,236,220,42,190,41,42,255,252,193,37,245,230,36,211,223,226,237,35,16,201,199,255,187,51,42,226,29,239,234,31,17,213,243,241,215,20,241,216,4,191,249,232,13,21,243,6,6,216,4,229,249,10,6,216,228,41,246,22,229,10,13,24,197,243,236,40,193,221,222,244,230,195,33,218,0,12,222,250,11,9,226,32,25,45,34,24,240,38,213,252,244,31,241,217,233,251,0,211,47,202,9,29,55,215,28,240,234,25,33,228,35,3,25,46,199,220,226,236,35,190,46,221,43,230,30,246,231,0,249,244,195,231,218,13,34,25,48,240,1,237,12,235,227,31,221,200,29,44,15,234,32,236,14,203,246,18,27,7,40,36,26,23,223,228,218,26,255,31,228,21,21,27,228,198,7,1,236,209,241,226,30,34,14,203,201,12,244,225,255,10,196,44,219,237,50,219,41,49,10,201,23,227,1,37,31,208,34,198,237,211,19,46,228,221,0,239,210,43,191,7,248,230,231,41,18,228,199,252,214,1,226,39,243,12,198,244,245,15,205,234,244,13,253,208,32,34,21,34,255,227,209,226,20,245,12,35,23,244,207,10,45,14,211,211,27,36,229,219,0,223,13,245,25,9,21,216,25,27,41,197,229,212,205,0,41,216,241,214,236,243,218,20,251,10,40,254,25,229,31,232,44,252,231,253,15,192,44,12,198,21,247,232,18,215,229,19,251,32,198,47,0,253,15,206,222,243,234,243,26,255,6,219,213,245,229,25,208,202,0,35,36,201,30,44,250,23,217,226,249,255,2,24,14,48,193,225,0,229,20,28,229,13,208,18,222,10,250,47,17,25,252,235,232,207,11,32,31,33,221,33,47,236,38,1,8,240,34,197,201,231,13,22,5,35,9,212,235,219,196,45,29,29,9,3,12,202,4,206,242,14,217,236,20,233,215,1,12,48,196,44,24,248,49,56,205,249,236,15,208,242,220,28,11,221,33,4,14,9,197,11,57,186,200,199,215,199,33,24,30,194,215,29,216,234,36,232,227,35,17,28,210,34,29,233,196,3,229,20,236,202,23,48,47,50,55,49,201,189,223,235,21,48,241,41,36,252,251,199,225,252,204,21,197,45,198,203,244,201,45,229,6,230,240,25,6,23,35,243,44,20,36,211,204,217,192,9,40,211,62,238,40,15,217,29,45,17,28,217,222,32,206,244,250,48,6,2,218,6,19,4,30,247,237,225,12,28,242,48,222,47,10,19,20,242,42,16,33,18,197,194,57,57,6,221,230,9,204,206,205,57,206,220,33,217,255,32,6,221,27,37,188,38,223,18,193,236,40,26,241,7,26,17,222,223,201,224,39,46,7,219,197,47,31,206,3,254,28,26,238,254,251,221,208,42,214,14,52,10,11,200,245,218,13,247,186,25,198,31,34,255,27,232,241,32,228,223,203,220,42,34,10,217,44,206,45,59,65,216,250,216,208,251,246,20,19,215,33,232,6,25,208,230,240,11,38,214,207,10,219,32,173,209,12,251,5,205,44,36,38,230,241,244,210,6,202,245,41,242,24,228,40,228,237,242,209,36,227,208,251,3,217,20,27,254,233,192,227,36,66,213,218,0,193,45,218,23,212,69,33,203,25,18,6,216,32,28,10,3,255,247,224,214,210,204,30,27,211,234,46,2,7,222,30,207,235,36,14,233,21,15,28,212,205,255,3,34,3,47,191,191,18,187,244,210,223,33,243,206,1,46,238,42,253,39,233,190,236,222,224,208,221,196,229,56,38,200,44,233,253,9,17,6,219,195,18,253,50,250,248,23,246,217,15,225,13,20,220,250,194,49,12,234,15,54,238,254,56,58,228,26,206,11,201,29,203,11,48,211,196,26,210,193,237,47,73,198,34,49,250,216,40,232,4,201,41,41,253,204,239,20,3,194,0,5,244,199,240,16,33,217,27,249,227,39,1,5,242,59,252,250,41,58,211,51,18,203,57,217,12,243,37,212,43,10,208,51,217,238,213,10,216,238,48,217,15,200,255,19,4,212,241,20,200,214,55,213,225,219,26,221,30,223,209,50,43,36,25,243,214,215,236,205,12,224,242,50,1,198,2,254,21,238,228,252,54,247,46,20,251,209,43,231,51,214,41,226,19,224,5,243,60,59,250,195,229,207,248,246,24,231,231,16,251,53,229,211,47,25,12,236,37,6,248,186,32,28,252,252,12,9,243,30,198,7,219,223,62,52,210,216,9,215,210,244,31,12,217,0,8,249,55,177,36,225,229,21,235,241,8,37,232,24,202,30,198,237,8,216,244,207,5,40,66,255,54,13,31,16,27,226,225,7,247,23,52,234,219,216,246,225,47,195,193,48,24,31,193,251,1,18,31,53,4,3,200,204,52,251,255,253,14,239,54,246,232,201,9,201,250,29,216,238,215,233,250,22,0,0,2,207,248,33,47,23,20,9,230,228,5,28,19,249,23,32,232,253,18,218,37,201,20,48,44,218,9,4,213,204,238,47,198,225,40,7,241,39,7,240,206,246,198,237,246,30,15,6,213,234,234,255,253,26,15,9,30,249,248,36,199,189,220,8,44,252,21,54,1,185,23,37,19,15,45,230,33,15,254,9,222,223,33,222,32,52,17,195,16,10,50,231,15,10,243,191,224,222,28,15,29,255,233,193,28,216,2,236,237,204,217,246,239,41,188,31,8,17,225,242,14,229,189,246,23,226,9,37,225,242,36,42,201,34,27,0,211,247,229,208,41,11,20,54,7,230,252,242,45,190,251,244,38,248,221,35,224,11,28,220,254,5,247,5,235,221,225,220,19,230,240,8,25,13,237,214,24,196,230,227,15,33,255,10,212,30,207,200,230,5,199,197,222,248,36,202,203,61,239,230,24,232,1,220,8,236,56,231,205,4,226,5,18,242,235,21,251,219,231,51,7,24,40,235,251,62,206,11,17,238,194,240,203,229,212,16,255,247,25,7,223,19,13,18,32,230,254,14,228,231,29,18,61,37,195,217,222,246,187,23,231,250,221,255,40,228,246,223,229,10,217,16,237,51,51,201,17,44,244,3,228,50,215,30,29,200,218,229,6,251,241,190,27,238,217,33,2,252,10,193,241,58,191,6,233,210,202,212,244,34,0,7,245,9,52,241,236,35,12,209,45,229,255,19,253,222,245,244,7,252,247,17,5,241,209,201,52,198,41,3,25,217,208,220,204,27,222,15,208,20,245,251,220,221,195,249,12,213,9,27,62,27,239,214,0,207,224,15,53,23,47,28,25,205,4,15,242,22,28,238,4,195,21,17,14,247,47,50,16,21,248,251,248,234,201,243,248,209,188,234,252,230,30,33,250,12,6,217,220,216,30,252,234,52,213,48,205,0,211,250,36,221,8,0,217,241,30,36,38,41,26,217,46,255,199,22,47,0,45,249,226,238,25,24,227,222,219,229,52,28,37,223,214,204,19,217,237,238,242,254,13,5,234,244,37,250,218,6,6,206,207,27,245,32,44,65,4,230,33,242,220,233,33,57,56,231,238,244,5,45,55,243,5,19,50,18,211,22,194,249,255,228,42,244,7,15,225,197,18,14,209,247,13,232,4,34,211,236,229,196,14,248,13,25,15,4,32,228,39,17,26,1,42,45,250,10,216,7,39,228,3,21,237,1,233,222,232,39,40,235,211,35,221,215,190,4,241,250,229,217,35,13,213,218,0,210,32,29,3,46,47,204,31,233,239,43,9,191,244,216,28,191,248,47,208,215,49,35,226,199,239,204,45,226,196,3,19,231,220,26,202,32,224,248,10,222,215,216,41,225,0,222,245,40,249,33,12,198,190,252,217,18,203,196,35,10,239,220,21,7,18,215,43,237,189,13,181,32,30,225,211,13,48,16,28,213,35,30,231,8,221,15,249,227,192,24,236,32,247,234,44,21,248,195,217,14,10,214,0,217,44,32,249,252,23,233,226,226,25,248,13,180,36,24,229,34,254,241,28,247,226,19,227,197,0,246,15,240,41,25,11,0,48,209,243,19,232,195,237,231,234,247,15,236,241,50,210,201,214,19,231,228,19,207,198,197,33,251,27,255,32,36,213,218,214,210,236,31,253,17,238,7,225,6,205,25,245,234,246,206,208,199,40,213,18,16,231,253,247,220,249,27,229,237,14,36,28,51,35,193,218,17,24,50,49,20,11,232,20,253,12,241,221,207,230,9,209,220,4,10,31,206,219,12,233,194,23,202,232,8,235,18,221,18,226,23,42,221,197,19,207,252,217,21,233,205,249,226,45,41,206,227,31,209,232,9,30,44,36,253,198,1,244,51,35,32,251,253,28,19,246,31,229,39,254,38,214,8,45,248,224,13,211,229,226,250,16,18,200,183,64,249,231,22,16,246,217,233,10,8,54,223,3,59,2,252,218,216,232,228,61,34,227,244,210,219,14,37,14,234,19,211,30,252,213,226,212,218,216,15,28,242,22,252,31,57,55,248,254,37,48,199,27,52,231,247,17,4,32,222,196,47,53,207,33,47,41,216,242,11,28,212,201,10,0,254,43,28,226,9,18,23,5,219,26,233,251,197,12,46,0,51,5,251,41,207,10,4,238,42,193,29,253,235,16,4,5,224,239,247,219,220,11,194,28,30,0,37,226,235,233,248,6,246,52,250,28,16,52,19,235,194,235,40,231,27,37,15,10,47,201,230,4,214,251,42,10,252,8,232,12,17,248,43,226,229,207,255,252,34,10,31,1,224,47,213,0,240,35,22,39,36,187,35,250,225,228,26,5,234,10,232,27,208,45,14,43,247,236,230,255,233,51,224,36,28,200,200,253,219,43,193,12,194,42,233,24,216,11,28,5,251,25,7,16,5,0,50,54,24,25,245,243,216,221,28,25,247,211,211,41,3,208,2,251,45,38,1,42,211,35,35,214,251,224,241,24,31,236,1,203,193,255,25,255,247,29,46,26,213,215,45,32,40,36,15,36,251,42,11,197,221,253,36,4,198,248,203,14,41,249,237,10,221,215,45,16,247,212,245,19,235,235,214,200,198,225,206,6,1,216,206,48,39,216,21,40,234,19,41,253,239,239,33,211,20,220,239,29,245,220,198,28,229,2,239,14,41,228,10,0,30,223,37,252,45,246,220,195,9,39,246,230,195,13,248,207,249,213,24,210,26,227,227,208,242,24,198,239,14,241,38,2,208,38,217,5,52,26,248,216,42,216,29,0,216,0,16,24,48,24,0,246,249,203,8,248,195,24,246,210,220,239,46,40,249,245,198,34,38,246,10,7,7,194,6,244,23,8,211,210,35,220,199,5,24,14,29,247,183,244,229,243,220,32,229,29,234,223,206,10,35,30,220,17,21,229,252,1,232,230,250,252,237,236,38,34,196,251,6,255,246,31,246,18,4,0,238,11,29,5,7,24,244,235,230,35,250,204,231,227,251,222,201,244,226,208,224,54,10,16,236,218,209,190,35,231,192,49,245,255,27,13,223,23,6,225,21,215,19,0,34,240,220,239,250,249,222,48,36,235,198,218,51,27,46,225,213,4,25,34,213,225,33,213,15,216,208,44,209,212,193,189,210,254,228,207,226,199,22,47,206,248,19,22,242,207,8,216,245,241,18,218,1,207,246,195,231,226,34,26,246,255,245,23,202,236,242,0,22,24,214,203,231,30,219,229,195,208,250,21,204,204,230,43,3,17,228,253,61,215,218,196,51,241,22,21,209,32,245,195,47,49,11,204,3,218,37,204,233,54,22,12,11,220,241,34,206,38,199,240,238,192,243,247,220,35,200,198,29,10,191,15,245,219,199,200,46,255,229,210,3,217,34,32,240,3,248,225,233,8,24,15,231,31,1,10,214,240,243,209,249,238,6,249,226,12,244,213,9,237,203,204,246,204,6,209,231,11,33,1,219,215,48,246,230,2,219,224,232,41,242,233,212,7,219,37,17,228,13,40,7,224,228,22,33,21,25,31,23,6,36,12,11,23,222,8,10,219,216,54,19,13,224,252,202,200,220,10,10,7,247,17,217,254,234,27,46,231,254,232,0,22,34,44,31,66,234,241,254,26,32,252,202,233,31,33,198,27,4,251,202,243,24,23,28,251,241,58,9,249,7,24,250,18,32,244,26,222,245,24,224,23,216,35,47,35,254,252,26,198,5,4,227,23,228,16,1,252,237,26,59,28,15,246,27,236,224,253,245,22,43,254,231,236,28,237,235,18,218,235,255,21,37,218,36,220,74,5,240,242,32,232,223,35,251,46,37,29,48,230,220,220,14,223,5,214,240,31,251,234,231,253,200,247,0,20,254,3,224,231,26,203,233,2,236,254,219,227,197,241,43,48,34,64,27,27,230,15,231,42,23,41,223,22,10,2,18,40,249,32,242,54,28,255,226,234,241,30,225,242,11,14,10,13,250,48,220,8,202,24,49,8,8,232,22,252,215,200,10,255,247,2,1,244,6,200,212,248,228,210,242,252,2,215,217,249,43,8,21,6,203,11,198,42,28,32,0,251,29,207,23,3,222,225,20,39,33,200,38,21,22,220,21,229,7,249,239,10,18,43,59,24,65,238,228,221,253,18,45,238,27,231,210,248,41,22,223,237,30,236,211,250,4,252,219,255,225,38,8,212,196,249,244,4,13,203,33,251,207,221,18,11,225,230,213,55,248,229,1,10,19,222,27,221,243,243,217,201,232,236,41,27,248,5,179,206,229,249,5,228,208,236,243,252,23,221,2,240,233,233,230,2,228,16,239,33,37,222,29,10,224,7,230,246,217,234,48,229,218,222,187,201,13,243,254,34,11,218,249,163,198,238,224,34,219,35,34,217,233,6,201,249,245,210,222,235,235,208,229,217,3,225,7,6,30,22,196,246,236,0,22,10,14,207,16,192,228,234,217,211,249,224,1,235,19,198,211,252,26,245,246,202,212,25,237,240,9,39,253,22,244,212,211,192,14,235,255,15,33,6,35,8,229,249,244,15,39,3,26,212,12,228,39,0,253,42,216,33,205,35,255,14,228,231,239,247,28,225,214,203,234,12,30,205,214,25,238,0,247,31,21,222,212,249,48,14,44,204,36,29,251,49,191,198,250,2,9,245,6,235,245,225,28,231,3,56,39,3,29,219,252,17,54,47,221,43,243,216,241,30,18,55,217,16,253,252,245,16,254,211,250,228,49,225,19,208,236,47,10,30,55,23,242,229,25,41,0,228,247,219,20,12,249,231,214,16,12,223,46,21,31,24,35,236,243,22,25,32,43,51,15,46,0,246,245,252,245,8,244,243,39,240,226,31,56,31,56,39,14,222,31,213,221,25,201,227,41,59,35,221,17,237,36,5,60,23,212,16,225,231,240,232,235,8,238,224,10,22,242,216,238,246,15,15,46,228,20,27,234,15,4,217,50,249,210,56,33,207,246,56,4,72,8,15,227,6,18,236,251,220,21,35,21,226,12,250,18,52,252,253,251,6,224,35,28,13,23,232,19,14,209,246,22,50,233,227,228,255,27,7,16,38,234,24,33,219,24,28,6,212,17,12,41,240,237,11,36,248,33,45,40,41,32,53,237,19,245,241,200,194,214,40,219,236,248,230,223,247,12,246,238,226,228,17,1,247,21,211,31,244,18,236,22,15,235,205,208,232,251,12,18,64,255,57,237,224,243,25,25,249,248,244,40,29,46,17,22,13,25,29,244,243,4,226,12,219,219,242,5,39,1,22,22,52,245,230,243,25,12,0,22,33,8,252,245,5,43,226,242,234,4,5,4,13,247,230,15,27,239,231,10,232,203,223,21,227,255,16,223,28,208,204,194,22,8,23,41,49,236,247,23,217,1,8,224,214,31,228,6,211,1,214,219,3,225,204,17,228,2,221,0,0,4,211,50,212,200,38,208,252,25,41,39,210,3,229,230,255,3,37,237,39,50,235,227,250,10,3,242,42,229,207,207,226,5,227,54,251,248,22,228,214,203,247,225,1,238,230,7,37,34,241,252,229,240,242,18,205,34,213,30,42,12,224,229,237,243,236,245,8,249,11,219,233,241,240,49,245,191,223,219,254,254,20,34,8,9,229,212,30,249,238,51,235,228,