unsigned char model[] = {32,0,0,0,84,70,76,51,0,0,0,0,20,0,32,0,28,0,24,0,20,0,16,0,12,0,0,0,8,0,4,0,20,0,0,0,28,0,0,0,152,0,0,0,240,0,0,0,204,31,1,0,220,31,1,0,68,43,1,0,3,0,0,0,1,0,0,0,16,0,0,0,0,0,10,0,16,0,12,0,8,0,4,0,10,0,0,0,12,0,0,0,28,0,0,0,60,0,0,0,15,0,0,0,115,101,114,118,105,110,103,95,100,101,102,97,117,108,116,0,1,0,0,0,4,0,0,0,144,255,255,255,16,0,0,0,4,0,0,0,8,0,0,0,100,101,110,115,101,95,55,52,0,0,0,0,1,0,0,0,4,0,0,0,234,222,254,255,4,0,0,0,14,0,0,0,100,101,110,115,101,95,55,49,95,105,110,112,117,116,0,0,2,0,0,0,52,0,0,0,4,0,0,0,220,255,255,255,19,0,0,0,4,0,0,0,19,0,0,0,67,79,78,86,69,82,83,73,79,78,95,77,69,84,65,68,65,84,65,0,8,0,12,0,8,0,4,0,8,0,0,0,18,0,0,0,4,0,0,0,19,0,0,0,109,105,110,95,114,117,110,116,105,109,101,95,118,101,114,115,105,111,110,0,20,0,0,0,216,30,1,0,208,30,1,0,172,30,1,0,92,29,1,0,76,28,1,0,60,21,1,0,188,20,1,0,172,13,1,0,156,12,1,0,204,0,0,0,196,0,0,0,188,0,0,0,180,0,0,0,172,0,0,0,164,0,0,0,156,0,0,0,148,0,0,0,140,0,0,0,108,0,0,0,4,0,0,0,182,223,254,255,4,0,0,0,88,0,0,0,12,0,0,0,8,0,14,0,8,0,4,0,8,0,0,0,16,0,0,0,40,0,0,0,0,0,6,0,8,0,4,0,6,0,0,0,4,0,0,0,1,0,0,0,235,3,0,0,0,0,10,0,16,0,12,0,8,0,4,0,10,0,0,0,2,0,0,0,2,0,0,0,4,0,0,0,6,0,0,0,50,46,49,53,46,48,0,0,26,224,254,255,4,0,0,0,16,0,0,0,49,46,49,52,46,48,0,0,0,0,0,0,0,0,0,0,244,223,254,255,248,223,254,255,252,223,254,255,0,224,254,255,4,224,254,255,8,224,254,255,12,224,254,255,16,224,254,255,86,224,254,255,4,0,0,0,192,11,1,0,219,3,254,19,19,197,26,25,42,234,15,199,30,181,17,57,254,64,217,22,215,31,50,245,218,246,44,4,222,12,49,184,32,209,236,3,203,198,33,226,12,24,237,43,61,253,220,25,237,39,214,56,48,202,233,227,1,233,219,201,22,246,39,179,15,22,242,10,12,4,41,34,210,196,64,231,10,3,232,213,253,213,187,19,219,232,4,17,51,243,3,223,232,18,234,17,227,212,49,203,221,213,223,213,236,242,48,59,236,225,69,28,38,223,28,2,250,12,255,251,216,26,231,18,2,20,234,254,222,223,26,2,221,17,223,238,236,29,7,8,215,24,3,241,5,248,14,238,237,52,241,12,203,254,218,205,24,240,55,11,238,28,192,246,25,9,228,228,42,215,15,224,40,34,190,219,28,29,29,11,0,46,227,0,24,220,47,46,26,244,25,67,225,23,39,18,58,251,5,207,17,246,249,232,9,212,243,216,214,240,221,32,48,240,43,42,255,4,38,24,31,251,55,236,235,4,64,35,250,39,8,31,226,52,226,245,78,31,23,249,248,204,217,28,12,47,222,3,248,222,212,16,25,3,48,208,21,222,219,206,0,244,252,229,10,226,28,1,50,60,5,33,244,8,43,4,37,213,211,225,59,232,41,5,6,23,27,50,192,242,8,42,252,18,224,213,44,11,57,49,15,36,221,40,232,0,223,63,38,41,210,13,232,32,238,5,33,206,35,36,47,210,224,11,221,76,24,38,7,236,14,218,206,51,50,211,248,253,52,224,54,10,217,17,255,16,232,31,249,38,36,205,44,240,23,234,31,22,29,242,19,73,200,28,32,202,37,248,44,48,98,207,25,23,6,222,22,61,54,0,40,41,16,249,55,230,54,223,73,249,249,38,6,21,16,16,19,6,252,230,205,202,5,26,19,66,62,252,44,26,7,47,1,64,15,71,248,71,228,251,10,232,18,242,37,236,9,244,248,17,11,29,36,30,233,228,220,192,203,212,60,3,242,27,222,30,14,209,243,250,228,62,9,2,216,241,227,228,6,65,14,233,242,23,210,255,240,230,73,48,221,29,242,253,252,4,215,32,22,224,4,228,253,39,247,26,16,243,27,37,14,10,233,245,71,48,251,18,243,32,39,193,48,54,11,10,24,11,60,246,20,48,230,2,59,239,217,35,239,205,56,232,9,48,15,238,20,238,225,235,213,251,1,0,204,245,27,0,47,19,209,8,35,238,248,246,11,221,247,19,15,27,208,222,255,36,35,51,15,252,49,199,21,205,248,205,53,16,249,0,200,4,38,9,213,232,246,12,254,12,38,28,24,54,211,33,5,7,249,5,242,250,26,24,36,9,204,229,70,249,246,24,219,32,220,211,204,31,3,209,243,52,11,216,190,219,254,205,28,241,12,249,46,203,228,2,46,235,201,20,241,9,217,247,38,8,0,240,238,25,215,230,172,234,77,23,21,239,15,252,237,8,24,30,218,193,227,215,200,238,205,26,223,40,215,38,241,236,243,229,233,227,254,219,251,226,233,193,244,22,34,220,3,15,246,11,17,43,235,219,225,232,250,187,253,216,10,26,63,32,214,63,233,16,233,229,225,45,230,9,54,11,15,238,229,36,240,11,28,227,37,250,226,230,215,2,231,251,27,8,6,32,248,6,219,249,37,51,37,233,225,8,2,18,240,56,3,0,242,232,192,223,19,242,17,230,242,255,12,205,246,7,22,8,17,41,222,252,243,227,11,229,189,18,243,65,230,45,185,15,4,4,10,1,236,217,220,249,231,248,206,50,24,225,245,227,255,43,202,15,221,209,22,24,7,20,20,244,48,250,253,25,234,249,230,18,24,59,242,252,51,35,231,229,250,37,235,206,27,21,230,215,209,204,244,253,206,232,12,217,14,193,179,52,47,232,246,255,225,50,227,11,219,244,11,252,22,208,30,49,207,15,224,44,27,28,235,68,236,36,22,208,212,246,230,226,230,245,47,26,199,228,252,14,215,48,214,7,243,237,48,244,239,42,13,251,4,0,80,25,210,214,60,49,214,22,234,39,219,241,231,226,12,7,8,22,227,226,19,60,225,3,231,225,245,220,255,20,8,245,25,28,249,250,39,39,3,65,234,231,48,4,229,228,33,42,1,253,254,54,29,206,208,243,241,240,43,220,225,251,232,49,201,222,238,64,30,29,230,224,248,253,214,246,10,12,28,215,255,214,53,0,37,28,251,252,1,22,27,37,9,199,237,29,209,64,221,210,54,14,29,62,58,5,20,205,2,218,34,22,49,61,227,23,24,30,57,223,223,53,21,216,231,227,249,249,217,245,9,34,245,41,15,31,31,216,216,205,8,1,43,247,30,192,229,210,213,223,33,252,8,8,232,218,10,1,241,20,229,235,49,43,241,252,238,7,215,24,219,240,227,238,13,8,0,253,12,237,240,234,3,239,19,1,5,254,254,0,14,236,230,215,250,242,1,10,16,248,12,8,7,242,252,1,25,9,229,232,13,244,3,249,247,246,16,6,252,233,253,7,254,255,1,245,6,241,238,12,252,255,2,243,20,222,253,240,229,254,3,245,11,248,250,252,2,23,7,248,253,248,17,23,240,229,16,254,248,6,255,14,246,245,239,238,251,255,10,235,247,224,0,10,18,2,252,4,12,248,245,237,251,227,241,0,255,253,18,218,249,15,227,6,8,9,229,228,250,254,6,231,5,8,5,18,240,249,10,233,219,243,250,246,15,236,20,237,5,218,254,14,0,7,232,2,25,249,33,4,1,9,225,29,228,11,29,226,254,249,252,13,0,11,0,3,236,252,241,7,7,20,20,250,1,10,252,2,252,218,251,236,231,231,13,253,2,10,4,8,2,9,236,223,255,253,10,2,234,4,14,5,236,252,244,241,236,250,8,4,227,4,0,11,246,18,230,7,253,240,243,243,5,8,4,16,216,10,231,246,248,248,253,242,13,229,232,20,220,241,5,250,239,230,224,247,253,231,246,3,1,253,240,5,254,2,228,251,252,0,22,246,7,250,248,3,1,255,254,15,230,247,0,238,3,6,7,255,235,238,224,4,4,246,255,7,250,230,1,235,240,222,247,3,255,241,231,234,229,251,237,5,0,7,254,225,216,226,17,15,250,7,11,247,255,9,238,244,11,7,10,7,10,243,233,226,234,230,2,2,246,255,225,221,219,240,22,253,252,255,1,230,230,254,246,216,1,21,4,4,13,227,11,8,220,12,3,255,255,5,222,238,16,222,7,5,7,4,249,223,17,19,231,242,11,249,0,255,25,252,7,13,15,27,251,247,241,253,227,241,253,230,236,3,4,9,238,255,232,237,251,244,253,253,255,0,9,234,223,254,255,6,250,246,225,18,244,240,235,245,5,2,249,245,9,238,7,221,253,248,245,219,253,255,0,228,234,0,250,8,233,1,237,244,251,203,242,13,255,9,3,232,240,225,208,255,245,255,245,247,21,250,14,245,1,5,253,251,234,5,238,22,205,7,251,6,244,218,247,244,8,209,15,251,251,243,235,10,9,21,237,1,8,2,248,224,16,255,1,222,1,250,13,254,20,18,254,247,227,0,2,252,2,253,228,4,249,9,236,238,253,232,15,234,236,230,216,5,237,13,0,239,21,7,242,235,0,6,247,15,3,221,244,227,219,247,3,253,247,244,25,9,10,3,9,2,252,8,8,12,11,231,250,252,249,3,236,226,7,255,222,209,253,255,255,3,240,1,254,251,29,250,245,2,233,10,10,252,230,238,4,251,254,244,246,230,244,241,251,244,11,252,20,220,7,255,36,29,249,1,254,248,237,220,235,7,30,8,241,252,251,2,19,252,22,226,251,16,0,255,15,252,7,20,18,252,244,254,245,239,8,239,251,234,251,5,250,238,1,236,236,1,22,0,251,2,235,254,13,237,214,29,248,252,15,252,230,248,17,212,16,251,255,246,241,4,231,236,221,247,253,253,2,14,225,233,227,222,2,242,241,251,233,21,231,243,17,240,254,7,2,6,239,238,235,245,29,0,27,0,16,225,255,1,235,23,237,7,11,17,2,239,222,230,255,248,244,5,1,2,249,11,252,247,11,3,15,224,218,250,230,223,251,5,8,6,16,9,223,0,252,22,250,252,247,12,20,254,241,5,238,250,7,247,10,15,248,24,247,11,251,253,251,223,4,232,246,242,14,252,0,251,2,234,240,24,1,8,3,17,3,232,11,242,224,217,21,244,5,246,10,1,251,32,212,32,252,6,246,237,241,251,237,255,0,11,1,2,10,232,246,243,225,240,2,253,4,0,248,238,6,212,244,1,14,3,8,14,5,37,232,15,246,234,3,2,9,13,8,238,239,2,248,255,22,8,0,7,229,23,245,30,1,0,248,18,241,246,241,2,253,244,5,231,246,255,233,208,0,252,11,17,237,251,9,255,217,253,5,4,2,11,247,245,252,227,242,5,255,238,252,12,8,11,7,248,10,255,2,1,236,240,3,207,253,0,2,0,6,18,255,228,255,4,0,255,235,245,246,236,247,244,25,0,248,0,217,238,2,241,10,241,3,10,246,247,239,21,249,251,3,6,2,242,231,249,1,14,230,254,253,255,8,254,252,12,251,239,3,8,253,253,234,218,15,231,1,7,253,1,242,246,9,246,252,15,1,255,255,253,7,220,250,10,27,249,17,0,254,247,9,5,241,246,0,3,240,239,7,224,242,224,224,232,8,8,250,252,215,243,14,217,13,252,250,9,8,2,232,255,251,17,7,251,240,0,15,5,11,243,247,248,5,5,243,217,1,11,217,252,249,249,2,233,243,223,237,232,251,0,255,1,8,7,6,209,20,237,4,220,228,24,16,255,56,58,244,244,61,212,208,219,40,50,42,52,65,18,8,249,10,228,248,68,23,6,69,246,236,12,210,62,64,2,250,210,213,242,26,35,84,60,38,67,23,217,230,39,60,79,74,49,20,15,15,209,57,40,250,93,85,236,244,216,9,231,215,66,76,40,50,63,216,239,252,0,226,25,38,14,237,40,244,25,210,36,41,27,254,214,30,252,232,48,4,35,25,219,25,27,246,1,246,7,5,31,222,234,225,0,230,50,55,253,9,244,3,209,214,71,247,77,1,217,232,220,224,14,58,26,241,14,15,233,18,234,240,23,14,56,30,216,254,18,223,41,28,19,240,253,251,226,9,55,217,49,41,205,40,254,253,6,41,34,24,231,42,3,230,44,24,231,52,236,196,7,232,11,6,219,14,225,254,237,19,223,40,236,228,250,67,229,216,48,239,213,241,218,213,236,29,200,245,215,218,3,3,34,236,31,219,221,22,48,7,32,244,245,10,46,230,3,33,206,223,247,219,52,220,23,223,53,233,37,53,36,36,249,235,199,50,231,46,217,39,10,251,229,185,16,26,245,13,223,36,24,251,172,244,41,253,0,244,244,253,216,196,38,14,229,230,57,38,228,8,184,244,213,237,32,57,62,253,51,218,9,245,232,233,34,245,62,237,184,234,1,3,251,211,211,254,43,254,251,253,195,7,236,7,219,252,233,17,27,50,254,198,225,230,47,162,19,205,25,241,2,31,245,21,253,238,31,236,7,42,13,27,229,183,9,25,21,232,254,12,13,24,179,231,244,232,245,215,7,249,247,44,4,37,10,28,225,30,26,45,237,13,46,9,251,243,230,232,230,21,16,231,251,227,223,227,188,41,55,28,239,4,254,8,223,245,42,238,215,48,15,33,3,18,247,248,235,244,31,221,25,44,19,7,254,49,18,236,8,241,29,197,210,201,97,254,228,227,43,16,250,255,52,29,1,230,241,45,6,15,240,206,36,227,40,203,45,235,2,41,231,22,40,34,33,219,24,204,185,213,89,217,248,229,236,11,226,44,226,4,236,11,247,248,48,6,253,230,64,196,239,70,0,251,211,43,252,45,221,220,10,235,3,48,236,197,234,24,12,86,31,233,15,38,3,33,213,15,223,65,8,42,244,32,251,228,255,235,235,49,229,5,208,229,10,39,223,22,35,3,26,209,60,3,9,42,215,15,16,197,23,78,35,35,218,11,2,10,4,43,231,19,197,213,247,18,231,192,231,68,14,13,39,17,43,35,191,50,50,61,201,51,215,58,57,197,235,67,241,246,230,14,230,252,232,217,33,35,241,251,15,64,208,198,230,240,34,14,247,39,24,251,192,228,254,55,42,34,5,53,239,243,250,50,22,8,242,244,41,64,250,18,49,215,244,71,219,40,46,201,13,226,22,200,249,3,228,248,202,23,202,241,226,14,2,37,44,200,246,230,18,234,198,42,50,14,232,12,239,44,37,34,254,248,236,219,58,13,216,191,24,25,209,241,246,251,2,42,214,229,199,204,223,230,217,4,207,29,65,205,56,214,235,238,185,219,252,240,25,46,58,235,232,147,14,3,0,11,210,223,35,2,7,44,49,11,29,6,231,242,55,144,255,233,21,245,64,8,3,251,170,41,9,192,255,33,219,5,64,248,3,188,15,54,14,252,53,225,177,238,182,8,246,31,232,55,2,242,251,15,1,229,199,240,36,10,218,233,46,251,238,225,58,17,53,156,43,16,38,253,63,225,221,1,224,253,249,249,243,42,236,217,22,195,250,254,202,31,55,236,32,249,163,229,182,238,9,217,230,230,238,173,5,229,241,40,47,251,36,62,220,71,200,223,31,230,202,247,252,180,39,15,22,17,231,46,189,13,7,29,7,28,18,44,229,170,21,190,220,235,255,9,242,250,253,245,3,228,24,245,20,39,243,209,12,0,229,187,245,254,22,22,189,215,24,27,49,6,220,49,239,188,221,234,203,27,197,31,223,202,254,4,242,58,211,254,11,20,231,242,205,31,37,192,9,15,231,234,223,229,28,51,18,241,17,55,242,241,60,8,34,247,216,38,244,204,193,7,49,231,8,36,231,7,199,0,14,43,220,49,3,211,254,210,220,41,2,253,18,217,249,253,231,15,33,1,14,231,67,4,38,213,236,232,33,47,16,207,217,202,229,238,218,28,238,13,243,4,25,22,33,19,255,224,24,247,215,13,211,216,237,5,247,216,248,47,242,2,36,20,221,53,220,216,46,32,4,12,231,245,226,10,56,6,255,52,250,248,240,39,216,219,54,218,19,55,214,212,255,226,14,243,228,223,232,36,39,227,23,34,14,248,22,251,248,46,206,226,215,203,231,218,2,236,26,15,9,82,5,223,3,41,232,41,31,242,251,200,15,253,48,30,20,233,205,250,253,61,17,33,53,25,255,252,228,245,36,255,47,17,27,16,43,3,1,220,223,245,246,53,20,55,19,247,10,47,209,78,28,254,44,250,2,219,243,26,50,86,49,217,236,16,8,230,5,249,254,31,12,22,254,30,6,22,242,92,21,13,16,5,215,222,232,247,47,11,7,45,38,24,232,232,254,226,229,241,31,247,40,249,218,41,238,248,249,242,49,14,245,5,250,45,233,56,249,252,10,65,222,56,6,36,24,203,29,7,69,215,241,211,17,216,1,33,35,236,202,238,49,46,236,207,28,11,20,220,198,249,207,35,15,235,221,251,31,5,34,203,254,6,213,240,46,194,214,227,229,10,2,23,213,222,16,0,233,6,196,8,226,206,34,251,23,217,0,44,232,18,8,209,15,204,208,195,9,204,39,43,34,10,1,227,244,18,57,40,230,53,247,254,21,236,228,237,21,30,8,242,185,20,19,232,53,13,10,249,239,33,7,253,251,26,10,49,215,204,190,203,250,19,186,47,239,38,200,198,245,249,34,4,5,240,54,27,15,174,6,237,32,8,31,25,54,47,246,226,251,6,223,41,218,68,14,234,244,16,237,224,0,211,226,227,242,36,223,58,255,231,24,222,57,187,220,35,214,237,60,47,235,18,152,19,249,7,208,59,48,62,254,214,227,50,238,41,12,245,254,17,178,232,24,4,14,10,9,235,56,189,74,239,248,232,28,247,219,232,195,218,236,202,48,245,2,244,18,241,211,211,242,228,228,216,7,0,185,225,5,20,28,251,246,187,206,215,224,4,207,32,235,10,8,50,248,4,227,210,18,212,31,179,79,244,180,235,217,241,211,36,192,88,201,68,31,229,37,18,214,219,10,249,39,43,209,44,31,244,179,48,79,247,212,26,242,213,223,214,71,7,44,71,22,28,15,225,219,85,28,51,34,22,26,225,31,221,73,253,58,179,187,214,239,228,6,87,244,36,253,45,26,254,229,232,28,69,16,14,220,240,242,25,228,21,31,29,246,8,222,249,246,191,55,33,22,56,245,226,62,250,35,245,241,72,13,228,34,232,238,0,37,39,224,12,230,249,15,217,241,22,73,252,4,42,252,37,211,232,38,33,67,69,39,243,233,22,35,41,34,6,63,200,232,24,42,57,227,13,194,47,2,245,241,252,10,241,32,242,202,65,255,251,38,253,247,64,241,9,30,2,16,226,217,6,26,245,85,231,7,252,246,249,14,220,4,246,41,183,11,31,232,25,226,45,212,239,33,13,249,207,233,46,28,247,4,211,22,37,195,36,242,208,5,24,25,236,216,221,202,234,38,193,51,251,14,7,190,29,225,208,249,239,7,4,29,240,198,22,45,15,7,22,226,2,3,28,244,217,247,222,207,217,22,205,251,197,8,41,5,37,54,18,197,247,179,234,217,33,202,17,225,188,245,194,194,203,247,27,3,233,220,12,232,0,225,198,221,39,21,228,249,2,254,18,23,32,8,219,200,48,237,19,12,207,233,229,240,231,217,179,22,8,12,12,10,222,11,232,186,3,17,255,217,56,240,244,238,204,226,36,254,223,247,6,22,24,188,21,247,9,210,254,239,31,213,161,214,250,8,4,61,53,31,232,143,171,234,4,252,52,31,224,16,225,252,232,250,233,239,19,227,10,208,8,230,7,241,225,233,17,243,179,30,255,254,195,240,235,21,50,162,211,1,245,19,234,3,248,9,171,254,217,208,21,231,201,24,28,137,253,253,203,13,9,216,25,30,194,16,244,27,195,34,29,219,239,205,210,250,226,5,0,244,231,255,2,229,245,5,225,47,242,253,243,152,14,240,58,242,248,50,12,68,0,29,35,27,0,58,19,220,22,235,217,1,16,30,223,201,235,205,254,37,195,223,15,8,255,217,252,234,224,248,215,221,25,231,255,230,37,17,3,12,204,10,244,236,21,222,6,237,243,208,42,1,164,74,233,18,248,10,0,202,25,165,4,3,253,207,235,6,229,198,227,248,252,251,30,240,185,218,10,26,44,59,53,220,251,35,236,23,182,70,228,50,229,234,205,30,36,179,5,66,194,216,57,251,0,249,186,21,31,234,22,42,239,20,209,241,54,12,15,250,243,237,230,216,15,234,48,93,197,2,244,35,237,247,62,78,4,0,29,248,222,45,31,8,47,26,215,10,249,1,210,21,247,56,45,12,212,22,27,212,246,235,65,240,229,233,219,254,216,40,37,242,13,243,235,4,204,13,6,228,63,9,28,205,17,213,190,223,53,252,12,25,34,0,26,244,57,0,19,228,241,250,247,60,237,1,252,234,235,29,24,255,227,25,8,248,24,8,14,46,30,35,38,47,251,0,23,225,245,10,10,237,29,250,242,57,192,27,223,39,241,211,21,8,246,7,218,206,236,234,214,237,204,41,10,193,4,252,50,239,29,235,218,205,221,41,219,48,211,10,250,15,243,240,225,249,218,40,12,239,54,19,11,21,255,31,17,3,238,73,28,52,240,250,66,33,52,37,24,254,19,227,23,244,24,214,17,208,252,221,28,24,18,49,201,8,11,232,25,29,215,233,39,214,204,233,59,251,19,247,30,10,40,211,220,231,9,215,3,254,221,13,221,21,211,222,252,238,35,219,23,208,229,24,18,4,48,217,42,220,4,43,217,249,209,4,36,61,2,207,194,198,245,7,2,10,3,11,199,37,206,255,51,0,39,246,12,185,28,73,41,242,13,34,228,215,198,252,12,242,222,243,217,27,219,26,237,246,16,15,222,48,59,26,249,45,191,255,28,49,15,85,37,23,224,2,239,32,232,237,231,35,20,32,251,34,16,35,242,252,238,51,7,40,218,31,229,34,45,224,219,239,218,245,24,210,19,243,222,224,251,244,35,235,218,237,42,65,220,51,189,17,57,242,240,6,37,231,31,233,221,220,59,233,224,25,59,68,19,237,9,51,235,45,29,21,2,254,44,248,250,3,254,69,233,72,255,18,52,221,12,223,75,223,4,191,45,224,2,20,241,21,72,33,233,240,254,40,31,16,42,251,238,8,243,24,1,8,198,255,62,4,36,221,17,53,251,48,6,52,255,226,248,231,6,58,208,243,42,249,15,34,255,16,224,245,83,25,60,254,73,222,222,247,253,4,27,46,191,5,12,239,253,1,42,43,81,193,212,242,231,39,227,92,36,235,214,224,41,40,44,246,78,230,38,249,229,235,248,253,45,226,249,17,248,23,0,45,238,11,35,237,23,60,9,235,13,225,253,205,190,29,36,35,17,250,211,4,23,214,22,251,237,34,241,245,14,40,56,250,218,214,229,227,6,239,255,36,218,24,200,43,22,0,38,34,235,27,236,234,237,243,54,57,208,18,35,58,222,224,6,48,55,217,220,212,1,246,63,24,254,39,222,14,233,60,236,50,212,6,233,182,6,20,228,16,226,1,218,34,255,39,17,0,7,246,30,28,227,222,22,231,251,213,223,226,237,251,159,54,235,221,23,49,5,20,30,11,255,220,80,13,201,40,34,10,172,44,30,31,222,22,31,15,230,243,42,247,16,27,250,221,232,27,223,225,248,219,43,21,33,249,233,196,50,214,26,252,222,238,7,224,232,28,10,214,238,25,254,254,33,204,250,249,213,202,48,24,48,22,35,242,28,209,234,35,5,218,198,217,41,2,27,254,245,223,14,195,213,29,20,230,29,234,44,214,253,247,43,29,253,226,49,30,227,45,255,211,213,248,11,210,207,213,245,245,12,221,35,56,207,55,19,77,218,31,219,251,27,217,234,51,242,223,21,8,31,38,10,8,35,6,15,48,234,220,12,223,253,30,37,218,245,226,51,219,42,227,214,244,37,26,226,0,27,34,237,35,14,215,204,44,7,55,53,31,234,32,208,224,8,15,4,225,4,221,55,22,221,2,229,25,212,30,7,29,42,250,67,252,20,247,230,233,8,209,187,238,252,234,61,217,39,75,50,30,215,211,17,202,241,35,252,31,199,51,245,18,51,44,42,232,3,213,252,27,17,242,16,9,56,213,0,36,192,223,37,212,227,21,39,203,252,4,12,23,242,0,238,17,212,250,247,229,230,12,210,39,4,16,17,28,18,0,10,16,236,91,188,40,42,214,55,207,233,63,85,35,227,225,8,38,204,233,190,31,227,21,192,39,30,236,34,2,83,228,26,43,46,211,223,54,229,21,10,14,7,6,30,31,1,246,5,211,55,23,203,218,24,233,226,57,20,10,20,12,18,20,3,233,238,216,220,235,49,35,253,240,205,82,54,41,4,219,249,41,17,210,17,229,35,233,26,51,35,47,237,253,240,238,38,56,220,18,227,16,233,239,46,242,47,35,61,242,206,191,239,24,230,191,36,20,253,4,28,59,36,248,237,239,31,230,251,42,213,38,7,233,50,45,237,241,202,42,28,207,27,233,29,209,30,2,1,223,255,5,251,217,41,229,227,45,233,33,35,12,227,253,22,43,244,48,220,29,21,236,35,9,228,51,227,183,245,231,253,249,16,209,236,33,213,255,208,220,45,253,220,25,252,24,29,237,48,249,244,15,239,249,39,201,5,219,205,237,12,12,50,253,251,38,5,15,15,28,244,226,217,219,232,41,4,30,239,43,25,5,246,19,47,203,27,198,34,47,247,32,240,44,27,33,60,15,47,5,31,18,2,220,232,43,229,254,24,242,43,22,241,9,237,16,238,188,198,253,20,202,7,28,47,246,205,232,44,222,28,230,12,206,1,12,202,54,212,15,49,45,5,51,218,202,17,48,29,37,49,11,250,234,57,243,55,241,39,44,235,13,15,233,253,2,234,254,30,229,49,210,244,234,27,249,9,192,26,7,74,200,37,23,218,31,34,9,253,254,32,22,217,33,241,246,245,206,39,227,213,53,16,230,24,31,37,28,252,227,220,56,60,28,9,187,228,15,15,241,53,16,214,187,10,52,54,11,23,243,244,46,228,28,246,7,200,13,211,44,247,10,14,244,226,29,7,19,245,229,249,11,228,222,250,22,42,77,6,208,221,10,250,251,21,11,251,248,217,51,255,25,255,31,250,1,240,230,216,203,221,232,1,218,232,236,211,245,27,35,243,246,20,81,71,214,229,254,25,39,53,29,29,47,234,254,26,214,25,251,50,41,44,0,4,53,198,15,221,23,2,253,38,4,10,2,223,10,27,240,41,59,237,65,212,33,32,25,231,203,35,24,27,233,12,217,19,6,37,24,218,211,44,24,219,37,13,240,227,242,253,7,23,226,22,25,246,250,243,2,36,244,34,15,48,14,14,40,243,217,16,250,49,35,12,11,233,27,231,8,188,21,12,31,248,19,255,33,228,226,212,210,255,24,200,239,11,251,255,234,230,243,42,207,55,23,241,22,48,7,238,17,206,9,39,40,9,228,12,187,206,23,226,52,36,235,31,39,255,218,33,210,16,50,245,11,221,204,11,243,212,49,42,217,217,0,162,223,39,231,243,254,238,241,200,193,8,45,215,228,196,208,250,11,169,207,30,34,254,33,25,12,37,217,247,221,28,28,18,18,39,64,213,17,181,2,30,225,230,9,233,194,16,214,7,214,242,7,30,39,168,29,234,253,211,27,49,21,253,7,8,197,64,42,9,0,243,54,238,32,200,25,44,217,220,204,242,230,13,213,7,223,231,49,215,12,217,225,4,27,21,227,249,209,246,181,31,9,239,24,8,8,8,33,236,13,230,241,209,249,228,208,199,173,9,248,248,251,207,202,19,34,239,8,235,60,229,24,243,43,250,10,201,240,20,3,60,20,208,201,12,204,247,231,234,44,190,217,9,13,4,224,12,31,247,5,36,216,207,253,8,233,253,29,214,19,234,237,192,19,232,238,237,211,205,200,1,243,233,29,5,195,240,22,243,41,208,253,246,33,14,47,31,173,213,38,210,223,11,50,21,232,255,37,222,33,246,174,213,4,246,221,35,22,44,3,41,37,25,28,23,223,46,254,229,239,43,210,215,25,42,37,0,216,22,46,14,254,232,34,200,5,251,240,231,45,254,247,16,18,237,199,24,68,202,207,36,1,251,235,25,230,231,202,54,9,35,240,44,10,5,32,31,250,38,52,246,6,255,37,48,27,42,43,19,20,240,227,7,255,211,224,244,27,14,252,12,196,28,234,20,229,75,224,39,221,18,216,36,202,30,20,230,220,232,203,24,0,30,30,236,40,32,220,35,54,31,21,239,239,41,249,231,182,31,230,6,240,32,15,229,198,19,227,252,194,44,52,54,95,211,187,233,237,209,66,47,46,35,251,22,255,3,23,2,229,253,77,42,8,53,32,46,242,24,89,215,5,4,26,3,52,42,35,71,216,56,3,0,223,44,19,30,25,66,251,206,241,245,229,23,17,54,46,224,244,220,214,198,218,48,14,25,227,25,38,2,219,16,29,37,216,32,250,226,13,20,232,1,16,6,38,22,21,224,23,37,22,93,75,228,26,229,248,207,250,31,52,14,96,8,45,203,33,224,4,98,230,228,186,249,198,7,0,196,24,2,42,167,237,63,4,34,250,83,24,252,50,226,227,16,18,234,19,17,239,11,251,253,26,47,224,70,47,243,240,65,234,49,24,218,47,27,67,217,19,41,12,31,225,82,230,27,44,11,225,248,254,5,36,3,242,8,213,246,38,61,174,20,254,4,212,224,14,51,37,255,28,53,47,35,2,10,52,62,239,213,200,61,77,42,47,56,24,12,55,31,34,235,66,11,40,251,247,209,206,5,36,211,24,11,23,13,218,3,65,2,252,209,253,45,0,241,2,43,232,3,2,211,10,250,248,223,50,198,36,34,59,250,220,200,220,18,42,55,222,31,67,16,23,214,239,26,216,60,35,13,215,236,211,227,9,17,228,224,254,248,236,233,234,197,66,255,252,33,219,14,209,72,204,10,204,31,46,203,186,22,32,11,56,250,4,44,11,205,239,24,27,18,209,36,226,240,6,248,230,61,49,236,38,32,237,195,200,50,251,226,210,226,216,255,233,224,221,49,255,236,59,245,31,206,196,18,224,237,202,2,49,0,41,1,9,238,205,54,56,248,16,223,176,33,243,30,211,5,8,36,246,10,35,241,74,32,41,195,238,23,247,46,29,42,30,3,248,11,253,251,196,204,232,195,47,8,17,63,207,229,214,218,238,27,13,203,220,232,1,9,49,205,36,238,191,19,235,9,215,232,235,53,0,36,229,254,42,235,9,5,250,17,20,15,250,46,57,23,229,201,2,8,25,243,233,49,219,34,47,57,75,225,27,28,236,229,210,208,251,245,254,11,246,217,47,50,231,204,65,25,41,41,234,239,42,233,246,232,32,252,238,244,220,242,228,244,240,52,64,244,254,0,10,19,38,78,224,40,244,41,249,45,54,242,244,67,42,250,8,49,238,228,253,233,2,9,27,203,235,6,252,52,247,3,13,49,27,207,34,213,88,72,38,247,228,22,23,9,253,60,10,19,10,11,43,1,233,203,253,244,32,238,250,214,20,237,208,80,33,42,242,14,247,48,222,232,220,221,58,190,238,25,0,249,230,204,12,244,37,48,221,32,195,31,2,212,51,35,246,73,232,223,255,29,227,7,43,248,242,5,63,33,241,191,221,23,60,255,216,44,233,9,216,214,15,10,239,10,11,221,223,9,225,16,188,237,235,41,252,32,32,6,51,229,56,15,0,13,61,198,188,40,212,247,52,22,57,16,194,16,194,32,250,227,22,245,255,224,190,22,2,249,13,208,249,10,245,251,196,23,70,47,243,237,165,194,250,250,228,43,232,19,225,206,238,232,5,7,25,24,247,30,31,199,220,214,45,249,252,18,202,3,239,200,230,38,41,248,217,207,239,216,245,204,235,14,40,50,8,231,163,225,23,23,33,12,10,243,247,236,248,228,13,61,252,44,38,218,174,179,239,53,237,233,240,247,46,250,3,240,206,176,216,234,213,17,167,29,212,62,34,224,31,40,248,221,13,236,38,47,22,217,47,57,173,213,244,29,17,231,247,34,32,245,16,198,35,62,21,14,199,23,9,64,189,14,10,48,39,18,13,229,23,4,6,255,7,44,36,231,229,233,52,230,1,230,245,247,34,229,38,225,12,36,10,237,215,236,240,17,209,232,214,6,30,188,228,186,61,175,229,240,9,226,213,235,245,10,31,222,7,32,34,221,233,252,22,254,245,216,20,244,22,216,215,221,47,54,30,54,210,19,10,249,235,77,218,250,46,251,244,181,255,194,232,34,16,32,243,209,181,51,208,27,24,229,32,178,43,211,26,217,16,22,223,212,233,249,254,249,0,254,226,19,30,245,48,240,26,38,39,234,27,30,1,233,237,104,46,21,237,22,205,210,245,238,12,52,58,5,204,203,4,234,73,18,239,61,25,251,12,45,11,216,18,32,30,16,250,241,55,4,16,48,46,1,33,4,36,30,52,8,73,223,9,36,38,1,8,237,220,68,34,223,42,220,241,5,211,239,41,25,240,25,250,246,48,237,88,236,233,9,3,45,200,188,244,224,5,28,1,4,209,238,45,8,60,37,250,244,55,47,255,235,231,64,239,243,233,240,221,7,49,252,40,68,218,254,242,249,21,220,211,238,36,220,233,29,11,211,228,14,227,239,247,20,22,220,249,21,42,9,48,235,76,29,1,39,46,229,211,235,34,58,50,252,216,61,242,254,241,255,55,22,233,237,232,0,47,70,61,96,34,252,201,244,37,220,7,249,245,223,39,210,235,25,4,17,53,230,216,191,9,15,0,27,236,17,244,255,29,200,229,236,208,7,76,253,247,224,34,53,37,191,41,75,252,219,15,230,51,1,209,58,17,241,223,229,39,225,198,168,214,53,232,221,235,16,6,40,225,39,25,3,249,225,204,61,14,215,205,69,61,248,243,210,197,7,238,217,70,249,254,245,6,229,9,177,227,80,56,227,3,253,65,7,245,236,46,225,233,13,165,64,35,34,177,75,202,253,243,220,6,19,212,217,86,30,30,204,253,47,49,252,159,24,222,255,1,231,216,60,210,190,64,211,251,250,230,28,52,9,155,231,211,31,31,207,211,33,224,168,227,215,28,196,43,32,3,50,191,68,22,12,42,207,238,56,3,190,16,229,230,31,186,48,44,255,225,10,50,221,223,233,253,7,220,213,251,247,203,227,204,250,37,56,53,237,234,230,242,11,243,254,61,19,239,6,252,15,206,219,53,45,223,58,228,245,251,210,9,1,38,180,194,200,254,26,252,255,18,31,222,231,219,47,29,233,241,62,229,201,244,73,211,226,246,28,237,56,224,37,221,29,1,19,253,53,25,236,45,23,55,49,13,249,252,11,242,36,18,30,250,240,54,2,53,18,15,17,44,237,252,202,6,59,31,202,251,0,17,26,12,48,12,12,200,9,253,1,244,206,231,6,246,248,198,250,5,200,41,244,228,20,253,44,240,40,227,40,216,209,240,48,1,12,24,216,236,195,45,221,21,205,15,238,241,60,8,240,53,230,33,245,213,57,237,21,224,224,183,30,36,242,231,242,46,205,13,64,190,233,243,203,4,30,25,234,10,227,15,254,220,7,45,255,3,25,220,220,19,219,11,237,251,37,29,31,49,238,13,221,200,1,46,48,246,8,16,29,236,66,254,220,6,4,26,233,230,45,35,55,0,25,193,0,222,226,235,201,220,243,242,234,4,240,38,242,38,243,24,199,216,22,246,17,54,0,232,215,197,189,27,19,56,14,23,21,13,178,204,36,204,37,250,218,212,224,1,231,13,236,43,232,200,42,238,199,221,251,225,53,52,247,250,237,32,230,3,244,32,230,228,14,12,221,195,45,13,41,5,21,36,43,233,249,247,15,27,209,224,206,34,222,236,13,14,49,230,215,225,38,204,242,251,225,239,233,236,33,231,8,25,69,17,20,40,193,34,22,247,255,228,251,23,49,10,24,15,230,236,199,37,215,214,224,233,8,18,237,244,38,224,6,48,213,23,228,36,53,248,47,21,43,235,72,54,8,201,249,249,249,25,224,54,253,255,188,4,221,254,43,233,63,17,224,24,45,38,7,235,58,247,2,23,243,229,51,254,38,13,230,243,29,11,249,54,25,34,202,22,63,224,226,0,248,226,252,215,1,79,225,4,224,217,250,21,51,39,238,246,18,229,202,235,244,220,54,16,215,206,225,209,17,233,246,12,255,205,35,215,43,235,46,11,27,219,232,41,249,1,22,60,229,254,71,243,14,251,218,0,16,202,222,24,244,52,66,32,202,32,47,243,50,17,235,240,13,7,58,11,232,32,222,8,24,45,12,237,254,10,4,241,62,219,223,208,211,238,1,36,37,9,63,35,17,53,225,240,10,239,243,47,32,232,34,30,245,230,14,14,227,52,61,248,196,60,1,15,232,215,235,8,37,43,226,253,5,251,223,205,56,246,34,38,239,34,225,239,32,41,19,44,30,255,238,17,208,0,61,214,251,255,41,4,212,227,32,216,13,35,249,46,199,1,35,41,237,42,52,251,42,11,10,247,247,63,30,49,238,54,6,212,235,16,55,58,239,50,37,237,234,29,7,224,0,223,248,201,228,16,243,63,224,231,249,87,244,253,218,246,51,220,238,26,47,255,250,245,26,208,34,210,32,16,25,30,30,15,205,41,225,15,223,182,255,255,213,15,226,237,12,44,33,237,41,200,240,241,18,18,69,25,210,10,246,35,253,241,226,49,241,234,48,205,223,227,234,51,247,240,255,26,6,55,24,52,232,2,26,220,5,234,216,197,16,38,10,1,216,35,252,243,31,231,24,246,20,245,196,245,23,238,227,231,15,218,12,50,14,6,39,254,12,251,38,7,53,18,13,9,215,239,34,19,212,244,232,11,46,43,206,199,21,30,64,48,53,15,228,19,239,209,221,207,236,221,252,238,24,244,31,37,220,206,229,61,15,228,202,224,230,52,251,32,45,3,18,222,250,225,4,214,237,218,237,225,8,224,33,6,213,25,29,47,207,255,5,234,227,4,5,22,219,234,197,52,37,198,36,32,218,17,230,235,8,220,252,237,4,38,0,2,252,226,3,31,25,227,10,15,29,195,219,26,253,226,200,13,24,185,196,224,237,215,38,10,227,208,214,203,237,195,242,205,230,22,39,254,30,39,210,239,3,249,203,8,46,196,249,2,194,238,15,215,45,11,205,216,238,2,212,40,7,29,227,243,248,208,42,211,45,13,221,69,32,246,243,20,245,20,238,3,18,246,214,225,52,223,211,6,22,28,240,224,12,38,246,223,246,216,236,252,7,189,3,240,211,227,59,19,217,39,200,224,22,249,62,223,52,199,250,228,237,12,5,237,203,58,212,224,193,206,47,16,225,27,221,215,226,8,28,227,39,227,244,50,250,47,229,41,12,13,36,222,17,202,254,225,17,65,212,2,223,26,16,58,228,229,250,246,225,208,50,255,244,18,215,207,245,41,237,242,52,212,13,58,214,62,26,13,238,11,222,255,216,253,200,29,229,32,19,237,158,181,238,17,0,242,25,220,240,251,224,23,226,231,39,41,5,19,218,218,5,2,21,247,15,17,39,0,251,229,50,217,213,222,254,199,212,241,220,217,44,240,198,239,212,8,10,250,47,205,41,20,27,240,28,65,235,214,229,223,64,59,32,206,14,32,208,1,245,4,10,208,25,16,245,21,249,227,217,48,50,6,239,11,0,248,17,22,68,225,3,19,1,40,19,6,221,221,249,229,8,18,250,36,252,17,32,245,42,232,31,233,41,31,235,240,224,253,248,0,46,13,31,206,16,49,211,246,226,251,204,4,0,229,235,232,218,49,238,40,233,20,39,225,2,17,16,20,19,47,248,241,55,12,2,15,253,215,217,41,253,26,62,33,5,215,224,0,239,10,15,243,42,250,254,29,27,255,5,38,11,244,255,230,227,8,241,246,207,8,221,247,42,7,30,204,20,193,252,34,242,219,212,245,210,12,21,7,29,34,238,222,239,43,244,36,38,245,251,24,13,222,23,214,21,0,236,199,212,242,31,237,200,234,223,218,231,255,248,27,226,56,33,41,218,244,55,44,222,254,38,61,40,53,58,28,202,40,255,35,89,29,250,234,228,249,7,214,14,45,81,238,43,32,235,4,16,85,45,24,15,250,58,36,233,215,71,8,47,22,18,245,254,210,56,87,68,238,229,241,223,30,59,30,49,24,239,10,244,23,50,52,212,36,57,242,250,34,18,238,220,239,248,40,221,254,3,221,230,9,237,4,63,32,14,7,238,227,10,252,207,57,252,12,11,36,50,37,0,16,236,248,44,221,44,45,20,247,196,247,253,253,21,230,236,15,254,190,0,16,203,250,0,40,58,248,190,219,210,38,10,209,229,1,237,1,221,9,233,32,57,50,27,188,0,255,245,14,19,244,45,58,6,222,11,219,4,7,25,36,214,220,189,225,234,207,15,216,230,216,4,206,211,17,18,193,34,221,24,6,10,186,58,204,40,19,14,10,209,39,194,47,212,8,202,219,25,247,211,40,241,237,227,205,16,22,223,197,174,17,242,49,246,23,35,2,30,181,4,20,203,19,31,27,249,224,192,235,234,233,215,29,37,250,206,208,215,246,39,249,18,231,5,14,237,1,204,251,52,40,49,41,51,164,20,237,244,243,53,1,3,52,210,212,21,76,238,30,233,243,226,186,207,226,8,230,54,57,220,61,152,208,236,235,219,227,1,57,6,207,17,9,16,11,36,20,68,244,145,233,37,43,220,31,250,16,51,248,16,42,9,14,228,27,251,49,193,42,243,236,228,247,10,51,7,39,217,3,34,13,33,22,242,27,235,8,243,73,223,255,244,14,38,226,12,2,226,220,245,48,238,36,242,51,25,245,9,22,47,242,71,219,188,220,230,41,214,59,249,94,233,53,236,19,5,222,43,204,78,21,0,244,17,35,228,225,187,36,27,16,53,222,0,18,40,202,41,244,11,20,23,232,19,58,235,86,240,16,223,19,234,55,39,195,18,5,247,240,234,35,226,222,33,58,244,51,10,220,37,241,249,0,8,7,15,36,36,12,238,234,251,24,33,42,245,213,33,48,15,191,26,44,228,67,10,14,14,216,236,79,30,10,195,228,20,62,248,244,75,21,16,26,12,51,27,49,21,69,254,23,238,15,31,221,235,251,1,249,54,56,26,12,49,37,43,232,42,2,245,227,3,243,216,9,10,28,24,3,242,217,33,244,14,23,252,4,233,38,30,56,18,44,33,59,5,239,20,232,227,232,202,27,235,9,3,207,194,53,2,252,32,226,20,46,12,194,229,27,13,234,42,227,8,252,36,53,51,250,230,22,37,39,18,38,30,5,216,29,29,245,48,25,235,44,7,224,236,214,240,199,250,9,49,218,235,203,245,204,10,1,30,224,30,204,45,219,219,18,33,253,23,253,175,37,28,13,23,3,224,23,44,178,200,19,28,45,39,38,251,16,20,206,253,253,253,46,230,247,238,5,7,233,217,231,15,21,13,19,209,207,251,246,239,216,18,51,226,252,216,254,238,13,6,33,25,36,199,21,203,234,202,22,242,42,55,17,31,7,222,179,37,231,218,50,207,221,5,32,222,26,211,41,57,234,201,165,213,24,244,207,27,6,207,218,251,4,27,39,248,248,52,193,209,222,209,247,8,3,216,227,19,2,225,168,26,12,11,243,243,248,189,237,201,202,226,235,27,232,219,233,223,32,200,1,251,241,218,231,33,198,178,223,251,194,0,49,11,4,212,191,227,68,237,25,43,251,6,252,228,26,252,231,12,50,251,1,195,244,16,2,252,32,215,205,7,249,195,14,6,45,16,50,205,36,218,17,13,34,208,248,215,237,225,10,35,232,7,15,25,247,255,45,244,254,2,25,4,235,27,32,55,222,225,6,249,9,54,221,223,45,6,180,241,254,223,228,215,24,218,227,246,193,12,231,10,230,240,41,19,30,255,245,14,57,253,26,223,209,218,17,200,19,42,219,183,236,47,14,252,31,251,0,232,215,9,249,10,230,7,37,236,46,196,51,241,237,237,248,217,44,17,214,16,242,30,37,3,197,6,10,203,40,239,21,231,19,245,232,205,197,46,7,46,208,28,20,12,28,227,7,30,231,24,44,197,233,254,201,73,58,253,244,28,209,52,41,6,1,244,239,241,255,8,246,249,250,44,246,21,251,238,19,34,252,57,43,59,13,214,38,185,248,208,250,13,63,59,229,1,250,223,28,242,16,6,242,20,246,12,43,54,19,29,227,32,253,232,244,17,62,52,29,0,9,26,252,249,226,40,25,238,19,42,9,240,221,215,204,1,37,232,5,214,5,2,242,19,60,11,29,10,227,0,222,52,211,16,228,254,33,42,24,190,225,236,30,62,53,33,227,32,234,46,245,46,13,228,250,16,246,241,49,209,58,225,34,70,213,9,6,43,223,45,236,224,39,2,234,248,19,33,236,5,44,245,233,245,49,228,32,252,12,210,35,3,6,219,37,25,0,235,5,252,24,9,41,21,232,216,42,216,8,12,243,43,9,1,223,43,244,13,24,233,235,5,244,7,232,47,254,13,3,21,211,221,8,219,35,7,245,18,243,226,213,4,51,22,25,242,24,227,243,241,223,237,230,8,250,241,234,252,37,39,236,19,230,23,247,40,26,25,246,43,9,21,9,24,32,234,232,12,22,35,19,20,30,36,41,248,29,235,247,13,3,245,37,15,20,237,232,253,242,241,238,232,239,240,236,247,224,1,244,32,15,247,18,252,30,201,252,238,228,250,25,247,246,214,20,31,223,242,9,23,22,225,19,224,227,255,244,35,4,240,244,207,241,4,252,239,14,211,225,216,255,209,32,13,240,12,253,27,251,209,14,13,2,229,28,213,253,216,227,210,19,3,7,246,45,237,245,23,23,241,31,17,24,239,48,233,226,223,21,8,234,29,19,242,1,240,213,237,246,239,34,25,241,1,35,242,11,253,36,36,2,242,218,241,14,252,220,231,41,27,38,20,23,205,21,15,226,247,222,31,248,206,242,236,232,252,227,12,25,30,5,207,17,16,249,253,239,217,254,30,241,23,226,16,31,249,250,11,35,221,9,235,4,41,242,9,207,215,224,238,247,10,250,249,26,249,205,219,16,6,2,6,254,227,31,234,204,252,24,34,242,8,252,22,223,226,254,16,225,222,235,0,23,3,215,254,18,12,32,230,43,216,211,242,251,242,247,236,209,14,6,229,212,13,231,2,236,228,216,225,233,250,224,1,17,8,251,205,3,40,250,28,13,2,7,251,25,205,212,5,5,228,11,233,46,205,249,253,241,15,18,7,37,39,1,17,251,228,13,4,231,208,252,209,15,230,43,25,255,247,38,2,24,22,19,10,13,21,0,250,4,230,249,12,233,238,236,19,220,12,33,8,238,236,5,6,15,239,228,201,233,221,213,21,7,39,38,44,250,240,39,249,221,251,11,29,206,253,0,25,47,242,243,221,16,209,208,18,214,215,23,231,232,252,10,246,220,231,254,241,1,249,9,22,235,207,252,10,244,0,16,217,40,7,24,40,19,232,246,2,209,211,208,229,39,4,239,252,11,17,25,227,34,50,4,240,241,233,236,226,38,218,237,229,4,26,254,246,35,205,12,253,42,255,237,247,246,43,220,219,240,243,242,20,29,250,221,205,249,240,37,19,0,226,246,26,2,227,212,16,9,227,239,30,41,234,229,37,15,20,10,245,0,234,218,253,211,206,15,24,16,23,212,12,219,24,218,18,15,16,211,23,30,217,14,47,24,22,242,250,33,33,212,220,233,248,228,6,219,227,236,240,254,8,15,16,253,28,250,245,239,243,210,20,243,244,210,241,234,205,19,235,255,20,29,242,45,223,12,16,231,233,241,4,209,236,40,237,30,9,30,16,25,24,9,46,8,5,245,24,217,240,243,203,31,236,231,239,23,8,25,0,35,221,10,217,245,249,253,29,244,44,32,12,5,230,230,240,0,28,222,221,244,229,32,26,20,246,228,245,234,22,25,230,4,25,3,254,25,50,4,27,218,27,248,37,212,224,39,247,253,255,20,247,252,211,227,218,39,4,202,232,249,22,255,254,0,231,32,0,244,221,255,27,238,250,15,17,196,7,2,7,240,254,242,22,46,246,222,220,249,23,223,45,253,32,238,254,235,245,20,229,42,247,233,236,254,241,252,230,242,236,251,32,218,247,237,10,215,21,208,230,39,244,19,21,19,232,210,206,20,48,205,235,249,221,238,1,211,33,10,223,241,235,22,241,7,212,232,21,214,245,244,27,22,212,247,224,11,6,250,236,233,240,210,15,217,222,201,13,237,37,217,29,243,234,16,245,32,247,249,2,3,255,208,238,7,248,2,247,253,41,13,20,211,31,241,1,24,207,6,220,222,13,222,3,30,245,236,5,241,2,223,12,238,239,22,216,223,254,206,248,246,25,14,243,30,225,221,227,41,206,18,238,225,22,201,43,246,12,237,232,11,2,28,42,212,208,245,247,18,242,246,15,241,223,214,41,21,15,241,9,3,35,216,232,7,254,239,244,233,16,26,5,15,30,25,253,247,226,4,225,253,26,15,49,233,246,27,202,20,215,239,251,46,14,8,251,213,40,24,0,236,5,8,0,254,200,217,222,34,223,222,19,248,232,217,209,233,27,5,235,7,32,244,242,224,206,231,35,43,242,252,7,245,12,207,211,0,11,252,13,228,9,209,243,225,221,29,6,1,251,239,211,251,10,231,209,243,23,23,221,214,208,228,241,252,3,254,255,8,250,15,240,232,34,250,251,9,16,9,227,3,16,34,1,247,220,30,28,248,218,42,219,19,20,10,243,247,234,18,218,38,2,237,5,244,243,19,30,236,18,5,1,254,236,245,228,6,19,18,255,5,250,229,19,23,254,14,245,244,251,4,255,19,251,23,253,23,255,251,249,247,32,237,241,12,242,3,253,5,240,244,25,250,235,6,236,0,239,255,3,252,255,2,209,5,9,249,17,251,9,246,247,14,0,245,253,29,241,243,13,22,29,5,254,6,229,228,241,14,223,22,5,6,8,17,243,254,5,248,244,248,1,9,240,9,254,5,16,35,8,247,253,6,235,228,254,248,247,254,15,9,245,252,248,231,5,9,8,248,7,235,224,221,252,4,38,245,1,238,226,241,248,255,217,255,249,5,3,237,228,12,248,253,14,5,254,0,7,238,252,230,23,225,7,6,248,27,25,14,252,216,238,249,7,0,24,9,27,235,19,32,17,226,3,240,224,249,9,31,215,0,248,5,27,249,246,14,250,32,255,1,233,222,245,231,251,36,24,6,11,2,234,9,21,24,2,18,0,245,1,12,30,248,3,20,244,253,0,252,219,238,13,26,226,8,255,11,5,20,29,254,243,239,250,1,1,8,30,219,18,240,226,30,251,252,6,238,7,220,252,28,19,248,5,3,16,13,19,241,230,26,1,4,9,2,246,24,237,20,1,6,19,6,14,21,227,235,28,22,254,18,244,0,227,233,10,222,38,8,238,1,231,29,6,238,1,253,251,255,17,1,232,30,253,237,26,250,247,245,229,18,254,5,250,28,2,7,250,13,220,243,248,2,253,247,0,1,228,226,8,18,0,24,11,17,11,7,11,228,14,252,20,10,7,1,10,30,8,241,232,27,253,9,6,27,241,16,242,247,4,252,3,7,14,226,24,249,249,19,22,249,7,2,21,23,28,21,8,255,255,2,230,0,220,8,1,239,248,6,255,15,239,248,251,14,235,250,239,248,12,238,232,14,17,5,5,7,249,7,5,21,251,249,214,249,255,242,12,237,2,7,32,225,249,2,253,250,29,1,240,241,20,4,1,253,22,244,243,24,255,230,0,7,250,255,7,231,2,240,208,255,5,0,251,225,23,23,245,232,8,250,15,250,239,222,0,28,205,249,8,0,242,229,29,13,229,22,1,247,247,232,235,26,248,248,207,251,11,7,236,4,19,22,251,229,247,1,244,26,26,230,242,5,208,250,251,244,250,3,231,4,28,247,248,2,245,252,18,224,14,239,244,236,255,251,13,1,252,245,251,20,240,11,0,248,3,252,3,22,222,243,247,251,242,247,25,241,224,250,5,8,0,17,237,239,250,33,208,245,6,250,237,229,8,19,14,28,255,255,249,249,224,15,18,222,28,10,244,250,5,7,249,11,25,222,249,9,3,234,15,252,244,233,7,247,3,251,245,250,31,239,3,230,243,249,9,240,12,246,21,234,234,3,3,13,242,18,242,236,23,240,8,240,1,21,222,16,35,248,226,1,243,4,253,255,11,249,17,242,251,8,1,0,230,217,247,243,0,247,10,4,24,221,27,18,232,26,241,6,11,18,1,21,16,252,9,12,14,250,253,244,251,30,11,6,5,249,253,30,240,218,9,24,223,248,255,0,253,244,1,10,19,2,254,5,1,239,236,33,235,31,4,253,2,253,0,7,253,18,13,9,4,242,250,7,238,9,4,216,32,246,3,254,5,248,18,238,237,243,255,0,10,248,31,14,9,7,231,250,24,6,226,221,11,240,245,42,2,4,5,2,3,230,232,226,21,7,11,0,7,253,3,12,13,45,7,2,0,19,242,255,5,236,253,247,8,4,14,237,243,8,230,14,6,1,6,255,252,235,32,218,235,6,5,5,252,4,14,255,225,32,251,8,1,4,236,251,35,8,235,2,249,253,5,220,225,12,17,255,229,8,2,6,236,231,4,225,37,2,250,247,1,242,18,11,16,21,6,11,247,17,236,250,31,2,12,249,253,0,14,224,23,8,255,243,244,251,10,249,217,226,14,228,219,249,251,6,240,241,4,31,17,229,6,240,3,21,222,246,0,238,233,3,242,248,254,225,234,18,6,229,9,246,255,23,1,254,7,16,230,240,6,4,13,237,26,253,246,229,1,252,250,2,17,230,37,14,246,246,2,245,245,218,3,26,236,223,9,4,4,12,25,242,231,218,32,9,7,244,233,17,22,21,225,216,0,10,3,10,0,237,239,230,231,1,249,250,243,6,242,15,247,34,4,246,2,236,229,9,25,222,226,255,250,248,244,17,224,6,14,251,15,251,254,13,20,232,1,227,250,0,251,253,243,238,250,27,9,19,3,5,252,21,221,34,255,220,3,250,255,8,22,252,32,0,245,220,248,3,250,5,254,228,254,32,230,238,245,254,6,12,227,250,244,251,4,252,1,231,253,5,16,28,220,7,5,11,26,16,249,233,245,218,3,253,238,23,8,244,247,248,39,247,2,4,243,0,240,43,14,227,53,15,68,217,1,238,236,20,58,236,56,16,15,12,242,26,25,52,63,7,209,253,59,9,236,242,228,219,3,196,17,221,230,47,70,216,35,235,224,22,2,225,224,15,245,250,1,250,215,247,253,249,2,221,34,230,34,226,52,200,25,39,222,182,29,245,233,9,10,246,32,63,221,172,246,198,219,16,43,45,28,14,34,210,234,243,50,228,33,17,9,225,58,235,221,54,33,72,248,28,69,55,40,29,5,18,29,16,5,223,234,17,35,53,10,45,35,16,55,29,9,13,31,0,63,52,21,42,236,24,46,48,244,53,36,237,206,196,213,40,221,88,220,5,197,211,45,228,35,7,10,52,255,66,49,7,35,49,208,237,7,219,254,240,222,52,213,219,210,214,213,226,37,53,234,13,207,249,197,206,12,38,249,18,38,55,237,193,44,39,21,234,217,43,0,255,235,224,215,190,14,14,232,46,207,33,47,1,243,61,211,243,1,44,201,211,246,12,29,212,250,208,211,3,227,16,228,217,235,44,0,203,224,0,190,184,249,46,16,234,34,207,201,204,48,232,43,254,46,4,246,235,8,232,19,11,4,254,33,248,227,222,14,246,255,1,9,221,39,174,1,37,55,216,230,232,25,235,201,39,247,3,1,25,40,217,219,175,157,41,37,210,12,28,26,213,22,20,40,11,7,10,31,4,252,231,4,17,81,41,232,240,217,8,216,240,19,2,28,26,195,250,12,253,185,255,29,195,246,232,241,11,39,173,70,248,252,16,210,235,229,218,234,254,244,238,22,45,13,212,223,246,26,253,11,31,237,27,248,252,31,24,234,0,239,193,197,212,232,199,9,239,253,47,244,230,42,9,214,23,202,205,23,34,255,67,237,247,49,206,210,54,6,182,39,230,227,45,50,19,5,209,176,18,7,83,15,242,5,253,26,216,57,241,38,30,243,21,249,6,207,32,225,29,226,208,22,206,5,201,88,39,251,233,11,199,217,16,200,4,222,241,38,249,47,33,201,220,41,16,24,214,68,33,222,216,250,87,42,18,242,220,40,38,11,11,6,29,224,250,54,225,40,28,173,51,227,38,24,243,7,10,18,219,21,47,255,210,24,2,3,208,12,5,218,10,5,1,237,27,238,10,46,238,57,18,240,0,56,213,43,8,246,253,26,212,240,5,15,11,223,46,27,252,253,12,246,38,220,31,228,41,66,78,233,254,25,15,13,42,36,249,253,215,11,219,30,48,233,224,11,224,223,5,247,244,3,240,30,59,64,24,24,250,219,242,248,245,234,241,253,225,28,33,47,253,208,242,16,18,33,222,203,27,31,31,183,235,41,251,6,220,2,55,254,251,17,251,253,58,171,9,18,21,225,224,38,27,18,4,8,7,188,225,9,242,59,27,20,244,62,250,3,41,231,44,16,249,202,29,212,196,26,17,0,7,199,49,38,15,18,3,212,33,39,3,1,48,254,235,219,248,212,242,248,8,246,171,191,232,22,37,240,20,27,35,9,3,58,47,52,232,48,220,226,205,9,14,206,254,2,9,43,248,254,235,202,254,44,222,23,204,226,187,38,189,24,72,6,10,214,52,251,44,35,236,244,49,201,212,56,248,64,241,229,58,254,244,29,234,190,35,32,22,203,232,224,7,11,174,9,0,13,216,43,7,12,232,243,241,231,255,246,248,242,211,220,36,17,32,44,222,215,6,197,245,229,0,5,244,223,215,39,244,45,211,77,235,0,35,28,255,198,14,162,26,247,246,30,40,249,248,248,237,244,51,56,196,25,251,206,207,208,245,55,252,55,3,249,210,217,185,1,34,45,32,26,38,0,7,223,220,67,250,27,54,37,0,227,212,61,26,48,30,240,211,199,53,167,208,249,245,223,20,38,5,242,16,13,33,209,55,228,222,238,27,213,253,15,248,5,15,67,192,196,21,211,250,41,52,12,10,50,218,231,42,208,240,27,42,5,63,230,6,193,222,234,47,36,62,36,28,40,214,36,250,201,14,214,55,34,15,35,242,4,201,59,233,223,204,246,254,21,18,26,233,241,52,252,231,43,242,252,62,219,24,242,203,3,229,19,203,223,239,44,3,36,38,42,65,32,34,248,207,233,233,22,22,12,226,10,218,30,50,40,254,234,34,223,65,205,230,58,206,241,13,24,212,237,42,69,25,198,255,22,230,26,234,36,243,10,39,53,212,5,3,12,227,53,240,242,38,2,225,44,17,214,36,58,223,49,13,0,213,35,213,228,255,33,16,38,24,11,21,206,26,239,53,229,252,0,0,52,202,3,220,209,177,10,72,200,232,246,11,47,236,60,224,227,190,29,10,16,254,46,220,29,23,234,41,242,68,1,251,205,196,46,228,249,8,224,244,1,29,35,241,181,64,209,54,50,204,198,12,37,253,214,211,228,249,1,1,4,252,28,43,0,226,9,244,198,251,1,52,9,229,203,253,249,49,10,223,26,226,46,37,200,251,241,249,244,204,15,218,4,222,208,183,206,55,12,203,219,44,255,245,226,3,160,4,245,48,11,6,184,226,234,250,235,245,240,31,2,223,196,7,33,31,216,235,236,204,8,162,230,26,212,251,224,27,2,211,200,20,232,7,233,225,255,202,217,30,14,241,199,223,50,225,248,38,239,12,8,26,229,242,4,211,57,246,35,12,17,5,245,23,241,27,253,30,32,238,247,45,246,255,215,3,26,2,245,40,39,193,189,13,217,233,230,252,55,251,11,37,12,15,204,36,35,209,218,203,24,235,40,3,226,1,240,227,43,253,217,195,198,12,214,237,24,29,47,21,196,201,235,223,236,0,28,28,240,215,38,244,40,244,10,52,5,62,206,52,24,10,20,29,245,19,240,25,14,217,245,21,7,192,54,45,17,201,23,225,206,9,239,37,61,246,225,222,223,67,236,11,238,24,20,73,4,43,238,254,241,58,25,236,230,201,247,44,246,7,53,238,210,38,10,2,53,208,241,3,40,207,187,241,235,255,222,4,217,39,73,224,14,221,32,62,201,22,78,230,6,31,223,229,251,233,35,255,35,50,239,243,21,12,221,54,239,255,247,33,225,56,226,7,64,71,44,69,2,252,56,239,222,67,88,226,30,10,20,55,50,240,242,47,21,243,45,217,236,20,245,66,55,49,237,213,26,68,57,47,39,44,226,12,239,238,240,47,197,51,63,27,26,214,241,11,223,24,43,240,15,228,228,53,5,254,39,51,225,50,1,199,48,9,44,252,49,22,28,227,19,10,4,17,1,18,38,20,40,32,59,35,21,57,65,224,50,25,10,37,0,239,237,64,223,89,251,253,53,220,12,55,69,211,61,18,238,42,232,218,50,56,13,45,16,22,11,2,59,62,51,252,250,13,220,34,253,5,86,51,213,2,248,221,0,246,239,21,243,204,216,234,14,26,43,45,68,219,208,35,222,252,54,230,38,254,6,7,205,229,235,254,244,51,34,234,7,6,20,237,220,249,218,46,20,198,19,240,236,57,33,227,251,41,34,229,11,12,1,26,248,48,250,25,11,241,5,240,248,49,255,29,236,7,224,3,25,38,1,27,252,206,14,229,209,215,41,252,232,201,241,255,248,250,46,42,55,4,34,32,18,230,205,1,59,223,32,3,197,252,36,36,216,248,57,251,8,181,222,254,0,45,225,207,1,232,46,211,8,17,50,206,32,214,223,27,249,245,229,45,42,24,239,11,203,253,8,248,32,1,60,214,228,12,230,23,5,249,208,42,30,228,198,12,21,37,214,254,203,249,183,15,237,20,16,48,228,253,2,6,45,12,225,18,21,227,198,224,6,197,221,190,62,219,235,39,9,20,205,226,39,9,239,27,58,15,219,15,174,210,28,208,249,25,203,213,18,130,189,208,212,22,31,243,244,246,191,252,236,19,237,21,25,237,14,255,248,226,253,54,250,244,247,196,2,20,65,57,243,250,4,209,234,216,242,7,223,225,211,5,230,248,213,35,229,32,203,2,243,209,241,252,43,241,21,9,32,234,245,29,0,223,22,237,248,52,235,25,198,187,27,22,24,35,245,39,9,224,194,252,6,222,22,6,249,207,14,225,202,237,209,27,208,255,250,0,2,4,84,218,246,232,80,244,19,242,225,227,234,18,47,243,54,250,227,255,13,30,182,231,14,222,214,190,3,27,58,22,33,238,37,26,239,23,17,49,40,241,8,27,8,224,245,73,0,230,240,247,247,242,39,4,238,245,36,36,0,7,8,216,233,30,30,19,26,250,23,56,206,12,24,207,222,229,248,54,237,192,174,214,29,222,14,216,70,247,17,61,9,25,21,6,21,46,35,24,232,12,22,26,232,48,35,35,57,50,23,58,50,39,213,234,231,26,33,8,2,250,203,14,35,217,242,230,2,13,2,48,232,235,25,60,234,17,13,232,252,207,244,4,20,6,19,252,236,220,25,22,231,227,232,247,64,221,15,211,7,19,198,217,26,9,238,220,215,40,210,49,5,77,217,63,202,30,16,57,245,246,249,26,234,43,44,48,253,255,254,6,223,245,193,7,17,215,31,222,13,0,224,202,252,79,42,255,237,14,247,210,49,17,24,49,237,248,240,22,224,225,237,233,56,226,253,228,237,255,229,1,4,223,236,10,41,39,51,49,29,224,30,241,239,14,233,36,228,234,64,238,40,57,194,32,6,1,4,4,51,214,35,62,223,244,53,40,14,37,3,245,64,243,42,224,11,35,26,9,55,250,202,222,46,33,40,24,38,223,211,228,6,31,23,227,6,246,37,44,221,0,55,0,249,250,252,225,254,6,224,228,225,32,224,53,230,45,55,44,221,235,223,1,36,24,230,19,53,12,243,61,21,228,29,63,33,34,14,237,199,230,35,229,20,204,246,214,47,234,9,25,216,255,26,29,206,215,8,239,235,211,46,45,201,221,192,198,241,37,23,2,210,7,215,218,226,236,189,0,186,244,9,9,3,228,223,4,241,222,210,41,54,214,180,20,197,237,212,11,211,254,21,253,10,235,16,22,250,243,209,205,192,9,229,28,208,46,23,230,243,161,42,12,250,213,21,31,57,221,254,48,42,8,255,220,199,10,183,225,30,230,45,253,10,209,226,255,197,11,247,184,207,249,220,39,252,242,209,54,20,13,17,45,209,3,195,228,11,216,7,230,54,19,1,224,17,189,215,54,215,39,18,171,15,243,19,5,226,19,14,3,22,50,43,200,22,251,248,22,224,244,9,217,227,3,4,196,216,240,169,39,234,4,234,63,35,17,37,224,233,212,216,255,12,254,223,215,227,218,67,212,23,32,45,247,212,189,51,16,26,39,249,24,229,245,220,244,57,20,238,218,231,206,14,203,32,56,253,28,198,40,245,234,216,8,30,213,206,33,198,242,225,232,84,62,17,248,10,10,231,9,255,244,226,40,28,194,16,44,54,1,46,71,4,228,1,50,32,228,11,44,27,242,231,250,253,240,59,0,76,241,249,210,240,36,240,46,35,1,36,236,233,247,51,230,31,214,52,230,240,193,2,34,47,53,255,57,17,52,225,23,40,206,233,199,60,22,10,226,186,227,233,33,218,252,36,54,212,28,29,254,247,250,81,19,7,10,200,229,50,247,25,1,228,27,238,9,9,12,208,18,27,239,42,209,202,27,223,19,247,80,32,220,8,47,207,33,14,248,79,3,44,44,248,48,49,226,4,235,32,48,223,1,26,4,231,240,66,53,25,22,242,238,42,18,0,53,43,52,55,8,234,232,64,0,9,209,33,212,55,246,10,27,7,216,26,54,239,22,252,226,230,77,239,39,19,234,204,28,10,246,68,46,25,25,46,19,235,40,31,242,220,35,33,27,247,23,194,249,35,21,19,45,247,194,212,217,4,58,201,11,49,227,209,244,6,214,21,224,225,12,190,36,218,244,37,240,38,50,6,243,230,196,16,62,41,36,10,225,20,80,41,54,43,247,226,207,255,59,9,194,17,66,215,246,28,253,38,243,248,237,17,248,1,246,23,236,234,215,30,25,3,22,30,245,226,254,251,20,64,12,237,22,236,63,18,199,13,206,222,230,201,247,252,36,25,223,255,50,189,51,239,27,195,208,231,241,49,210,238,229,238,23,33,14,227,2,21,12,2,3,237,196,19,202,242,32,212,202,42,71,33,32,237,213,246,16,204,12,37,219,7,30,205,192,224,217,240,39,23,201,37,32,32,221,42,254,36,221,41,219,247,243,252,18,247,66,222,239,59,240,239,162,52,255,206,8,211,49,15,30,249,199,240,40,56,24,241,180,227,207,228,247,225,1,38,220,248,235,187,198,26,238,196,28,220,196,29,215,218,27,230,206,2,236,236,30,250,10,24,184,222,252,49,239,238,183,224,235,7,209,249,0,206,13,17,194,24,37,7,12,4,247,248,215,202,55,34,37,197,2,37,214,179,252,226,31,223,254,33,3,235,213,222,24,221,254,41,39,212,245,217,216,6,36,216,7,228,211,237,19,248,216,244,60,232,237,58,40,185,4,248,10,36,248,219,50,51,20,229,222,18,239,242,28,237,53,224,30,13,227,218,252,231,211,46,251,54,243,243,230,17,221,33,56,239,41,4,230,12,223,254,231,30,238,32,228,36,225,199,247,217,5,220,53,253,13,220,6,44,22,239,241,81,224,238,21,255,36,202,58,183,12,227,209,1,232,45,50,45,10,238,24,6,45,241,39,183,244,47,248,236,204,51,18,45,22,41,224,39,234,208,213,233,37,177,38,215,37,21,12,242,242,200,180,199,4,245,222,30,9,242,21,182,53,0,40,253,80,249,30,196,223,17,36,41,246,244,212,48,11,227,21,242,39,228,25,230,67,15,253,41,35,33,250,4,213,252,198,228,48,211,226,198,230,7,0,220,6,17,231,40,7,241,211,220,36,230,224,40,250,239,30,10,226,206,242,74,23,250,222,17,250,220,239,197,49,32,33,251,226,4,27,228,250,253,221,239,205,227,253,228,213,215,1,215,30,240,23,27,13,13,9,8,47,3,251,55,215,201,22,20,51,1,40,5,29,198,215,254,36,255,51,28,40,49,9,22,254,226,59,244,242,8,242,190,10,249,238,201,32,225,218,24,201,9,43,50,61,53,24,248,244,245,1,234,213,53,30,27,17,38,49,224,52,3,59,244,72,248,13,248,51,36,248,209,40,52,215,203,27,21,43,214,224,30,11,208,7,5,248,204,31,13,27,253,237,60,255,241,17,231,207,239,7,19,240,3,21,233,49,11,227,31,252,250,18,226,218,222,2,240,18,13,240,251,15,26,55,250,41,61,32,239,228,57,237,24,62,21,26,3,239,249,15,34,30,54,4,15,228,11,28,14,231,10,51,53,19,223,10,244,244,13,246,245,254,44,231,228,28,47,10,1,14,235,48,6,246,243,252,21,218,10,252,254,238,20,15,227,45,32,70,22,7,193,213,28,28,224,76,52,231,228,242,44,243,236,15,249,68,234,30,230,224,49,216,34,26,238,239,11,205,1,30,2,0,28,16,195,249,7,23,226,246,245,23,34,234,36,18,247,32,227,236,54,33,206,246,23,192,39,5,25,43,1,195,15,247,240,32,233,13,60,58,32,68,1,16,33,34,239,47,246,3,254,228,195,224,227,27,60,241,193,238,30,50,246,46,5,31,35,1,12,37,232,20,222,215,36,246,24,13,3,15,31,36,220,43,31,220,18,51,12,34,45,225,24,228,41,17,229,254,7,249,7,11,49,229,44,238,237,9,50,43,26,38,39,8,226,225,22,250,11,67,17,20,67,204,22,245,251,244,43,215,198,39,230,243,4,20,228,60,9,4,20,199,13,32,1,214,33,224,38,27,213,243,234,48,255,245,247,224,1,232,9,30,49,10,5,30,246,18,203,250,55,8,19,253,48,7,249,254,255,28,236,33,225,10,22,251,227,7,53,219,210,240,241,214,247,37,254,22,235,6,49,231,22,4,25,246,246,0,21,5,247,229,238,12,189,248,14,253,13,2,17,205,249,26,0,245,8,23,2,52,237,8,197,56,48,30,255,36,238,198,239,35,229,225,251,241,183,5,4,43,63,249,237,31,223,212,207,226,234,12,222,250,12,28,8,36,239,31,229,255,245,33,229,174,49,228,213,16,219,20,235,30,175,30,245,43,222,53,1,233,20,203,36,216,12,35,8,241,243,235,232,24,208,35,248,10,48,15,37,210,7,231,12,13,11,36,247,201,194,253,12,10,28,16,15,236,24,236,249,11,251,245,19,14,8,227,164,237,217,247,63,24,24,16,31,185,23,234,232,16,229,52,19,242,225,255,162,234,231,230,30,35,24,158,26,14,35,216,225,221,243,224,222,251,1,19,11,223,13,31,199,2,40,202,249,26,20,207,41,242,31,36,224,242,47,26,254,217,221,230,252,28,238,227,5,29,251,28,246,48,23,229,243,13,12,210,220,249,7,240,245,227,6,14,36,251,224,20,17,212,240,248,239,237,1,34,10,254,254,249,205,242,4,15,9,34,37,9,25,52,234,44,0,10,33,9,230,27,33,26,33,26,243,41,18,237,11,237,232,49,200,238,64,30,40,10,253,222,17,236,255,53,45,240,235,231,203,225,16,23,37,38,241,13,20,26,222,243,57,34,247,43,23,22,10,221,220,51,46,243,6,11,243,225,218,234,66,38,28,204,16,42,213,243,21,6,249,64,2,252,28,255,42,241,75,21,31,25,34,29,238,21,42,73,233,255,251,38,248,222,51,229,5,254,34,64,11,7,42,237,15,235,10,242,16,8,230,231,26,84,252,41,34,217,39,242,21,235,5,217,226,42,188,212,15,243,241,13,255,195,16,26,247,232,37,26,26,20,222,72,224,234,248,36,238,60,8,233,45,247,5,245,28,226,47,50,201,245,234,22,253,3,250,55,39,203,254,2,205,235,29,246,230,51,234,22,34,225,22,36,17,245,82,217,28,250,250,41,8,50,5,8,7,48,237,12,3,25,15,37,247,205,247,229,33,7,9,30,249,244,252,230,224,197,52,217,245,219,251,223,226,16,242,26,242,247,230,37,204,23,224,216,233,218,209,41,249,236,2,224,43,19,227,216,250,0,229,36,17,16,53,222,226,220,27,23,26,0,243,6,60,245,190,219,234,17,14,15,235,226,9,11,50,18,236,13,15,236,66,21,20,31,10,11,3,203,17,248,226,22,207,0,16,28,26,248,251,40,211,24,215,2,245,255,217,234,239,216,241,251,248,225,253,13,240,31,8,228,240,21,11,255,23,223,214,245,219,249,231,17,12,42,16,228,24,9,28,5,245,253,37,2,244,233,203,233,219,253,5,245,34,251,237,213,45,210,231,20,238,228,43,211,14,218,247,236,2,51,4,7,8,192,242,243,232,214,21,46,26,217,202,46,238,6,23,234,252,222,249,19,216,240,237,242,231,21,228,250,234,250,219,230,246,233,5,227,239,33,37,33,15,237,250,229,241,219,225,217,27,205,37,4,223,204,2,39,240,226,249,251,13,41,217,239,14,37,7,5,239,58,7,209,243,233,241,12,221,250,6,34,240,222,216,249,12,34,12,246,6,33,29,211,221,7,4,232,37,24,28,30,34,228,209,1,23,55,9,229,13,24,14,12,238,214,69,45,2,207,37,27,243,220,0,233,243,231,26,16,35,232,254,57,255,18,220,250,33,182,243,10,15,41,35,37,211,13,4,22,202,248,228,2,47,42,213,13,237,244,59,244,236,237,6,228,30,225,4,8,214,16,239,252,24,9,1,201,16,4,199,233,231,236,220,20,241,6,31,247,254,44,244,30,212,23,219,17,44,40,238,243,242,249,6,8,11,208,227,253,6,252,209,227,202,26,228,241,188,4,222,212,221,226,12,13,225,47,252,10,212,219,240,2,34,221,19,231,22,235,225,235,27,53,244,0,195,36,20,13,221,231,211,36,46,36,228,26,222,22,45,209,233,205,206,36,33,1,4,204,214,41,29,200,39,246,225,207,241,25,206,13,240,7,31,3,10,223,28,237,15,12,254,30,15,27,36,221,237,212,244,20,4,15,226,5,216,51,47,226,55,198,248,215,61,242,254,3,1,235,203,30,215,11,204,255,219,36,251,208,216,213,215,206,43,211,51,58,250,12,201,231,28,10,2,254,81,222,4,214,65,213,46,217,232,62,255,64,205,10,29,15,16,18,17,30,220,39,238,23,246,230,56,87,17,2,236,21,1,228,50,245,15,62,243,229,208,22,43,26,3,26,49,246,254,214,220,35,248,74,36,4,23,226,18,230,52,227,24,31,45,9,255,9,249,32,36,43,28,29,57,24,56,21,201,16,12,81,215,247,212,51,11,62,250,27,49,12,34,56,28,21,51,9,22,235,37,21,192,237,208,223,7,3,11,46,3,235,9,225,6,216,75,236,44,223,6,19,39,214,4,81,217,40,221,230,200,235,230,16,67,11,25,36,228,38,8,47,36,75,25,68,255,53,28,35,53,64,81,202,226,48,22,43,224,4,234,36,245,60,242,2,45,248,49,62,237,230,54,39,247,14,209,248,0,62,11,23,64,225,48,226,56,71,227,46,251,41,238,45,242,51,6,241,42,250,247,41,229,217,22,79,198,248,19,20,2,35,231,11,30,0,46,13,41,47,46,197,31,40,175,228,241,215,33,16,255,230,74,208,15,15,23,241,254,205,14,66,0,8,194,247,254,43,48,4,18,243,10,8,210,4,26,33,226,6,206,0,228,33,5,213,36,236,251,209,44,8,241,226,27,255,229,255,220,24,226,239,246,200,16,238,13,246,7,41,19,61,231,252,231,232,9,24,5,23,20,215,224,17,2,205,217,242,253,231,226,33,41,254,252,229,255,231,19,39,26,20,44,18,244,206,16,51,253,28,232,50,245,19,202,2,244,252,27,208,205,213,235,195,222,228,52,27,201,217,212,190,26,213,3,201,238,31,21,23,16,185,44,231,232,230,50,17,211,202,243,18,16,220,222,48,46,33,248,205,252,51,5,211,52,55,231,34,219,235,7,231,6,249,21,196,220,219,32,49,7,52,246,245,5,212,11,15,195,3,215,239,243,225,200,187,29,77,254,228,47,52,16,205,232,29,216,210,204,35,236,246,181,253,232,31,209,235,39,226,24,197,18,52,238,52,219,16,59,255,239,246,18,247,30,18,62,36,3,213,253,219,11,238,14,247,38,194,255,245,30,74,28,251,51,236,5,218,216,245,29,43,214,193,43,43,251,4,252,19,245,18,3,63,218,33,245,27,213,41,242,230,5,24,252,50,33,58,7,8,224,236,242,32,243,252,243,17,221,214,23,237,238,229,233,33,208,28,209,21,75,223,254,221,12,243,14,26,0,39,40,10,193,29,236,201,255,228,71,14,233,9,5,20,15,215,247,66,244,3,4,22,207,53,27,202,241,21,62,35,28,218,40,6,206,70,47,248,12,13,213,224,31,47,2,6,235,218,254,37,59,43,44,70,219,6,210,16,1,30,213,203,227,30,250,249,183,24,6,229,252,236,229,221,19,21,49,202,30,15,242,41,27,237,240,0,9,4,22,52,237,14,226,220,49,246,244,12,224,33,56,234,243,225,1,199,44,213,45,240,215,237,220,24,241,228,221,241,66,204,42,66,4,25,35,251,75,28,210,238,57,46,204,15,210,12,40,40,249,45,50,3,40,231,25,246,23,6,225,203,251,27,24,8,249,227,252,27,47,35,253,31,41,247,4,220,18,220,36,13,252,21,30,240,28,246,198,5,43,233,45,217,19,8,216,199,47,203,30,230,8,252,181,204,33,221,241,236,59,249,219,28,255,29,250,47,206,40,247,24,22,4,219,219,227,44,1,1,28,51,234,18,44,231,247,225,217,200,67,59,224,7,3,207,248,243,239,5,208,215,9,32,28,251,45,247,68,31,23,208,50,46,223,194,31,13,59,52,49,40,210,250,13,37,39,34,246,23,234,14,254,235,22,40,9,34,11,39,251,251,41,202,249,47,42,200,22,41,53,14,230,57,243,228,224,28,15,214,64,11,248,20,31,243,234,249,250,201,251,215,253,43,38,243,229,210,48,195,25,42,235,213,198,223,32,43,1,9,236,55,23,208,54,238,220,200,16,247,21,204,201,194,215,226,249,20,20,55,234,216,240,25,48,209,227,253,41,46,212,21,38,196,11,242,251,242,10,223,214,16,239,11,238,225,241,65,214,230,233,245,16,35,57,45,54,234,202,250,35,23,22,225,23,228,14,174,54,247,225,53,255,232,36,171,187,63,13,7,3,6,240,58,17,231,39,203,53,23,55,47,235,188,158,218,235,57,253,9,231,209,224,245,241,30,234,215,19,235,215,186,213,26,196,249,35,21,29,48,187,15,226,238,198,5,216,47,7,229,234,41,243,253,12,6,27,27,168,219,4,36,41,11,223,202,37,207,236,7,183,198,46,24,56,27,254,216,254,251,28,183,235,3,40,198,34,236,26,221,223,3,244,216,245,246,211,13,245,47,239,216,41,232,249,241,238,3,44,12,23,50,23,20,39,240,26,213,25,31,233,3,223,222,9,46,4,235,235,247,7,217,8,234,50,197,213,249,30,232,247,68,235,237,45,44,34,211,36,235,233,214,247,251,12,19,205,243,52,38,44,16,195,28,224,28,35,80,250,9,46,239,54,215,232,25,7,41,239,14,47,40,38,231,250,87,83,5,207,229,201,11,52,234,241,7,40,241,248,211,34,26,18,47,223,241,213,49,18,217,221,12,7,21,27,227,244,207,220,50,180,223,14,240,255,6,53,35,25,27,33,21,87,230,41,250,250,209,9,29,23,31,20,12,40,242,204,39,42,255,255,236,13,23,43,17,33,83,222,49,8,216,209,224,47,229,57,10,227,31,236,230,250,27,39,86,230,80,248,221,38,220,38,52,78,237,38,27,13,22,34,245,17,6,254,251,4,5,235,47,20,75,2,225,7,43,9,231,12,37,234,33,16,0,230,36,231,250,9,231,234,56,41,33,51,234,240,251,50,71,75,6,24,240,211,28,12,39,45,8,7,219,239,25,15,2,82,246,37,4,6,3,218,25,45,24,37,26,62,239,6,23,238,36,245,251,37,13,252,237,50,247,58,9,235,24,48,215,5,208,23,37,24,239,19,235,254,30,1,214,39,1,51,223,37,34,243,221,240,60,66,225,217,236,8,248,29,28,33,46,254,203,5,220,242,29,254,56,26,6,227,233,247,51,41,251,40,230,30,232,210,247,230,254,18,67,43,28,205,249,70,70,197,49,230,245,214,203,244,22,28,40,48,224,44,215,216,12,247,208,14,205,1,232,225,214,8,57,65,222,0,244,240,17,20,196,12,47,32,18,36,19,255,247,195,9,50,200,242,238,52,189,211,173,247,30,34,44,233,38,227,236,253,14,235,195,13,210,35,189,233,246,46,214,21,211,231,38,46,227,198,231,1,51,252,46,225,239,208,62,43,251,255,21,44,242,254,153,197,240,245,71,214,9,239,239,10,7,236,34,25,201,47,195,247,164,245,230,20,41,211,56,220,30,215,33,2,204,206,241,2,230,3,241,2,17,22,42,250,38,214,13,236,42,214,233,9,11,223,232,19,7,221,21,33,239,16,62,253,236,251,196,8,255,199,40,17,15,38,229,205,242,222,212,235,47,244,32,21,241,52,221,246,0,20,235,16,231,24,195,2,238,32,15,18,232,1,7,189,196,19,6,213,4,252,14,250,33,255,39,5,237,20,214,248,229,253,14,243,252,27,25,39,176,253,248,58,236,40,214,33,61,251,238,14,44,234,209,34,29,235,198,14,243,34,196,50,52,39,214,32,12,9,9,2,209,10,214,253,31,28,205,226,192,229,36,11,253,44,29,226,18,3,56,64,233,244,45,6,220,197,209,47,208,14,34,233,235,173,231,20,225,41,197,220,233,29,239,196,68,207,235,209,220,242,53,5,237,223,224,214,186,50,3,36,35,7,49,15,246,4,235,43,0,247,46,236,226,228,198,24,254,227,11,66,7,48,209,240,238,49,34,195,235,206,242,39,205,15,246,75,42,246,27,14,247,194,40,23,66,21,5,8,245,8,212,42,212,251,17,8,197,2,54,202,41,24,58,251,33,28,21,203,217,56,12,43,245,62,35,6,23,242,9,15,54,240,211,233,34,52,215,21,59,12,222,212,204,246,218,231,219,43,44,19,208,245,42,231,29,15,54,255,234,250,37,43,52,254,29,16,232,28,214,18,31,16,234,247,59,34,252,40,29,48,14,3,53,29,36,240,6,243,239,32,245,249,19,57,220,21,22,51,14,201,14,21,10,241,20,202,58,196,28,240,251,212,211,8,11,1,242,226,27,223,216,250,251,239,35,16,12,241,4,66,211,16,24,28,49,61,216,13,236,206,15,53,35,5,57,221,206,15,41,253,220,47,227,38,255,249,42,202,233,192,251,32,210,9,41,255,244,225,220,22,28,227,27,25,22,229,44,38,205,236,222,217,21,31,17,226,16,22,7,20,0,34,41,29,222,216,2,39,31,246,238,233,8,5,27,206,47,40,11,45,9,231,232,14,5,227,5,5,254,229,9,252,216,248,252,220,15,60,255,21,254,253,241,235,232,223,19,0,6,15,16,20,250,18,212,52,16,228,250,30,27,6,220,223,26,226,251,27,240,232,29,19,29,251,251,27,38,240,236,18,3,49,35,40,223,4,23,226,11,9,201,28,251,223,225,234,20,31,6,24,28,23,4,243,249,34,47,31,247,48,21,1,2,7,244,23,220,217,219,5,210,23,232,12,19,209,253,249,244,24,30,41,16,40,3,25,201,235,250,3,38,3,47,12,229,236,234,222,5,255,23,11,24,8,242,219,44,6,22,231,249,25,23,234,7,251,248,249,234,216,234,241,14,235,247,5,26,216,238,27,20,249,3,216,18,209,246,219,228,251,24,240,219,17,240,252,219,241,37,44,15,22,11,224,51,9,235,25,248,37,246,228,2,46,38,38,244,215,11,2,26,227,5,3,249,249,247,254,239,30,26,252,218,237,53,39,237,5,1,229,217,7,252,0,30,243,246,250,12,219,251,6,21,35,51,250,26,9,227,38,21,66,17,250,245,52,247,226,234,14,235,227,13,9,235,243,238,0,4,228,228,206,245,1,255,25,39,242,2,241,24,232,46,5,225,60,205,41,10,36,7,13,32,249,25,237,24,49,0,235,244,49,43,245,249,2,227,1,20,241,217,215,237,214,34,240,26,28,230,234,17,252,213,15,230,30,251,1,214,19,28,254,25,218,220,252,18,217,244,214,29,250,245,238,50,241,236,42,45,206,55,45,11,28,238,35,224,35,4,39,29,5,11,13,240,220,215,22,23,44,247,249,9,255,11,42,34,9,19,3,33,8,49,241,31,241,251,232,238,13,240,221,29,221,28,22,18,228,229,233,255,225,14,253,41,41,242,42,250,3,29,35,49,32,27,232,28,235,230,243,251,251,240,65,247,254,234,222,221,1,253,216,232,226,233,1,223,31,245,8,235,24,225,15,17,253,43,9,250,250,213,218,4,249,225,29,39,2,229,56,1,245,222,230,28,7,239,22,239,218,251,251,22,13,244,9,35,254,223,2,228,241,212,246,223,28,235,45,232,255,214,226,242,8,223,240,242,15,8,24,31,2,36,17,43,9,10,242,27,213,7,222,231,205,14,4,19,24,227,43,241,237,25,248,234,13,0,226,236,9,30,209,220,3,229,48,250,18,249,232,13,250,255,14,6,246,208,200,212,21,240,227,247,232,36,21,246,212,37,6,23,19,19,45,11,203,22,234,249,52,35,13,18,240,0,38,13,225,15,237,244,249,31,6,217,230,227,17,52,250,20,224,225,247,242,243,241,0,230,5,28,24,26,225,254,249,37,11,21,13,23,34,236,22,21,254,21,234,254,5,21,227,253,231,8,220,16,9,3,26,44,206,234,229,11,242,14,15,40,208,243,31,0,238,15,217,61,229,214,240,251,232,4,17,13,244,215,206,203,227,243,20,0,243,1,212,12,5,243,248,237,33,45,50,202,246,2,213,17,16,243,254,46,252,249,244,28,11,237,40,40,14,245,185,12,220,243,227,228,55,242,225,212,235,206,194,37,25,236,236,222,215,15,16,16,249,33,249,32,47,17,203,233,7,228,29,37,14,31,237,23,212,222,230,15,6,26,251,215,242,29,45,40,7,225,235,250,197,3,3,21,18,35,15,234,5,23,36,17,5,43,33,14,223,249,239,35,1,236,17,239,215,219,1,11,34,10,249,14,230,230,232,236,220,40,5,27,252,252,252,0,63,228,234,255,27,17,239,210,12,247,210,240,242,233,208,253,229,229,216,213,247,10,252,236,60,223,2,42,29,46,245,5,235,24,11,192,46,211,8,235,245,11,38,236,207,255,244,250,5,11,248,47,222,15,38,235,5,27,255,238,43,241,243,36,220,249,28,241,234,46,7,215,28,50,5,27,25,19,217,215,227,48,16,0,255,5,18,228,215,231,19,250,19,36,30,241,248,17,28,29,213,223,208,31,217,3,0,32,62,2,45,6,252,10,223,25,230,227,224,30,249,241,229,229,211,48,231,63,241,249,21,18,53,238,241,44,216,32,250,241,20,221,254,235,25,240,38,249,232,38,214,28,255,15,7,243,15,9,12,238,18,207,14,250,33,241,7,21,34,248,219,50,38,2,246,235,248,231,22,231,25,238,1,233,17,246,227,227,45,241,220,242,248,45,229,27,15,232,244,18,3,21,18,35,253,231,4,221,253,19,3,10,37,9,209,13,249,206,3,249,215,226,50,37,4,229,37,0,229,27,7,243,242,40,222,208,251,29,248,253,30,255,200,252,4,184,8,184,17,24,252,251,57,242,27,254,51,47,26,6,234,195,210,227,22,30,248,11,229,8,14,236,198,12,207,4,245,27,12,193,234,253,231,1,233,27,12,227,162,224,253,216,211,254,45,3,22,1,206,210,209,241,200,213,46,203,244,241,227,210,24,214,8,215,251,229,215,10,64,3,238,218,230,248,220,55,224,16,221,206,229,7,8,193,8,245,31,43,3,15,31,221,170,55,220,249,166,28,48,66,251,170,230,174,16,232,13,231,198,19,188,29,249,49,13,18,18,218,246,204,239,223,205,15,2,1,20,232,193,212,3,4,241,239,8,208,227,243,236,26,240,32,230,206,34,231,13,68,203,26,22,251,6,248,178,1,211,7,31,219,32,43,209,19,5,28,225,229,244,249,254,19,191,234,43,218,217,0,36,222,253,221,222,228,26,17,42,254,225,236,211,43,76,202,238,242,253,241,37,193,57,24,215,13,241,241,227,243,26,248,76,196,50,216,46,253,202,250,244,65,223,20,213,248,5,27,206,67,27,245,253,12,190,4,24,19,38,76,224,225,5,208,208,228,228,231,5,197,212,25,249,14,7,237,221,232,252,227,14,242,197,21,180,82,255,220,66,224,212,20,239,220,253,84,188,11,4,211,216,38,24,2,98,251,241,18,255,249,38,42,24,42,247,223,225,249,2,57,215,38,240,31,37,240,208,36,241,218,251,244,228,228,244,226,33,241,208,40,76,14,206,194,243,219,53,240,6,251,249,254,210,8,21,6,1,249,36,63,1,251,1,231,240,251,236,7,77,229,50,227,37,52,226,0,45,251,253,224,10,196,31,242,62,250,20,223,18,200,211,1,7,29,17,48,39,210,35,247,46,48,31,227,225,230,254,44,35,246,19,67,17,227,21,248,5,48,218,17,255,32,39,214,5,15,245,250,28,235,229,30,240,230,32,220,233,240,16,196,239,38,54,43,200,4,4,9,26,254,2,231,18,16,58,31,242,210,250,205,27,203,199,0,6,48,28,218,2,22,251,199,215,39,16,32,65,47,214,205,3,232,219,252,195,218,233,11,4,11,63,79,38,225,49,220,3,244,13,238,9,18,23,254,249,14,228,227,58,249,247,3,249,247,42,213,10,249,3,233,196,241,12,220,18,2,246,57,56,187,52,218,215,185,206,29,47,1,235,207,232,44,208,30,229,15,43,240,187,250,0,22,220,247,67,218,5,195,254,30,226,228,17,247,249,244,182,246,18,28,54,30,24,11,217,243,49,230,4,209,61,3,221,23,230,26,41,230,28,28,58,235,214,4,6,49,218,232,206,232,14,216,187,18,26,229,14,8,224,223,20,232,49,27,54,212,219,240,237,1,245,63,50,246,37,42,26,231,24,1,12,43,40,4,211,219,32,182,231,52,217,31,222,42,66,232,190,23,35,166,227,45,223,39,18,246,180,34,73,0,54,21,252,222,20,182,210,38,255,232,27,28,223,23,234,1,226,235,235,37,21,234,31,219,239,174,45,235,223,4,0,204,249,45,197,229,252,20,240,206,252,35,19,231,230,199,236,7,204,4,215,45,23,22,191,14,241,207,18,176,27,44,45,32,28,243,199,59,215,248,46,7,23,218,235,244,43,28,61,18,27,186,35,41,4,43,207,20,63,55,28,4,8,217,35,231,14,246,40,3,215,25,239,59,232,17,72,251,38,248,223,237,49,203,226,245,51,202,222,2,47,17,228,246,51,34,232,16,220,215,69,214,199,12,62,29,217,198,53,22,216,250,217,15,252,247,19,240,220,43,238,16,4,231,19,46,243,4,25,230,9,206,19,53,251,250,43,36,10,3,63,42,25,6,211,244,21,1,239,5,13,225,58,16,56,0,253,241,230,254,52,241,13,19,36,44,12,55,3,224,255,39,225,30,43,24,39,56,6,52,255,62,22,45,13,72,246,248,32,8,37,215,220,241,205,19,9,14,67,15,38,221,42,233,213,231,17,23,16,42,2,58,32,243,232,13,37,241,37,5,232,54,234,251,249,4,33,235,239,220,49,252,221,17,215,24,224,190,191,27,209,40,7,239,252,3,15,15,208,214,1,213,37,31,243,231,228,242,40,249,235,54,39,80,244,36,35,240,228,43,234,23,6,39,21,213,254,207,42,59,59,28,209,198,241,3,7,218,250,39,235,17,220,240,7,203,222,237,26,36,229,62,43,38,249,236,240,230,249,207,21,219,0,255,209,243,253,219,13,234,26,51,41,52,227,234,210,13,26,43,9,243,11,6,2,217,245,214,35,40,9,215,205,211,36,14,27,216,30,236,22,41,32,227,249,48,43,226,213,0,10,13,11,230,22,209,24,229,43,53,222,66,221,48,16,34,31,19,214,59,28,245,39,234,10,241,43,3,51,6,254,255,253,255,20,224,230,237,2,248,3,221,247,242,249,250,25,2,14,5,247,226,214,0,238,250,252,15,7,244,247,6,7,240,248,3,9,13,219,237,245,219,5,26,16,3,254,15,6,244,239,248,253,10,12,10,218,5,7,245,255,36,6,2,254,223,19,228,251,16,235,9,248,8,245,254,12,222,246,9,10,253,2,249,240,222,230,242,22,8,14,250,6,239,226,10,27,252,255,6,249,4,217,225,4,28,214,1,250,7,234,226,238,244,239,15,251,2,2,231,17,246,253,4,222,0,250,4,227,228,10,250,255,223,253,3,8,229,241,0,37,227,223,3,7,254,19,221,227,240,229,252,1,15,243,255,237,222,248,245,199,247,253,6,17,247,242,236,243,228,6,255,5,246,9,242,243,255,244,7,21,244,5,223,16,254,205,238,248,7,253,254,216,13,234,210,254,1,3,253,239,13,254,245,232,205,5,252,250,18,228,14,254,238,221,5,17,250,230,232,222,233,3,219,2,247,252,239,212,225,239,0,218,255,251,1,4,243,6,246,226,253,5,5,250,3,8,211,237,209,222,24,255,255,7,244,5,254,232,255,12,5,251,225,217,224,233,249,214,255,253,251,4,9,219,242,210,9,253,244,248,220,13,214,6,1,223,8,7,3,14,248,220,248,246,230,5,4,255,250,230,248,241,223,235,253,250,3,218,224,238,228,9,229,255,10,245,254,227,211,245,221,228,2,21,0,231,217,239,242,218,249,5,254,1,250,232,220,15,221,219,9,241,1,229,224,235,0,249,252,17,2,6,5,238,241,243,212,0,1,3,254,243,248,223,250,1,237,249,252,254,238,229,2,237,207,219,5,9,18,254,253,255,1,209,245,3,252,253,11,17,249,240,213,249,5,253,0,1,242,228,255,201,235,251,253,4,1,233,246,251,226,253,248,255,252,250,3,3,233,243,253,251,15,4,244,231,237,231,203,9,251,14,255,220,1,228,241,220,216,7,15,0,237,245,18,233,239,22,11,252,10,245,219,220,229,239,0,245,3,7,244,229,236,234,223,221,2,6,18,17,254,228,233,232,7,248,7,4,251,222,10,234,202,36,250,250,1,225,224,5,246,240,224,1,11,254,249,213,245,243,210,26,16,4,2,254,217,248,238,215,27,255,253,251,6,228,239,2,241,14,248,2,6,237,226,255,242,250,34,11,253,249,236,234,214,247,247,253,6,4,247,236,216,204,249,10,17,6,5,252,235,0,250,245,226,5,4,247,244,233,228,222,244,14,231,255,253,4,232,235,11,7,4,247,250,3,6,233,226,234,244,242,230,6,5,252,249,213,242,17,26,246,9,5,252,250,15,221,253,22,30,253,246,10,253,232,225,227,245,238,4,245,247,255,9,7,7,225,227,5,8,252,243,224,19,242,2,24,6,18,246,1,224,225,245,29,19,0,8,2,249,246,15,11,241,255,23,252,245,244,255,244,10,10,254,26,248,11,7,245,248,9,237,224,8,5,255,2,0,231,248,254,248,11,1,10,239,5,229,6,4,243,1,10,2,226,251,231,12,239,240,14,254,11,228,218,17,2,40,10,3,3,251,231,255,4,237,0,230,15,0,248,255,231,246,229,239,236,17,239,5,238,2,213,227,244,224,9,250,2,238,17,252,252,21,224,6,248,252,244,12,232,247,219,2,14,14,250,23,243,5,242,233,16,3,241,246,17,241,218,231,9,239,14,1,0,237,244,227,251,7,220,14,13,2,226,244,243,255,241,255,13,7,252,227,228,233,244,225,2,0,10,247,235,222,15,224,223,238,248,245,240,4,238,4,238,215,13,254,11,10,235,18,245,229,5,214,11,1,248,254,238,223,231,9,7,4,12,0,234,5,249,250,243,208,26,14,1,254,231,216,240,233,249,1,247,0,233,225,245,221,245,12,10,7,8,249,223,8,229,249,231,1,246,7,242,234,231,218,246,226,239,231,9,1,231,210,16,1,205,249,12,253,247,237,224,225,223,212,247,253,9,238,226,218,250,219,14,7,6,255,228,243,250,236,251,221,251,2,3,233,236,12,248,233,211,9,7,9,245,13,15,249,6,211,4,4,255,242,5,6,219,239,221,252,2,4,243,239,230,234,215,249,244,4,252,249,234,14,222,215,16,243,10,255,246,224,234,254,238,218,16,8,9,236,248,5,244,249,235,253,14,248,254,241,252,230,223,8,251,250,9,2,221,245,253,216,232,8,249,244,8,226,226,7,233,4,5,7,255,10,231,20,8,247,233,0,250,8,237,230,235,246,217,240,6,1,241,5,228,254,8,247,17,5,255,249,225,17,211,252,2,234,250,5,243,9,225,253,7,221,236,3,6,247,242,14,228,237,1,12,253,255,247,235,241,217,229,241,254,3,7,21,239,229,18,4,254,232,250,7,241,6,220,226,210,39,188,213,17,22,38,245,7,215,215,199,210,233,12,58,229,202,239,201,172,209,221,221,213,31,45,29,246,227,228,239,219,21,218,59,11,194,167,199,202,231,245,241,4,13,244,197,226,242,197,2,6,8,200,218,210,223,236,255,250,11,197,35,10,174,8,242,33,220,204,228,209,230,212,165,209,230,220,45,47,225,234,250,192,12,5,42,48,213,247,1,30,3,69,42,34,237,50,192,196,15,200,199,236,1,57,213,42,21,26,25,229,4,21,218,30,200,26,235,191,254,253,15,253,236,6,201,236,255,226,244,232,13,8,0,254,249,221,219,204,250,206,16,14,33,246,3,8,79,12,12,243,45,255,248,45,231,201,251,0,48,255,11,64,255,223,243,219,3,30,55,28,13,242,32,244,231,220,219,68,1,72,38,230,53,25,24,236,13,248,5,250,31,215,212,31,254,243,248,63,237,65,37,223,251,228,221,253,9,227,43,23,40,3,232,32,29,76,255,247,23,204,53,255,53,75,14,14,20,27,245,41,219,0,17,67,214,243,43,45,252,246,45,71,41,233,252,196,19,56,42,54,242,48,247,243,3,234,249,0,30,56,23,2,205,4,249,17,42,16,12,15,204,52,218,58,224,251,6,62,57,234,220,226,239,224,245,33,49,86,29,20,233,23,224,219,6,39,70,251,15,10,251,241,212,232,5,26,37,17,34,50,255,69,234,1,4,15,1,46,30,218,1,49,28,61,223,252,25,205,7,239,240,254,67,33,40,228,54,32,9,36,66,91,43,200,16,12,0,231,6,41,13,11,18,24,45,219,56,236,26,253,47,217,214,235,230,29,251,238,49,26,246,21,234,255,56,39,254,226,191,243,234,69,252,249,76,247,209,222,225,246,13,38,18,24,254,38,10,236,248,37,236,5,30,45,199,26,21,22,42,20,56,245,215,233,23,247,2,15,11,241,39,238,194,8,194,237,232,227,35,32,8,217,13,183,244,32,2,237,15,236,214,30,251,39,234,11,215,5,36,15,45,255,38,19,244,244,48,196,190,58,173,195,15,19,41,69,206,220,203,19,242,41,14,204,7,232,166,232,30,225,17,53,209,21,204,236,38,209,229,219,45,244,75,22,164,252,232,189,47,42,40,42,220,202,211,219,56,18,51,0,251,247,195,223,7,12,32,246,248,29,31,234,252,7,240,4,213,10,66,228,21,239,248,6,239,235,25,13,218,251,241,189,250,54,255,34,246,39,16,188,228,29,8,43,0,227,198,179,200,220,11,60,222,33,6,214,15,11,249,27,35,218,26,47,209,17,223,28,52,0,52,22,30,190,235,203,57,194,208,238,244,41,3,197,252,243,213,255,11,46,30,219,239,17,252,3,211,210,248,6,242,199,33,42,10,0,206,227,64,9,209,6,230,24,6,36,225,57,221,25,14,44,199,38,237,244,13,200,227,244,251,78,217,34,5,13,225,212,215,223,20,243,5,223,2,229,253,213,254,4,254,25,255,227,4,20,216,50,229,61,233,243,218,254,230,227,20,212,39,43,3,252,28,247,222,209,194,252,235,24,239,250,7,251,31,206,234,36,24,41,254,33,1,22,40,4,251,235,62,212,21,232,24,42,236,195,23,39,16,38,240,248,242,74,240,210,10,16,224,44,28,4,26,250,54,220,6,29,33,4,252,216,11,54,250,15,14,233,2,29,245,7,43,234,20,2,0,236,241,242,15,26,3,4,37,34,234,238,27,217,14,37,61,9,4,226,53,249,224,12,61,63,23,242,54,63,249,35,1,70,5,235,7,34,246,58,233,19,25,67,68,237,236,24,55,220,247,52,231,69,249,248,215,27,243,235,45,220,77,252,248,32,19,58,225,217,222,40,10,191,197,3,224,47,30,28,65,248,230,7,228,253,223,54,47,235,237,232,216,244,245,9,39,27,63,222,40,250,51,249,201,27,20,211,14,254,217,33,197,14,232,31,42,44,216,48,234,206,233,239,0,12,66,12,251,10,32,49,34,31,224,238,3,23,50,44,13,221,33,33,4,66,248,61,32,208,75,205,222,220,221,23,224,217,36,25,26,228,47,13,11,30,58,42,45,46,24,59,11,29,16,245,31,224,35,242,12,26,254,247,239,250,51,241,1,227,27,242,255,246,240,49,61,250,188,39,229,21,54,244,27,230,0,194,235,6,66,227,46,218,208,21,7,215,227,254,214,250,210,45,37,247,237,241,68,69,242,247,254,209,22,227,34,18,18,228,31,9,216,41,11,15,211,19,33,231,243,229,247,51,234,3,208,5,247,37,34,239,208,217,56,212,8,41,33,5,219,19,247,230,39,218,37,239,14,215,34,203,28,59,40,13,213,249,65,22,48,42,0,225,3,240,29,2,233,16,5,53,216,47,228,32,236,253,72,42,42,25,25,213,253,252,3,10,226,30,44,250,232,230,245,34,239,10,241,238,24,244,214,231,232,249,248,213,245,236,202,226,241,0,226,216,236,12,251,231,173,207,247,240,249,24,235,15,192,236,232,4,232,237,22,52,217,1,249,242,226,11,245,215,222,4,25,254,197,2,251,24,229,228,18,26,167,209,228,224,254,26,242,10,15,186,15,3,20,27,59,47,241,9,185,235,8,21,15,18,24,232,255,7,244,230,8,6,232,217,251,61,208,0,213,17,41,242,45,14,25,10,248,232,39,23,50,244,6,23,18,9,27,246,31,7,227,19,17,226,13,7,8,38,40,26,59,52,238,236,250,7,3,13,4,39,57,252,250,38,245,245,248,14,33,11,214,7,247,13,216,2,249,59,249,63,22,217,0,12,245,35,19,20,32,15,223,73,37,49,45,57,46,34,224,63,0,31,21,8,25,227,1,245,235,23,31,38,227,93,19,40,9,26,242,241,254,250,56,27,78,248,237,244,31,14,40,33,64,15,253,239,9,247,9,234,253,49,51,19,218,222,57,14,20,20,30,33,252,10,247,47,21,236,24,15,1,50,237,251,46,51,49,246,251,90,50,228,75,15,221,234,33,35,40,4,10,202,34,6,37,21,253,56,10,250,233,11,234,42,39,241,20,211,2,1,13,245,45,217,9,76,0,226,16,43,243,230,239,247,61,228,236,228,241,224,246,216,39,69,14,254,19,20,20,227,232,17,23,7,6,241,34,245,0,231,16,51,22,254,250,16,11,16,248,255,61,229,248,220,241,0,29,21,42,26,255,29,219,1,28,237,31,250,41,239,231,15,34,26,12,62,28,35,12,240,240,235,227,234,254,212,245,223,6,33,238,229,9,9,248,252,252,238,232,11,10,251,29,241,251,10,241,243,241,19,0,52,231,199,32,31,226,253,16,222,38,201,238,237,37,222,250,19,0,52,236,209,3,1,218,43,47,50,47,225,174,189,241,250,33,229,26,36,230,191,187,247,224,246,225,19,36,161,244,234,217,13,251,229,3,17,226,200,218,209,244,11,7,6,209,187,239,246,37,4,234,241,26,17,198,182,250,244,248,30,253,15,42,213,241,227,21,238,238,57,33,240,1,223,218,244,224,17,191,28,202,204,3,16,2,56,11,10,2,218,207,213,245,236,31,233,245,12,210,20,11,210,5,216,22,43,14,218,28,210,11,245,234,7,38,211,2,234,205,29,253,228,239,255,220,30,12,37,18,229,1,37,248,10,253,249,206,210,253,38,253,239,13,237,48,240,28,206,249,43,26,2,28,37,243,229,239,32,37,4,58,21,40,247,246,18,253,253,7,235,253,55,26,34,230,226,13,254,247,56,217,29,4,241,225,34,30,246,4,249,26,41,241,40,43,238,236,47,240,34,13,208,223,7,215,217,42,32,56,1,250,20,41,2,222,3,220,254,10,245,7,231,47,219,240,254,53,5,38,33,4,40,220,17,235,250,245,2,27,18,202,13,16,14,41,14,25,13,25,230,1,10,211,28,28,37,28,32,226,24,53,209,216,237,24,208,244,22,14,94,3,53,255,255,5,23,42,250,68,217,250,7,13,248,1,237,222,255,218,246,14,35,236,220,235,0,19,245,42,44,236,11,36,221,32,24,4,3,245,44,29,43,5,233,249,19,63,196,219,10,235,31,42,28,16,238,9,23,33,35,3,7,19,30,26,31,38,249,28,42,30,5,10,20,6,247,247,50,15,227,24,4,46,3,2,230,7,19,7,6,253,47,19,23,3,252,241,33,32,50,39,17,244,25,36,23,14,39,56,35,253,31,17,43,20,255,13,16,240,222,9,23,28,233,215,239,11,13,222,3,17,28,24,227,18,45,254,232,43,240,8,30,24,28,34,37,217,11,34,7,230,239,244,21,246,238,2,247,247,33,13,36,49,29,247,244,28,234,223,54,27,244,11,13,36,209,12,29,46,16,241,12,46,57,248,49,28,30,241,18,20,3,36,26,29,7,236,43,252,240,235,254,230,33,7,20,44,34,237,232,6,7,32,25,218,49,209,239,213,41,254,246,236,33,23,211,29,249,237,19,56,224,222,46,232,250,0,246,216,10,6,252,31,220,3,245,6,20,39,6,231,223,214,251,246,18,0,19,244,23,235,8,232,213,244,200,0,235,252,36,17,240,236,250,244,43,235,210,29,223,254,231,4,3,35,11,24,18,224,54,241,2,7,27,216,13,249,29,227,8,21,232,251,228,228,17,38,222,248,243,14,35,4,33,28,26,21,255,15,5,235,0,55,11,226,38,235,254,229,61,29,28,27,249,241,254,241,242,34,215,18,252,215,31,221,243,196,40,18,52,246,241,214,240,248,246,243,214,53,234,43,49,240,237,251,35,36,228,253,218,20,248,7,29,65,211,255,252,4,42,210,39,237,235,21,26,19,223,218,239,11,25,208,207,222,206,17,250,12,34,222,244,215,201,209,12,33,221,240,3,9,235,236,45,221,247,248,229,38,46,44,240,30,45,247,242,216,212,211,48,243,45,221,216,21,7,46,250,241,241,254,219,234,225,225,46,35,44,240,35,27,46,219,217,228,249,43,231,32,187,25,3,210,33,40,252,240,24,233,42,233,12,236,25,49,243,183,11,31,16,0,9,244,37,224,214,236,23,233,247,242,248,11,22,219,9,221,246,24,240,3,254,247,242,207,38,34,245,203,237,206,231,251,16,219,203,12,9,239,214,51,244,12,254,207,199,253,243,4,239,191,14,235,6,254,45,5,32,10,199,219,16,254,2,37,243,33,228,32,26,23,196,15,28,219,219,217,254,41,249,223,243,194,248,9,211,16,223,48,224,179,17,28,224,35,19,225,52,24,16,28,250,225,9,215,24,227,236,201,28,51,30,55,44,51,46,214,4,34,212,231,252,8,39,242,221,21,248,234,21,224,216,29,222,230,15,252,10,254,2,237,65,39,242,244,214,243,211,50,229,234,248,204,254,17,36,52,37,38,57,207,240,218,22,229,209,213,13,245,26,232,48,8,14,25,202,48,34,7,249,60,249,24,229,245,207,1,42,202,14,240,29,233,216,9,227,219,34,24,243,250,30,216,35,21,216,29,17,15,211,247,15,249,235,226,18,2,219,42,39,22,254,233,203,208,5,221,13,44,39,2,245,245,22,44,43,46,237,211,45,39,252,226,21,229,8,252,0,228,251,221,245,235,6,25,0,223,4,23,210,250,233,19,9,21,31,211,7,39,22,14,252,25,224,236,237,255,42,243,244,22,31,211,12,12,2,28,18,62,24,25,44,8,241,64,29,33,26,232,46,4,237,15,78,53,71,233,11,46,222,11,202,246,10,4,230,244,5,0,253,17,83,60,31,6,254,240,247,8,6,54,54,251,203,246,234,39,27,209,29,216,11,207,48,253,13,223,234,94,225,41,40,14,227,229,244,15,82,226,241,41,176,244,37,248,53,6,210,43,222,230,38,37,23,245,247,255,64,244,34,234,218,217,227,244,222,248,238,53,53,35,56,223,30,23,236,13,44,223,33,48,34,41,248,239,254,242,236,238,212,32,229,0,240,26,248,237,22,41,61,15,252,46,207,11,231,225,26,55,44,18,4,51,10,22,222,218,41,219,23,250,61,243,198,244,247,242,212,254,243,8,60,237,219,34,65,217,40,214,16,3,55,33,253,38,243,9,205,246,42,241,234,216,251,25,217,232,22,46,252,243,3,212,225,223,218,27,240,247,11,9,230,211,231,245,238,37,204,41,33,189,27,22,199,73,19,205,35,247,198,254,12,213,3,13,204,25,223,224,188,234,211,205,244,44,204,53,216,190,188,241,1,11,230,211,41,247,219,204,230,253,26,241,23,19,249,253,231,222,30,241,13,25,48,13,199,4,211,221,234,215,37,227,33,202,244,206,236,220,14,47,10,10,16,211,205,249,198,233,39,36,225,219,228,199,18,255,234,252,216,203,252,230,252,16,206,5,245,245,17,249,214,235,35,13,34,246,37,2,35,249,216,185,1,199,38,1,17,240,36,246,42,66,31,22,209,215,187,217,190,38,199,198,41,29,201,46,188,58,255,204,249,46,229,252,226,200,219,9,85,255,7,196,228,198,229,189,233,29,242,239,201,230,192,32,212,244,28,32,209,247,20,18,224,245,46,52,48,216,224,6,31,243,1,240,20,216,212,46,238,216,205,251,53,16,40,21,34,207,5,33,46,9,21,210,252,13,213,245,17,34,206,41,16,56,22,46,239,30,220,21,250,201,13,216,31,6,218,176,254,235,193,40,4,194,206,254,16,201,241,214,224,27,19,47,243,21,3,234,204,220,45,218,43,211,33,242,196,38,18,30,251,252,22,242,227,20,226,46,41,252,35,12,225,228,221,195,250,216,233,55,216,250,27,32,238,200,202,9,14,241,55,230,231,45,42,244,50,240,220,230,227,0,3,38,26,13,228,234,250,2,208,199,30,252,20,56,59,45,23,14,253,48,17,230,54,217,24,244,47,254,39,32,239,41,229,9,214,40,213,246,31,250,219,42,69,12,213,196,22,30,224,247,250,220,211,23,31,22,43,54,224,35,45,172,20,214,47,49,13,254,40,26,23,235,235,25,18,233,59,44,225,10,42,1,52,224,5,34,48,222,18,64,12,47,29,231,226,46,22,32,249,3,214,250,251,218,247,224,48,247,197,227,218,219,61,43,210,31,21,241,203,43,246,232,236,38,63,49,222,0,203,19,48,228,12,185,16,235,246,223,244,222,226,221,27,9,194,214,239,247,8,230,5,254,238,202,225,227,248,228,45,248,251,21,8,230,225,255,6,235,25,231,8,211,18,43,210,9,20,16,29,227,247,14,39,248,201,13,29,27,22,229,42,213,223,33,210,7,9,233,244,254,35,254,213,1,232,219,238,19,234,251,233,210,212,243,236,242,221,239,205,7,34,8,1,250,234,210,27,255,248,231,195,244,33,229,249,228,42,250,31,206,253,16,236,5,15,18,41,208,254,236,233,255,210,224,244,214,29,6,222,227,2,217,23,24,22,206,233,250,23,225,238,23,5,16,42,13,5,255,222,218,2,254,209,26,47,237,9,227,240,24,237,210,223,203,226,1,217,255,228,233,0,35,38,18,224,243,235,255,242,19,5,250,17,228,22,240,252,4,242,237,221,19,30,19,225,36,21,241,10,199,10,213,231,219,3,232,26,44,32,243,40,251,251,40,230,7,43,22,251,229,4,38,221,211,242,209,26,0,234,9,222,229,37,4,222,33,20,1,1,250,15,215,28,246,29,1,9,225,234,46,225,244,19,241,3,252,23,220,240,5,4,249,11,249,6,238,41,211,204,217,233,218,13,40,11,239,212,44,235,43,233,38,242,243,226,240,35,235,248,30,233,42,224,228,227,3,23,239,233,24,253,27,38,222,2,12,42,45,23,28,6,218,236,247,5,224,234,35,4,11,15,243,42,27,16,11,4,13,26,26,47,217,42,27,252,221,13,227,241,10,238,17,40,45,220,242,30,254,37,44,212,237,229,21,244,4,233,206,2,210,248,40,249,14,253,255,241,10,208,231,14,23,236,250,43,39,245,1,39,240,212,8,231,23,255,245,6,2,240,5,34,15,6,25,20,209,20,221,5,245,231,217,34,215,217,236,35,15,254,233,210,232,252,210,252,19,234,32,247,207,37,13,212,7,35,236,18,12,252,7,242,6,4,236,230,11,24,18,242,221,228,226,248,229,253,22,241,15,242,19,18,255,253,223,235,28,220,30,38,230,226,231,7,29,2,41,237,15,245,219,0,8,28,230,209,208,4,14,20,232,32,3,19,211,237,7,230,254,2,250,19,27,225,8,14,207,29,225,235,30,30,27,255,244,195,13,241,37,12,226,240,25,213,238,48,1,31,7,38,245,254,228,201,38,246,2,222,45,218,243,252,16,195,243,4,249,15,3,41,23,211,22,221,17,33,254,28,248,226,247,22,237,2,34,234,205,227,3,198,10,217,13,227,0,11,37,15,213,236,236,252,253,228,15,228,249,235,25,20,233,0,241,13,39,218,43,33,11,236,14,214,36,41,203,248,230,223,11,252,11,8,17,225,225,229,233,219,245,235,216,206,253,28,202,224,244,21,214,35,219,8,198,2,219,29,23,12,248,7,209,253,225,213,23,240,32,32,239,233,7,233,229,33,248,45,243,209,25,40,218,249,28,251,16,40,228,2,204,237,25,238,33,236,213,241,20,44,213,242,45,5,46,34,254,12,36,39,14,35,17,249,19,222,211,27,35,2,27,238,244,241,228,44,198,35,31,1,250,206,35,243,245,29,223,225,240,245,35,18,209,217,252,196,35,36,236,26,240,240,38,10,217,238,239,222,21,250,227,16,201,247,234,13,18,251,4,4,244,251,227,253,11,10,231,235,37,254,17,231,2,254,21,205,242,242,49,205,223,239,240,242,213,30,227,10,14,223,253,26,14,238,34,28,40,34,18,238,33,230,250,251,32,255,228,234,248,6,229,43,208,11,38,47,220,17,246,245,26,28,236,39,16,20,33,214,229,238,236,32,206,50,225,36,233,28,250,238,4,0,2,202,244,224,15,34,25,40,247,10,235,11,235,238,30,225,201,27,45,13,242,19,235,20,206,250,17,28,7,29,24,17,23,228,234,220,22,1,15,227,15,20,27,231,203,15,7,245,220,241,236,29,31,15,220,214,12,250,228,3,10,202,31,226,247,32,238,26,41,10,208,23,229,6,36,36,234,25,211,241,217,23,45,242,228,243,250,218,37,203,7,254,247,245,25,25,235,208,253,217,255,239,29,253,14,209,246,247,18,213,235,246,0,2,218,22,27,19,27,1,241,224,236,26,245,19,29,25,243,220,7,33,10,215,222,27,40,235,219,10,236,15,255,23,9,25,233,19,13,38,205,234,218,217,3,30,217,251,228,238,247,224,20,1,5,34,254,20,236,27,235,44,255,232,1,3,218,41,18,217,24,0,235,10,231,242,22,255,29,204,42,255,251,14,226,228,246,233,248,29,249,253,224,232,250,239,28,220,210,9,19,29,210,34,42,250,24,228,243,247,5,7,19,12,40,203,232,0,242,25,24,243,17,219,20,231,9,252,33,19,21,252,243,237,214,13,15,29,34,235,27,40,242,38,247,255,248,31,209,215,234,18,25,9,26,250,222,241,228,207,35,30,14,8,252,14,207,12,214,247,11,227,235,12,248,223,254,4,14,215,16,8,254,17,33,223,247,238,5,244,0,250,255,0,226,16,253,1,9,244,253,27,214,219,221,234,210,9,15,12,217,224,5,237,243,11,241,249,8,3,13,222,18,6,238,215,252,0,6,237,217,8,23,24,15,12,2,229,209,229,242,12,20,242,15,5,254,253,219,243,3,213,7,228,20,216,222,241,232,27,228,5,4,251,9,250,6,12,247,18,8,6,244,219,227,212,252,28,221,12,1,16,255,230,4,10,18,14,237,240,16,220,242,255,14,6,250,243,1,4,2,13,250,235,236,255,10,4,16,231,24,0,1,8,243,13,8,10,246,225,215,29,32,251,240,245,3,227,226,225,33,223,221,12,255,5,13,253,233,12,21,202,15,238,7,216,235,11,4,238,255,5,6,244,233,226,223,11,26,3,245,248,19,11,232,250,4,9,5,247,6,253,235,224,15,237,2,28,255,250,252,243,237,2,246,207,13,236,5,17,248,10,240,251,10,228,242,248,245,18,15,255,239,15,220,6,29,7,226,253,227,224,250,225,4,252,245,14,235,251,7,217,230,248,6,10,231,224,252,241,8,194,243,4,251,254,222,19,17,20,232,6,252,242,1,220,245,11,239,252,249,12,0,244,240,228,13,234,209,5,3,238,2,12,245,243,214,222,5,27,252,228,250,213,12,227,3,247,30,19,223,253,9,4,229,10,9,13,12,253,253,232,231,227,223,12,8,240,236,21,243,253,238,15,235,3,7,253,247,9,1,9,233,234,11,2,9,252,20,214,221,1,223,2,250,233,6,242,223,250,15,245,10,248,13,241,213,244,233,246,248,249,240,241,22,12,217,19,244,255,251,253,255,233,220,245,255,26,0,2,9,249,227,255,235,17,8,237,254,244,21,0,239,254,28,243,5,16,15,237,9,223,240,236,18,243,11,12,226,219,254,226,233,245,12,35,237,12,23,248,231,28,243,5,235,4,15,250,222,242,16,0,234,251,7,238,224,236,249,14,232,7,6,245,10,251,254,248,28,247,252,8,25,229,17,9,224,23,227,254,2,14,229,30,8,225,23,225,254,244,5,239,241,21,229,9,215,252,9,255,233,247,0,228,232,20,233,253,242,19,231,9,236,230,20,9,9,24,243,219,228,247,220,255,240,2,25,4,217,249,241,8,236,3,2,6,246,17,2,237,223,17,250,17,246,17,236,6,214,254,244,23,30,3,226,238,222,240,238,11,248,251,255,249,27,236,224,20,12,5,252,14,247,240,216,248,10,253,253,6,4,245,13,216,231,226,229,28,17,238,237,7,226,223,238,15,253,253,254,251,250,28,205,16,234,2,2,250,246,253,15,227,8,213,11,236,248,251,224,243,218,245,23,23,5,12,0,16,4,242,228,234,253,254,5,17,239,232,233,234,237,23,231,240,13,13,12,217,240,253,7,11,21,245,250,215,224,20,254,254,252,12,231,17,249,234,214,3,246,6,7,229,242,222,253,245,6,248,247,253,238,252,10,17,10,8,8,243,242,1,8,7,253,10,16,250,255,10,229,8,214,250,27,17,248,254,250,230,224,238,21,213,228,13,6,245,5,1,238,227,246,212,251,2,15,8,251,227,245,233,249,247,32,0,252,13,247,247,12,205,212,249,14,5,249,4,23,252,198,244,7,0,250,18,235,6,9,242,3,244,242,10,241,15,26,2,206,7,12,20,236,6,2,245,215,224,244,11,15,0,249,233,220,255,218,239,253,250,229,225,245,244,9,199,1,9,253,245,248,252,234,208,238,6,245,1,12,237,237,18,12,209,7,5,8,228,248,234,225,7,254,11,13,5,237,250,239,22,217,245,254,13,7,239,13,229,1,11,222,246,4,0,248,246,228,231,237,1,236,254,255,253,5,240,228,8,202,252,242,6,2,249,1,227,4,213,240,242,0,228,218,228,251,11,203,234,23,249,240,10,234,250,235,244,235,26,247,233,250,231,244,4,230,253,0,249,233,230,19,249,11,9,242,243,28,224,254,1,233,230,236,250,251,247,253,239,243,9,254,227,17,2,1,8,237,247,251,242,232,13,9,18,15,225,226,226,253,212,3,242,10,233,248,13,234,253,228,4,1,6,247,240,22,22,229,4,14,249,9,231,21,220,7,18,219,253,240,250,243,242,202,254,245,226,9,4,255,0,218,242,25,221,0,250,241,247,222,239,12,246,5,247,6,15,244,243,23,254,223,19,235,2,7,253,233,244,239,252,254,244,7,3,251,228,219,18,218,16,1,4,0,242,240,218,7,237,3,229,10,3,2,239,236,213,248,2,221,255,12,15,8,239,224,251,220,227,10,10,3,22,10,10,221,3,2,247,8,22,249,254,216,4,255,0,249,10,9,254,4,250,240,249,237,254,251,244,228,215,232,246,236,7,0,249,1,250,226,218,227,42,22,242,24,216,54,217,4,218,4,65,242,10,243,240,247,45,33,54,66,28,245,49,254,217,25,42,27,81,27,207,9,29,24,232,225,252,12,78,40,39,235,226,231,34,250,21,250,237,8,15,16,254,10,49,26,237,0,241,213,227,41,255,57,74,79,250,250,30,254,239,237,38,80,81,251,252,251,18,55,56,253,31,24,51,2,217,20,207,13,9,251,47,228,250,29,241,209,39,13,224,4,255,241,13,35,216,0,232,209,31,249,29,28,21,6,52,236,38,5,25,247,45,47,13,9,224,11,28,236,6,33,2,11,246,226,233,32,23,240,223,36,241,227,197,2,0,1,217,230,45,17,211,221,6,203,16,27,3,44,58,205,28,237,237,21,16,202,3,226,25,187,248,45,208,219,42,44,241,191,233,207,30,237,199,12,25,239,214,25,198,21,215,247,15,232,229,214,38,214,0,233,241,45,7,38,7,205,183,7,232,2,216,211,40,255,246,214,40,5,18,230,36,247,196,7,182,26,1,211,231,17,62,23,29,207,37,5,239,12,223,11,244,230,181,31,233,42,246,235,49,18,248,189,216,13,243,227,3,221,53,38,231,244,20,223,243,238,22,12,11,173,38,250,236,48,10,2,30,10,210,10,222,193,255,4,17,4,36,20,23,250,45,212,252,26,252,213,236,237,228,255,19,248,0,74,224,190,217,21,220,233,29,213,210,216,38,3,33,1,36,38,223,232,227,191,6,11,254,19,241,10,245,16,196,15,236,244,6,222,223,222,52,209,28,4,246,2,4,225,249,26,226,249,7,51,32,61,45,198,239,22,9,47,46,28,12,248,25,16,1,236,244,241,248,17,211,236,9,20,58,201,220,8,242,210,21,208,253,3,229,20,228,17,231,23,37,243,179,4,211,255,226,16,232,211,7,215,31,21,213,242,42,222,241,33,28,51,45,253,216,7,231,44,65,35,249,20,28,19,248,19,239,65,8,58,221,22,40,8,239,21,244,234,233,4,26,17,220,186,71,21,225,3,0,246,223,244,252,8,73,228,20,74,17,255,235,240,236,252,56,17,240,253,218,235,30,35,40,236,18,220,26,251,230,239,222,243,218,15,11,253,13,14,43,56,77,14,0,46,58,213,29,69,227,7,1,241,251,229,202,52,59,218,54,37,55,226,250,29,25,222,213,32,254,6,55,41,229,15,13,23,20,226,244,245,6,201,16,37,8,68,255,250,49,228,20,16,241,45,218,32,244,200,12,9,21,234,252,10,225,233,19,196,43,37,10,49,249,235,240,12,7,252,63,241,42,25,70,252,232,205,246,40,234,46,47,20,239,55,219,244,8,220,11,53,234,255,17,242,27,24,236,59,232,227,192,242,4,49,24,16,18,227,24,233,255,226,34,38,41,48,205,27,6,226,234,35,15,240,21,247,32,201,61,19,55,1,243,3,8,6,48,212,54,29,218,211,19,227,74,200,8,211,60,1,18,250,20,48,7,241,17,21,23,254,26,52,71,10,22,249,1,233,206,43,18,23,220,220,36,14,214,254,15,54,41,8,62,210,44,35,209,12,231,5,13,41,1,16,217,185,16,16,15,233,52,57,37,230,220,70,36,35,41,9,51,255,45,11,221,216,13,23,249,205,8,212,21,54,3,245,238,197,227,66,30,244,235,247,27,221,220,241,215,210,222,233,12,3,187,182,49,51,233,28,55,230,32,28,1,243,248,37,228,26,219,0,12,235,230,217,35,237,5,231,9,42,224,7,19,36,223,36,242,36,252,205,203,24,53,247,231,194,8,234,170,2,229,30,216,29,225,237,200,5,24,218,247,9,1,25,30,217,43,219,12,54,15,5,218,75,204,17,5,227,4,23,27,46,59,5,3,8,215,19,254,208,29,240,186,216,237,52,49,243,3,193,46,28,3,13,14,17,198,17,246,31,249,205,222,47,228,196,20,36,19,3,0,201,6,222,242,225,39,234,12,234,230,226,19,24,36,236,22,252,224,0,18,247,232,251,6,232,218,50,23,221,2,1,7,9,41,235,16,2,7,252,5,29,16,36,22,0,248,246,42,241,209,250,237,245,230,205,254,235,219,229,69,6,255,240,232,233,210,39,231,212,41,0,244,28,21,233,20,13,245,32,230,13,8,37,0,235,250,255,23,232,55,38,251,199,221,56,32,34,249,217,255,34,43,225,241,29,223,2,201,204,42,226,230,211,198,242,251,216,196,229,221,27,60,225,246,9,9,250,222,15,221,248,255,9,199,16,221,4,212,237,235,44,30,248,237,248,27,213,244,248,13,34,29,199,207,254,32,234,231,215,206,240,18,212,214,246,49,9,29,242,249,65,237,223,206,48,252,30,23,222,51,240,216,59,65,13,221,13,221,56,219,251,54,22,27,26,208,242,0,212,58,221,2,239,201,3,246,218,31,223,221,48,252,205,6,4,234,212,214,40,11,233,218,14,205,21,47,252,13,14,230,248,27,24,12,239,31,18,8,231,250,38,229,239,242,4,18,4,33,247,238,26,30,229,217,7,224,17,206,18,254,0,12,224,216,54,19,234,30,201,220,234,49,243,11,234,1,225,51,6,237,19,37,0,11,229,36,35,20,29,35,20,25,82,4,16,1,217,8,252,225,254,87,19,243,217,33,215,216,219,23,56,3,18,9,228,8,243,21,67,10,2,228,233,34,45,52,38,79,24,236,16,250,254,4,212,242,62,67,195,74,20,247,213,250,23,45,53,252,1,50,239,5,25,28,35,34,25,244,30,230,5,32,224,62,239,27,56,12,237,13,33,209,61,15,236,20,223,14,4,255,241,63,65,23,8,7,52,0,242,2,35,25,33,244,8,2,27,252,239,36,232,241,244,251,24,246,43,233,114,10,235,7,37,243,240,44,0,83,28,31,49,197,220,245,18,234,30,230,241,55,253,2,244,20,215,4,2,7,12,243,242,7,29,211,15,0,240,33,218,230,214,249,34,74,31,43,51,23,237,20,255,45,44,38,228,51,235,7,21,41,251,36,244,52,59,222,203,252,10,22,253,0,20,50,233,14,25,49,238,14,223,14,54,19,247,250,18,249,236,223,11,3,1,241,19,253,2,223,236,244,218,211,219,4,5,229,227,14,45,8,2,31,222,27,210,55,44,33,2,230,15,224,32,252,227,248,26,22,22,192,52,19,17,224,30,231,224,211,229,19,22,40,53,40,78,205,219,199,13,25,46,4,20,239,193,234,25,15,255,245,35,227,222,224,10,21,233,16,225,45,235,219,177,243,253,8,19,216,29,233,219,232,25,231,242,240,223,50,231,1,5,13,238,246,42,227,0,198,223,184,0,201,41,33,0,7,148,224,227,17,6,242,217,235,13,209,27,221,42,230,250,245,242,12,201,12,190,28,25,1,27,1,216,211,231,238,249,218,50,248,215,226,132,213,21,248,2,43,22,236,4,129,214,230,216,43,245,51,28,218,181,16,170,243,22,225,234,238,228,156,244,189,230,225,19,29,45,14,154,238,234,8,3,21,11,230,255,160,235,195,226,214,8,232,7,205,237,199,203,235,62,18,244,221,201,255,242,227,250,63,13,21,253,208,204,195,12,242,237,28,27,1,23,6,231,231,230,1,30,12,15,205,16,232,38,232,231,51,224,29,210,39,1,8,202,244,2,0,18,193,245,223,242,240,47,195,227,22,211,24,12,42,250,208,236,250,45,248,59,233,10,30,255,52,206,219,251,23,28,9,247,208,1,245,18,210,31,62,54,248,12,232,254,17,47,60,1,55,250,226,10,22,19,30,239,41,10,248,250,27,5,227,23,245,77,213,25,207,235,51,15,35,58,39,232,249,19,49,4,231,6,248,43,45,234,252,219,26,10,255,64,35,46,24,12,243,0,18,54,49,54,81,22,69,27,10,2,18,10,20,239,241,50,10,232,36,85,42,48,54,16,240,18,224,228,58,230,233,31,69,27,245,23,253,76,29,49,16,201,12,234,252,250,23,254,3,40,208,246,36,4,233,25,254,4,36,40,8,14,31,239,49,14,203,55,231,202,60,47,218,27,73,242,77,255,24,243,16,37,0,13,211,248,253,19,6,17,8,37,67,239,14,241,237,255,35,34,24,36,232,23,14,219,9,14,50,243,9,223,15,2,9,33,45,252,6,44,211,76,11,12,228,17,10,46,10,234,21,32,2,34,55,33,41,70,39,231,240,219,9,214,206,225,65,231,15,5,240,238,243,255,241,245,229,196,8,221,246,21,214,20,15,11,17,253,28,252,229,221,228,19,2,45,84,0,62,242,234,232,30,29,3,246,18,56,36,44,10,19,20,19,9,240,246,10,235,3,229,235,249,249,27,254,36,24,32,248,241,246,26,1,22,20,23,10,235,8,17,64,219,3,3,10,1,253,15,233,17,17,39,249,230,251,209,218,212,252,234,1,14,229,34,213,214,210,14,239,23,49,49,3,216,32,201,11,5,251,229,37,231,246,217,11,220,216,24,233,214,24,228,1,232,229,228,11,230,53,232,210,33,211,230,6,48,37,224,241,228,239,233,239,35,0,34,46,245,232,3,246,7,238,58,244,219,228,235,10,215,47,10,14,18,230,222,206,248,230,4,233,230,15,27,33,241,0,192,252,239,25,223,34,220,17,30,18,236,227,249,253,253,244,22,252,18,212,243,7,241,34,250,202,234,237,228,28,35,43,27,25,237,232,23,243,236,75,246,230,13,6,225,252,224,226,48,13,224,37,23,240,202,251,188,28,1,20,255,234,247,254,251,223,253,5,251,21,7,234,237,245,253,36,26,7,230,29,214,1,18,239,66,246,32,219,2,1,33,16,72,25,4,46,227,50,1,26,59,225,30,47,59,218,41,51,1,238,27,241,56,224,233,68,233,45,222,48,22,206,55,226,240,33,10,15,22,21,38,5,25,64,53,48,237,190,231,215,237,4,71,243,48,45,251,4,67,52,245,32,8,247,235,245,247,209,52,25,40,236,23,36,3,252,252,3,219,254,1,222,194,18,27,254,245,243,31,11,253,59,222,228,37,21,6,202,46,237,35,248,245,218,66,220,44,237,204,43,52,3,211,215,221,224,26,38,10,19,40,52,228,12,217,250,35,18,248,248,64,31,217,210,8,223,4,7,231,49,20,218,245,206,254,28,10,240,243,240,233,22,52,239,191,211,52,38,31,238,205,29,216,223,220,225,53,57,192,22,244,233,4,237,239,17,52,254,208,1,225,221,232,213,47,58,210,203,242,7,225,244,17,63,