unsigned char model[] = {32,0,0,0,84,70,76,51,0,0,0,0,20,0,32,0,28,0,24,0,20,0,16,0,12,0,0,0,8,0,4,0,20,0,0,0,28,0,0,0,152,0,0,0,240,0,0,0,220,33,1,0,236,33,1,0,84,45,1,0,3,0,0,0,1,0,0,0,16,0,0,0,0,0,10,0,16,0,12,0,8,0,4,0,10,0,0,0,12,0,0,0,28,0,0,0,60,0,0,0,15,0,0,0,115,101,114,118,105,110,103,95,100,101,102,97,117,108,116,0,1,0,0,0,4,0,0,0,144,255,255,255,16,0,0,0,4,0,0,0,9,0,0,0,100,101,110,115,101,95,49,50,54,0,0,0,1,0,0,0,4,0,0,0,218,220,254,255,4,0,0,0,15,0,0,0,100,101,110,115,101,95,49,50,51,95,105,110,112,117,116,0,2,0,0,0,52,0,0,0,4,0,0,0,220,255,255,255,19,0,0,0,4,0,0,0,19,0,0,0,67,79,78,86,69,82,83,73,79,78,95,77,69,84,65,68,65,84,65,0,8,0,12,0,8,0,4,0,8,0,0,0,18,0,0,0,4,0,0,0,19,0,0,0,109,105,110,95,114,117,110,116,105,109,101,95,118,101,114,115,105,111,110,0,20,0,0,0,232,32,1,0,224,32,1,0,188,32,1,0,108,31,1,0,92,30,1,0,76,22,1,0,188,21,1,0,172,13,1,0,156,12,1,0,204,0,0,0,196,0,0,0,188,0,0,0,180,0,0,0,172,0,0,0,164,0,0,0,156,0,0,0,148,0,0,0,140,0,0,0,108,0,0,0,4,0,0,0,166,221,254,255,4,0,0,0,88,0,0,0,12,0,0,0,8,0,14,0,8,0,4,0,8,0,0,0,16,0,0,0,40,0,0,0,0,0,6,0,8,0,4,0,6,0,0,0,4,0,0,0,1,0,0,0,235,3,0,0,0,0,10,0,16,0,12,0,8,0,4,0,10,0,0,0,2,0,0,0,2,0,0,0,4,0,0,0,6,0,0,0,50,46,49,53,46,48,0,0,10,222,254,255,4,0,0,0,16,0,0,0,49,46,49,52,46,48,0,0,0,0,0,0,0,0,0,0,228,221,254,255,232,221,254,255,236,221,254,255,240,221,254,255,244,221,254,255,248,221,254,255,252,221,254,255,0,222,254,255,70,222,254,255,4,0,0,0,192,11,1,0,226,254,6,13,255,233,8,16,27,240,15,242,21,228,7,31,253,31,224,14,248,16,16,253,226,250,27,3,245,23,20,230,15,220,230,248,222,240,40,250,10,9,237,26,32,254,241,33,8,18,248,29,30,213,251,0,11,1,0,236,7,244,22,231,17,33,245,12,3,3,33,20,225,227,58,2,6,0,230,232,251,231,221,15,252,5,5,6,25,247,11,245,235,11,246,13,235,224,27,234,228,224,5,237,250,240,23,33,252,232,41,22,21,248,20,0,247,10,10,243,235,5,243,7,0,17,247,248,219,247,28,246,229,21,230,248,240,13,243,251,247,19,255,246,25,252,253,246,241,6,237,2,222,2,226,207,12,246,23,1,238,17,217,248,10,249,240,240,24,233,8,243,21,13,236,252,0,12,28,8,3,26,225,250,16,244,30,30,16,1,13,29,242,3,25,8,38,246,247,218,249,234,248,245,4,227,242,239,218,230,248,249,16,245,27,30,6,255,13,12,12,9,25,234,242,254,34,5,252,2,0,20,232,31,242,246,32,27,6,252,244,211,221,13,1,18,245,0,245,230,225,8,16,250,10,252,10,2,229,223,248,2,251,224,255,239,250,252,34,36,8,19,226,17,6,5,22,226,223,248,42,227,24,2,236,15,13,33,228,245,241,26,245,1,230,223,19,22,36,16,0,255,244,20,240,253,239,39,2,8,245,8,235,26,234,2,24,221,14,8,16,228,233,2,229,43,8,8,247,246,5,229,216,19,29,221,247,254,14,234,27,13,235,20,245,5,3,18,245,17,21,223,19,247,253,249,5,12,23,244,5,47,236,16,17,239,25,242,29,17,62,228,5,15,7,238,19,31,28,255,34,24,7,242,20,236,40,235,40,5,247,9,6,10,13,5,9,254,11,243,249,241,247,16,5,18,38,9,13,8,1,23,250,43,10,40,14,29,4,3,250,247,7,250,23,5,13,251,246,8,10,21,17,12,3,1,244,232,220,230,34,247,247,32,5,22,7,222,239,0,250,30,14,13,236,255,232,234,0,35,5,242,248,10,254,0,238,234,41,28,234,9,239,10,0,252,232,19,20,244,9,242,2,15,246,18,11,252,22,6,253,7,254,237,34,31,1,17,255,14,11,218,26,31,7,0,15,4,27,244,9,25,230,6,32,244,229,24,234,222,37,234,254,25,9,0,12,254,230,237,223,241,254,255,240,247,0,4,24,16,229,253,14,0,238,249,6,229,248,7,5,12,254,242,241,24,17,39,6,250,29,240,251,234,244,218,33,7,250,255,239,235,4,5,230,238,252,252,242,14,4,17,16,30,225,23,2,253,253,245,1,250,14,11,16,251,210,248,28,250,2,9,219,4,231,213,235,14,248,230,243,31,2,224,195,240,8,231,9,243,1,254,20,216,241,0,13,254,221,11,253,6,223,252,12,12,1,239,239,5,228,230,232,241,34,13,11,240,13,0,236,7,4,20,223,215,237,237,224,239,238,251,4,20,236,16,238,251,232,237,230,255,0,235,2,248,250,201,250,4,14,236,0,252,248,9,10,14,241,236,232,235,254,211,4,223,11,19,29,14,231,41,243,13,233,254,254,10,237,4,38,255,18,240,5,31,243,15,20,236,22,6,219,232,249,7,235,252,8,3,6,20,6,244,244,248,21,26,23,1,227,7,253,249,250,40,247,255,7,233,242,232,7,244,13,243,244,6,3,1,244,4,5,0,0,9,242,244,6,241,0,242,207,2,241,34,223,21,243,11,1,11,8,243,247,215,251,243,247,248,222,29,254,240,241,6,1,18,230,5,226,218,14,8,5,253,10,250,28,244,244,17,231,8,243,3,254,34,246,236,36,20,0,253,248,14,241,215,2,12,236,233,237,237,245,254,213,222,5,225,12,241,240,22,34,232,248,6,230,14,4,1,235,242,5,244,13,217,5,16,224,14,235,17,7,17,246,34,248,16,6,227,216,239,240,229,240,240,20,1,215,227,237,7,230,3,245,246,232,241,29,248,239,32,6,244,15,246,44,18,222,222,48,28,239,3,248,24,224,237,234,239,21,240,12,17,244,239,8,24,231,247,246,244,245,240,247,10,250,250,253,24,5,252,21,27,1,35,237,244,9,254,228,238,17,26,255,0,253,8,3,235,224,242,243,244,23,3,238,15,241,33,208,231,249,33,28,17,240,234,240,254,222,247,252,6,1,244,255,231,31,2,22,10,253,3,253,9,5,18,0,224,239,15,234,22,239,231,29,15,7,31,23,4,250,240,255,228,21,11,30,14,239,2,19,14,29,236,228,34,12,247,255,235,250,252,233,247,252,17,5,20,11,12,18,217,227,226,5,250,22,0,15,207,238,217,225,254,23,249,252,253,240,225,253,248,0,245,254,241,30,26,240,249,239,243,1,13,225,0,230,236,21,29,12,239,14,248,248,236,255,248,48,19,248,13,8,0,11,230,234,236,236,5,248,17,35,250,25,35,30,253,242,6,36,9,218,233,34,15,10,3,249,4,33,15,250,254,25,17,245,18,20,252,22,245,246,46,250,242,2,241,36,220,10,244,252,3,7,236,18,4,3,2,20,41,10,1,248,255,42,31,243,230,31,20,255,1,12,28,251,0,235,250,243,239,11,230,3,220,254,5,25,20,240,253,17,245,0,219,243,228,248,6,6,6,23,224,245,14,224,1,14,6,216,229,7,249,2,225,253,17,4,28,249,255,24,219,212,240,250,253,30,241,31,222,4,205,1,35,247,8,237,6,19,237,31,4,236,25,215,37,233,3,13,220,249,237,251,21,5,34,255,6,235,4,250,3,5,39,26,0,249,6,247,12,246,213,3,241,248,231,14,0,0,7,26,33,12,15,244,217,246,6,9,10,236,10,22,12,241,241,236,237,243,255,25,12,240,5,12,25,3,20,222,7,4,252,246,242,245,246,20,29,210,27,238,242,31,232,250,240,9,220,227,42,217,248,8,246,238,235,232,11,27,230,241,20,7,10,247,14,13,29,234,23,238,228,34,255,35,246,17,3,29,242,11,38,236,5,1,7,4,25,13,232,233,232,233,10,29,248,12,15,233,237,13,236,0,249,236,255,10,242,232,241,232,0,1,3,243,6,246,220,231,214,25,42,219,18,12,251,9,16,243,249,28,255,18,251,2,1,236,207,220,246,255,18,248,245,214,236,221,235,40,216,246,11,19,223,233,1,243,219,248,23,0,5,15,237,25,13,242,33,22,230,0,12,220,252,19,228,254,2,15,13,0,215,40,26,224,243,19,2,0,7,26,4,27,25,38,3,239,246,240,12,223,254,254,242,233,253,21,25,243,255,218,229,10,231,2,248,8,15,25,246,224,24,10,13,10,244,240,34,240,214,8,234,246,247,252,7,18,245,7,246,238,233,233,229,14,7,10,213,8,22,254,14,234,249,253,1,245,222,254,15,3,22,12,223,225,205,231,1,254,8,244,253,24,3,15,0,253,10,233,11,240,27,228,30,221,253,241,11,241,223,3,8,3,219,8,4,237,252,220,23,23,39,0,21,20,24,3,214,24,12,254,228,0,2,3,11,29,33,250,241,235,239,17,234,15,9,238,3,247,33,251,236,253,232,31,236,214,217,227,12,234,5,7,240,45,11,243,233,17,5,9,29,17,228,3,220,225,17,250,237,0,250,28,14,26,8,10,246,248,19,11,25,32,230,252,239,242,13,242,251,14,12,220,195,0,247,3,11,239,10,7,251,25,244,241,9,238,26,20,9,225,225,5,5,16,246,254,223,252,242,244,243,16,242,37,214,20,20,26,32,240,6,232,250,237,214,3,6,24,244,231,25,253,13,35,12,21,203,249,37,0,11,28,10,29,21,9,243,246,0,7,238,27,240,3,199,245,15,254,233,14,236,234,10,15,6,249,12,218,7,28,246,233,28,241,238,16,250,235,255,31,237,245,16,250,248,250,11,224,240,240,218,242,252,244,28,219,234,217,234,233,244,238,13,227,29,233,4,24,211,1,4,27,12,244,247,219,5,23,251,27,10,28,229,13,29,248,17,252,252,7,24,11,242,222,245,237,222,229,29,3,6,247,28,17,241,15,252,12,221,225,251,235,2,227,6,254,12,10,22,223,11,29,5,6,239,246,27,22,8,249,35,204,255,251,226,9,11,244,32,18,248,2,250,6,214,24,237,242,8,253,241,241,240,245,242,249,26,27,248,15,21,1,225,11,236,213,236,13,9,3,1,19,11,254,31,225,38,24,9,251,235,247,3,217,31,255,28,3,3,17,236,254,242,245,241,6,241,237,22,250,242,251,221,248,13,17,248,32,31,7,30,241,40,243,251,249,5,18,18,246,247,241,1,234,255,36,20,6,253,233,38,1,6,254,8,1,13,201,250,2,3,217,225,2,223,243,225,227,219,247,251,7,14,249,1,253,6,239,10,248,10,6,36,249,229,248,238,250,254,20,1,4,11,254,25,26,6,249,3,254,20,238,216,6,219,236,5,14,14,21,29,248,222,27,244,7,16,242,3,254,227,252,8,18,9,247,254,211,236,7,230,29,252,241,2,247,246,234,35,255,10,21,5,255,250,248,247,5,16,241,5,238,252,7,0,251,24,253,246,0,7,251,22,233,214,24,230,21,15,246,18,242,248,18,244,4,27,2,237,250,252,23,209,12,20,32,14,16,247,9,252,11,18,238,247,2,6,237,242,32,218,254,219,237,1,19,247,5,6,219,245,35,216,5,247,244,14,12,10,224,12,251,39,249,14,248,7,24,18,18,248,231,251,247,1,252,218,8,20,221,1,238,17,12,232,247,213,246,232,236,3,236,3,27,17,241,223,254,198,228,206,232,28,19,227,57,28,189,186,48,217,212,236,20,33,244,65,37,42,249,9,25,233,234,34,224,245,51,247,227,0,209,24,34,202,250,221,213,5,3,5,27,23,31,22,206,213,226,36,33,35,46,11,20,53,11,218,42,5,183,72,14,186,1,228,8,247,213,3,74,18,51,24,226,225,253,242,166,17,7,225,251,39,239,28,180,222,46,255,25,243,26,6,235,247,191,47,21,246,238,21,5,12,188,197,29,250,14,4,220,250,231,1,254,15,7,7,254,196,206,51,202,253,22,220,235,175,234,28,53,190,201,37,193,190,34,232,250,37,231,18,56,201,248,51,214,42,14,239,212,27,254,238,0,37,215,60,250,202,63,219,28,24,43,34,22,199,35,29,214,27,54,245,48,248,146,11,7,0,205,209,18,213,250,211,32,2,15,222,233,249,60,244,214,49,21,214,15,243,201,214,32,159,1,12,226,235,10,43,206,31,203,242,61,18,50,18,232,252,13,28,254,43,16,210,180,248,215,64,209,42,20,27,19,33,19,32,67,244,15,251,243,219,63,210,35,17,233,2,242,242,34,38,14,224,47,245,3,228,216,32,0,240,236,249,253,250,2,14,63,239,222,49,44,232,24,241,215,251,3,19,35,59,10,82,30,22,233,11,228,39,248,72,244,241,224,18,2,4,234,226,241,46,46,39,249,226,250,243,13,224,9,11,18,21,21,239,205,236,192,55,199,19,218,25,224,255,46,244,36,47,243,52,7,251,41,25,30,250,230,67,43,47,230,10,8,10,38,196,14,230,5,225,213,1,247,22,34,15,31,17,33,223,48,8,115,21,52,247,2,244,228,243,251,29,34,66,238,227,230,248,238,191,96,54,58,211,7,251,16,250,250,111,241,243,65,0,16,12,43,24,50,239,33,238,227,47,32,35,27,34,36,41,203,228,2,42,228,225,12,78,34,217,234,37,9,8,20,82,26,11,206,211,12,7,28,30,255,17,232,37,230,35,229,22,64,28,249,37,13,235,202,29,200,222,27,65,254,243,180,238,4,233,86,32,233,16,34,226,237,35,3,36,30,31,253,235,42,247,3,218,71,49,30,191,220,49,235,22,68,17,244,210,33,6,90,24,230,36,90,36,20,252,37,203,33,22,56,45,62,230,220,208,230,226,59,229,49,215,213,231,49,253,8,34,10,54,207,32,210,4,5,237,11,34,241,27,64,24,45,2,10,16,20,35,26,196,223,214,229,246,28,253,12,208,36,223,6,8,26,30,47,229,14,16,12,189,13,228,61,67,244,208,35,242,223,11,14,250,1,4,191,247,226,18,32,254,63,220,216,195,207,240,248,250,43,19,254,198,210,213,242,51,39,241,52,240,251,234,11,15,45,216,245,42,50,235,5,239,199,225,37,1,27,50,230,251,180,26,189,232,10,227,240,210,249,151,181,248,19,252,38,41,166,218,201,196,207,199,39,27,23,220,232,218,13,8,25,1,234,226,190,26,235,225,199,239,19,214,243,224,239,0,228,177,221,215,213,233,211,198,2,216,8,30,204,55,209,173,210,184,206,35,6,15,42,63,219,203,195,191,43,14,2,201,218,253,244,46,255,14,12,32,251,241,204,28,185,227,17,37,6,43,6,230,209,206,2,9,192,9,42,221,9,50,33,1,182,244,22,19,250,36,208,209,223,215,24,237,17,232,61,241,28,217,14,251,231,198,246,18,245,251,250,2,42,246,209,56,18,43,210,4,26,46,253,56,227,211,246,2,18,233,223,250,38,231,219,251,234,250,27,212,11,57,240,45,251,195,214,182,7,14,213,237,251,246,207,23,227,3,62,46,7,63,39,251,17,195,191,24,232,200,240,242,212,25,235,27,15,232,38,211,10,22,72,243,26,24,33,227,204,25,212,242,232,38,255,237,4,20,15,20,255,44,223,69,25,233,237,36,15,231,227,6,252,15,23,195,246,33,46,247,25,205,50,250,215,246,245,254,6,234,16,201,201,30,29,1,65,211,31,16,26,230,2,223,40,30,218,229,6,237,244,248,6,23,69,6,241,249,49,248,12,76,8,53,252,212,32,8,219,215,17,48,247,7,21,215,11,205,15,37,42,244,21,2,207,2,213,1,68,1,250,28,221,227,21,244,13,57,244,13,216,41,234,38,223,238,5,32,97,2,204,229,200,241,234,220,40,12,228,241,17,27,26,38,18,243,30,14,18,202,9,221,240,242,13,224,220,30,53,0,253,48,12,226,58,7,226,36,13,5,253,242,234,250,16,44,17,241,46,234,3,232,29,219,0,51,223,33,43,234,218,17,16,16,255,225,216,216,33,32,245,1,33,2,245,27,247,8,50,210,232,244,183,225,212,17,240,18,69,242,50,236,219,5,32,224,50,53,207,252,188,29,255,32,39,33,177,253,31,248,29,5,16,22,33,224,31,204,30,36,25,32,40,251,241,11,29,247,217,231,231,240,55,207,21,240,1,37,44,196,40,30,247,18,21,247,217,233,30,253,66,38,15,206,7,18,243,255,213,6,25,36,59,246,35,21,14,221,76,220,200,252,2,208,242,201,201,65,66,233,250,49,7,246,210,211,243,209,179,28,235,23,240,216,227,5,218,18,254,34,8,11,250,209,59,239,33,229,239,2,65,205,241,21,6,53,225,22,31,31,199,181,224,239,250,35,26,8,229,232,194,64,226,217,212,45,246,17,187,168,254,158,37,49,245,214,16,239,206,60,239,84,254,225,241,33,166,186,0,2,220,190,23,221,228,220,231,2,252,1,72,218,221,22,239,255,227,104,43,23,3,243,217,212,202,217,237,162,206,30,13,24,202,0,5,208,7,238,15,228,56,14,235,17,17,215,13,20,20,13,231,185,11,210,221,2,31,7,239,216,34,14,177,31,239,249,18,235,193,189,212,186,30,229,29,225,42,224,188,19,143,57,66,2,237,53,255,10,216,210,3,82,240,253,26,10,15,50,209,221,9,232,27,205,18,240,252,176,51,54,230,244,200,239,197,6,214,36,26,12,230,27,221,22,3,137,37,224,211,37,20,252,224,224,24,224,237,217,41,63,14,203,12,14,40,249,29,15,238,1,239,239,62,40,231,3,227,12,223,254,253,6,3,215,236,7,248,231,205,232,246,11,0,10,236,5,6,240,35,202,235,3,225,243,223,34,208,15,63,254,236,47,239,238,197,222,25,2,11,0,32,214,9,249,28,10,210,250,23,24,191,30,219,79,48,246,231,245,239,201,30,10,97,238,67,12,233,42,27,217,232,20,242,30,232,253,23,248,12,194,61,41,219,186,205,244,184,228,249,78,240,4,249,0,27,255,233,215,73,0,217,223,235,12,218,53,200,119,223,82,4,234,222,229,237,241,92,219,23,29,84,25,230,1,11,79,26,40,231,44,230,6,26,226,92,233,8,236,245,209,245,243,199,111,3,52,26,219,237,11,250,35,44,226,104,57,206,0,214,234,8,79,16,0,230,201,247,248,242,218,69,65,200,43,51,220,53,230,233,77,23,43,19,3,241,230,21,52,88,24,46,27,173,204,38,45,82,13,251,36,248,63,247,241,249,29,0,20,204,23,3,254,10,41,68,5,54,192,21,16,4,1,229,16,31,57,201,69,229,4,9,243,21,29,240,180,3,13,207,8,38,69,48,222,5,239,13,36,19,5,12,248,44,200,69,252,223,238,48,235,57,8,193,195,58,25,249,245,14,246,244,236,29,94,241,28,9,222,69,238,129,206,16,254,252,28,13,227,20,232,223,254,255,3,252,30,67,18,10,39,245,214,218,35,182,32,210,40,56,180,31,19,4,208,29,222,208,180,221,216,16,231,222,13,219,251,14,245,40,20,228,212,9,30,244,242,189,229,28,23,212,248,78,26,22,249,13,238,247,196,39,35,16,49,176,227,203,250,206,197,19,230,25,222,28,1,236,212,238,14,53,244,35,213,60,222,224,237,20,242,15,1,254,244,15,217,23,31,220,250,226,235,254,251,252,233,254,167,237,231,30,33,37,207,212,245,233,248,212,249,34,40,147,0,48,244,215,2,247,254,14,194,199,27,27,28,252,4,202,252,198,206,4,235,243,189,183,230,231,221,0,245,194,254,186,22,2,14,211,207,21,43,253,10,234,246,249,5,217,6,240,1,152,226,253,226,25,217,41,21,23,249,208,12,48,234,171,48,201,233,221,4,14,21,251,188,60,175,33,47,227,43,4,56,202,247,175,215,45,252,246,70,86,220,62,14,16,1,9,35,28,8,243,27,21,22,46,35,203,220,61,177,30,31,189,196,254,236,28,3,245,23,248,246,26,234,2,245,47,214,63,33,219,16,215,250,12,56,29,242,20,230,0,182,24,21,8,51,230,37,41,236,254,225,34,22,245,0,21,216,236,34,220,231,59,225,240,241,252,251,192,228,22,70,61,53,15,235,200,247,2,78,226,76,215,34,246,212,213,9,59,230,9,54,208,208,220,2,239,13,222,11,18,237,30,1,255,12,215,242,9,246,52,29,241,251,236,252,29,239,10,19,45,10,246,30,23,19,42,49,0,20,253,200,225,60,30,6,24,11,2,63,250,251,230,25,10,35,27,251,40,246,11,243,10,220,13,21,239,244,226,254,233,41,27,252,209,9,16,252,196,17,9,211,41,218,42,31,14,221,216,217,44,235,44,30,228,11,3,253,31,250,7,222,15,48,245,64,248,1,238,25,215,1,229,244,190,34,34,233,26,249,217,9,12,252,32,10,4,242,22,196,57,250,16,235,67,3,243,79,224,249,244,36,236,245,10,34,81,217,181,190,220,13,205,252,214,43,243,191,252,254,44,213,41,248,206,170,243,34,215,57,188,7,251,23,225,241,226,2,221,39,38,250,34,255,39,18,238,19,2,16,248,18,41,62,228,0,56,3,42,42,27,220,2,227,35,229,23,220,32,189,9,250,26,44,31,37,177,34,201,231,41,38,219,252,32,205,224,225,73,231,11,252,27,4,251,220,207,219,22,223,3,5,212,232,239,13,224,12,234,4,46,194,221,227,0,38,5,0,65,223,32,178,13,15,27,0,220,2,47,11,225,219,204,6,228,246,239,12,234,200,211,35,227,243,45,18,35,183,222,202,215,22,34,2,4,38,205,191,205,17,242,11,220,240,209,246,196,41,241,247,27,255,221,63,12,19,3,39,244,252,39,48,6,18,29,28,237,38,217,42,247,242,189,21,27,22,230,249,7,23,246,206,241,48,11,22,225,38,233,39,4,235,213,190,241,240,12,206,19,204,217,244,18,228,45,238,196,255,12,64,221,32,223,23,43,242,231,230,35,233,15,218,208,218,48,231,218,38,56,63,25,248,240,44,242,22,44,14,228,20,43,249,250,15,229,77,242,41,25,47,40,222,19,218,75,239,225,180,237,208,16,19,234,43,58,17,247,30,252,45,31,10,59,239,234,27,220,8,0,15,196,6,69,9,30,22,8,51,249,81,7,49,13,220,6,233,13,58,204,231,26,11,38,43,235,27,211,0,64,16,60,241,48,208,221,2,224,248,25,7,191,9,6,236,249,0,35,45,67,202,4,232,235,50,230,78,9,5,3,237,25,28,40,246,52,206,76,230,248,235,255,3,47,238,1,43,14,8,1,35,251,240,81,249,5,46,1,249,254,233,9,241,201,65,75,244,255,1,234,230,49,225,31,229,235,12,247,4,246,67,64,235,247,220,206,233,19,218,40,58,1,2,222,41,12,22,29,78,254,75,208,228,239,11,70,69,253,34,4,44,209,230,255,43,77,11,247,3,10,200,46,33,17,77,20,26,22,51,28,62,194,42,12,243,9,39,217,242,207,248,208,39,62,40,48,26,230,243,25,21,239,11,13,18,0,221,227,210,249,16,216,55,33,208,12,31,250,16,41,67,10,179,38,27,214,41,38,46,221,47,56,27,242,18,36,22,17,11,54,34,53,238,226,235,238,86,250,226,3,212,242,3,42,249,8,206,54,239,40,41,226,241,9,249,226,19,252,198,253,30,252,24,50,193,246,251,224,12,49,30,56,38,20,227,52,249,9,31,17,237,245,190,30,19,12,213,238,217,20,235,180,11,193,234,20,239,57,220,40,223,12,34,8,2,28,28,225,36,238,182,195,3,47,205,202,226,7,214,252,194,41,68,202,56,30,48,211,253,193,14,33,197,231,49,246,217,248,2,69,21,248,2,32,248,5,249,226,234,23,242,249,31,48,220,217,238,29,226,43,223,213,251,25,236,204,253,34,45,237,42,254,217,182,0,4,33,37,32,247,17,193,184,237,235,244,212,6,217,18,15,190,13,210,5,205,39,17,248,60,231,27,221,6,7,237,233,248,221,187,243,223,203,46,217,40,6,32,11,219,242,18,206,255,57,219,15,212,5,50,49,41,44,52,193,13,217,249,14,254,11,18,15,46,216,10,244,5,225,45,193,218,0,10,216,202,13,247,6,250,245,227,29,233,30,254,197,211,20,195,6,0,10,227,9,44,231,19,15,243,74,203,15,41,240,38,203,226,50,75,25,235,196,45,33,193,233,220,250,242,240,211,49,42,248,33,236,69,237,29,23,27,201,213,56,208,241,13,6,14,42,27,22,8,247,242,210,39,249,198,228,27,237,239,41,23,18,51,29,7,22,5,235,228,221,216,231,14,16,247,239,212,66,61,4,217,236,246,37,14,191,25,229,65,221,13,44,30,46,252,13,234,223,53,36,210,19,231,6,250,246,53,245,6,72,52,230,204,213,2,47,225,228,10,28,251,242,54,47,17,200,22,223,18,227,234,66,223,44,252,240,39,29,231,255,224,48,52,227,67,218,30,222,13,2,8,23,243,6,238,216,38,226,253,54,45,241,13,238,236,8,18,59,9,25,254,18,10,4,31,255,246,66,231,218,25,219,249,245,1,229,243,66,224,251,195,239,45,22,236,41,4,23,17,230,62,255,245,40,240,245,10,222,248,229,201,238,28,9,87,37,223,17,254,20,22,12,249,245,192,223,245,47,10,40,241,34,74,63,7,4,32,207,27,203,45,58,200,40,228,61,0,65,47,14,61,33,12,252,249,220,225,52,216,5,17,229,52,10,239,8,248,9,243,217,227,229,17,224,3,32,53,234,7,22,59,211,21,217,22,206,33,255,231,47,211,10,58,44,4,18,238,226,255,34,25,50,33,9,42,199,56,199,41,238,20,47,233,1,20,224,205,21,245,247,27,225,32,193,211,4,60,14,11,233,4,223,9,235,13,252,241,251,13,8,68,16,245,17,237,22,240,2,245,245,42,247,215,14,0,221,23,18,20,6,242,226,239,54,19,42,20,251,189,194,14,239,25,245,244,200,255,33,49,15,3,233,220,11,251,18,254,11,229,19,228,57,255,12,205,49,251,19,7,14,251,223,9,254,253,19,6,16,56,0,253,221,242,15,233,2,40,3,190,223,241,37,55,8,8,47,5,231,6,244,12,228,218,228,252,2,205,213,222,3,245,240,233,4,27,240,38,215,13,244,200,29,83,28,249,25,238,26,7,216,0,36,36,33,30,241,236,214,246,31,231,23,232,237,23,242,253,12,232,253,45,203,29,42,223,4,199,29,6,54,254,215,23,213,29,37,18,233,10,229,8,0,190,248,42,34,249,37,7,237,232,248,22,82,62,240,40,222,249,4,238,232,3,237,30,20,253,5,49,74,190,23,241,251,48,39,251,32,0,251,243,13,240,20,10,47,16,38,8,197,234,250,222,186,250,248,16,17,242,234,251,16,5,11,20,208,29,252,1,28,35,36,13,230,255,253,29,27,13,251,34,225,215,28,231,29,24,1,52,46,22,227,15,212,49,26,252,8,10,3,225,239,3,13,31,244,235,8,237,218,250,226,39,250,249,8,13,2,212,0,236,214,230,231,25,39,224,182,252,3,36,15,67,17,43,27,206,10,36,41,19,31,57,6,13,248,237,238,6,242,253,17,221,11,6,254,238,1,0,238,16,247,255,1,192,28,21,251,53,11,238,34,209,246,248,27,14,10,226,249,24,15,22,254,229,198,216,204,161,50,0,212,217,236,230,48,232,215,39,220,55,13,33,222,4,218,220,20,46,70,38,244,18,42,242,4,55,70,32,48,198,241,12,0,197,18,24,58,43,249,207,227,35,33,63,38,44,22,222,39,255,37,238,53,249,246,242,8,23,27,216,244,64,247,223,186,231,13,220,207,18,15,39,219,37,244,247,243,29,246,223,37,22,223,210,8,221,4,230,3,222,12,0,206,237,254,235,229,10,255,248,250,245,227,20,17,226,36,230,34,244,29,35,63,33,238,209,49,245,231,46,52,7,255,26,30,233,40,32,30,218,27,4,230,21,25,38,10,46,47,16,15,30,215,50,215,237,190,34,223,236,26,15,45,22,198,63,7,20,15,211,251,210,226,203,219,247,47,3,221,243,0,33,224,9,30,206,214,4,203,214,255,243,6,230,232,50,243,223,9,249,5,4,24,23,10,212,255,223,52,189,224,44,54,31,3,233,253,232,229,9,251,221,233,205,216,242,239,193,6,17,239,30,212,254,214,26,5,5,213,41,207,249,244,213,241,48,223,250,239,35,244,182,248,236,14,222,46,37,17,233,185,232,203,201,13,53,241,28,220,228,180,195,232,33,226,10,201,13,249,231,253,207,232,214,234,230,249,14,229,227,191,19,249,255,31,8,184,183,232,8,34,63,49,23,214,237,0,208,218,242,255,26,44,51,31,213,203,6,22,227,239,40,27,249,195,220,32,193,214,255,241,254,221,206,243,11,1,208,228,212,4,6,163,218,228,29,15,243,200,8,227,209,172,38,23,191,26,38,19,255,157,159,49,66,4,237,255,74,254,238,7,239,239,255,10,219,38,76,207,206,248,14,18,246,22,21,16,230,234,248,254,250,205,6,42,243,181,224,63,23,224,1,249,2,32,230,239,238,15,18,205,244,243,1,177,205,254,49,54,12,255,249,28,213,2,197,10,50,251,28,240,14,213,9,33,214,2,24,246,21,32,16,12,198,19,7,227,231,203,58,227,26,214,45,248,241,26,6,241,223,214,230,230,241,52,27,241,20,2,227,235,239,248,32,23,227,7,200,235,218,41,13,40,251,239,18,36,254,48,0,12,15,9,203,32,211,229,46,5,241,28,232,201,34,217,21,42,241,255,225,226,218,44,237,8,223,48,246,234,210,183,24,1,50,225,225,252,8,26,187,43,234,45,7,23,15,245,10,25,33,26,15,221,255,235,43,247,209,15,2,245,243,41,228,254,207,220,34,8,6,206,253,31,32,247,34,12,25,205,7,224,227,202,18,46,8,224,242,229,57,27,16,231,16,57,243,49,218,241,166,236,254,221,43,44,254,214,27,23,255,2,32,16,233,24,236,228,240,217,222,211,250,14,26,237,248,14,249,20,236,63,245,228,24,246,241,218,237,53,12,30,6,15,247,216,51,39,255,28,251,12,11,171,17,213,220,5,46,10,236,253,28,37,47,34,219,19,30,255,18,33,39,17,5,239,28,204,90,3,198,244,240,28,239,38,47,229,222,251,244,1,28,25,199,253,227,246,235,255,222,37,223,215,0,245,225,217,179,249,56,220,49,228,239,29,33,241,32,217,2,7,234,210,251,8,41,2,218,0,1,218,189,171,80,210,17,23,53,13,181,25,16,211,230,221,222,246,207,197,253,222,216,35,50,231,212,254,218,243,24,13,253,30,239,224,188,226,224,198,205,241,236,226,210,176,250,215,225,205,247,236,8,22,8,193,254,226,48,253,42,48,249,187,26,218,26,245,64,240,218,240,187,235,250,249,237,7,21,243,16,205,246,236,49,5,204,33,212,19,13,28,176,229,6,21,6,22,33,231,25,255,45,247,7,218,221,234,206,42,230,235,197,14,254,213,18,15,34,2,249,224,38,216,222,204,206,51,217,244,27,7,252,217,210,27,244,61,31,35,26,209,9,241,205,63,252,17,47,218,219,247,44,242,17,18,254,230,8,48,45,248,245,3,235,38,13,216,31,234,57,251,247,31,48,244,10,15,224,13,31,33,247,237,244,12,34,0,40,45,69,35,1,24,32,240,4,44,230,12,46,5,251,57,13,53,38,231,86,249,34,1,10,40,253,22,31,28,49,40,215,44,227,252,9,36,85,9,31,41,44,230,253,198,245,96,249,245,64,221,33,234,216,56,58,51,3,58,13,249,49,31,11,68,40,240,7,221,25,230,217,64,54,38,44,21,2,231,213,212,27,90,36,236,13,38,20,37,207,9,71,52,17,31,34,37,246,240,62,74,252,35,16,20,56,47,194,249,29,250,20,243,237,0,10,32,73,57,47,195,202,210,229,234,229,248,92,11,21,242,233,39,26,237,72,60,49,18,13,19,217,54,21,9,246,35,4,4,219,23,30,39,74,3,9,23,12,14,23,220,42,75,33,247,242,10,38,52,38,21,45,16,42,8,23,254,40,41,250,17,209,42,12,29,233,9,8,98,7,8,254,43,7,24,5,228,42,27,16,250,232,206,11,49,225,37,207,31,228,255,224,22,249,231,64,2,248,23,236,12,41,30,231,85,220,11,4,233,247,23,255,38,56,172,217,35,33,254,41,209,12,73,180,220,5,218,220,55,242,2,5,168,181,246,254,241,20,246,204,249,233,192,11,2,202,28,210,43,10,193,182,243,58,217,230,239,246,46,173,218,231,203,5,41,11,42,53,206,249,6,18,18,32,3,10,1,28,254,238,12,30,222,210,7,242,209,8,20,245,27,199,248,254,55,222,188,235,248,50,12,37,23,218,229,249,239,10,240,235,46,19,27,4,12,250,253,213,33,22,67,10,48,195,35,64,63,6,253,220,234,39,249,206,29,236,5,7,210,239,20,242,215,18,240,236,22,230,81,211,201,234,223,23,208,214,227,2,245,8,241,3,1,235,50,12,91,4,221,181,76,48,12,233,233,78,219,204,237,7,226,20,55,239,79,40,198,254,28,25,23,201,220,247,10,193,238,57,3,226,235,6,23,212,198,210,33,248,6,21,45,43,13,188,54,65,223,51,52,226,245,197,247,13,35,33,225,45,247,1,221,195,14,250,244,235,222,251,48,31,6,57,46,255,219,216,33,244,243,199,227,234,9,233,226,15,30,4,21,254,210,180,8,12,7,55,208,229,208,29,19,241,230,239,235,241,36,244,253,7,18,31,38,249,8,41,3,224,43,252,31,242,230,46,243,253,200,26,5,231,203,224,225,37,43,210,247,25,248,29,15,74,7,14,53,15,244,52,15,8,1,68,17,202,3,206,208,255,46,8,30,29,25,36,27,217,19,255,36,62,45,240,252,23,46,24,30,56,18,22,204,255,225,32,29,45,3,67,248,213,29,10,8,18,240,45,74,50,28,215,237,56,46,28,245,0,11,39,252,10,197,25,232,28,53,33,7,203,3,18,31,2,217,227,253,55,5,253,212,33,227,251,217,220,10,233,32,41,2,33,237,69,235,239,222,236,241,50,239,232,20,4,247,243,249,43,20,243,228,5,43,214,189,242,6,4,211,242,252,25,237,242,222,245,25,38,54,230,48,212,224,22,245,244,19,14,16,33,238,21,210,226,44,17,217,54,4,239,37,220,247,252,5,203,220,220,1,252,26,30,252,15,220,235,219,34,63,2,238,33,212,194,8,26,191,233,235,13,233,50,235,36,47,36,59,41,18,32,11,231,56,40,3,37,16,8,250,15,12,56,0,253,5,251,45,247,24,18,33,53,10,4,17,207,243,33,41,228,223,235,247,34,34,42,1,21,225,50,242,252,17,212,224,253,236,20,230,228,15,247,29,234,212,40,29,74,208,70,248,46,216,216,215,50,14,14,74,10,14,208,34,239,34,15,15,234,248,44,246,230,39,221,60,233,14,65,254,29,231,228,204,7,240,208,25,244,47,222,36,49,220,8,250,234,23,28,9,245,4,242,254,215,227,21,39,250,4,16,229,229,234,233,252,236,236,22,31,35,25,8,28,224,217,245,39,43,3,214,26,63,255,44,245,233,74,18,28,233,234,33,31,47,5,105,21,26,4,248,233,232,209,53,54,2,76,1,28,1,41,232,77,36,30,41,11,15,50,244,207,26,27,18,71,241,46,13,32,33,71,8,37,54,226,22,3,230,236,17,78,33,35,210,45,250,219,24,30,14,58,239,221,45,61,7,248,252,96,55,39,13,34,234,222,20,34,22,234,48,22,26,249,30,31,54,13,17,224,236,33,221,228,241,28,245,31,20,239,54,221,215,213,27,213,34,248,6,246,238,221,39,206,254,23,42,250,17,34,218,27,18,234,200,191,226,26,67,25,27,248,214,225,212,64,209,213,242,195,224,1,230,249,238,230,11,47,179,233,206,46,38,219,56,15,60,208,26,34,25,176,235,9,255,32,205,12,220,34,210,246,202,7,58,172,14,214,232,21,29,53,254,231,251,227,200,63,220,254,68,24,52,222,204,180,30,220,246,40,31,42,179,240,249,219,201,243,251,225,4,193,235,6,196,242,200,218,231,18,34,255,162,242,235,223,192,235,252,219,25,183,201,196,223,222,12,217,229,245,179,187,6,0,35,214,42,18,255,161,232,13,180,4,22,41,5,238,235,214,55,220,216,2,251,15,173,214,18,7,79,35,201,38,85,231,224,216,231,203,23,18,42,48,215,221,17,15,1,45,240,247,39,1,165,245,40,220,231,226,236,33,242,204,76,5,71,26,22,32,227,242,214,230,11,29,45,223,47,45,234,148,43,20,250,45,53,244,210,39,223,21,205,7,245,20,41,31,210,209,19,15,224,215,40,230,4,20,209,249,198,0,44,42,10,250,12,247,213,40,247,2,37,212,217,236,34,245,200,25,37,226,255,29,241,52,246,243,20,36,239,34,12,3,65,255,218,19,240,42,11,249,207,98,237,200,205,2,43,30,208,60,59,211,232,23,3,206,16,187,2,246,248,241,247,56,239,226,169,87,55,18,5,230,46,223,233,234,73,50,19,38,71,223,44,215,11,32,71,68,53,50,194,38,221,215,1,240,10,254,226,2,223,247,234,77,80,244,59,207,252,211,34,19,97,69,234,252,241,36,1,247,218,70,48,222,25,218,210,217,6,24,30,45,10,39,7,42,4,54,236,29,89,249,8,0,192,219,7,33,49,39,238,29,207,247,39,229,22,16,69,34,222,219,16,246,215,245,49,17,66,53,54,251,45,252,0,15,79,225,44,33,4,2,223,222,61,65,210,9,210,1,50,46,226,218,64,46,34,255,42,20,244,47,4,248,232,190,235,197,15,12,4,19,54,46,8,216,234,48,31,196,232,236,231,27,6,31,52,254,10,6,10,247,212,26,225,234,246,197,29,237,0,10,1,11,36,65,173,43,4,233,178,7,243,46,229,206,220,49,61,251,23,15,215,46,190,7,4,227,29,250,1,46,5,224,29,216,18,241,61,223,18,29,8,232,189,71,19,215,226,28,41,163,225,207,35,210,30,26,231,222,192,235,226,196,242,215,194,48,52,234,57,18,5,194,238,200,214,22,34,217,205,26,217,228,252,218,36,240,233,214,5,9,228,13,8,25,199,244,228,202,23,1,42,28,234,35,33,217,243,235,198,1,246,16,242,4,190,228,39,199,235,16,37,250,235,176,250,58,208,190,0,216,223,236,230,203,194,156,207,7,58,3,197,2,202,221,249,45,55,225,20,201,210,207,170,213,245,4,210,46,225,180,225,223,50,244,224,27,189,207,190,16,28,228,18,241,251,26,225,27,229,29,241,237,47,243,250,189,216,194,249,42,206,19,233,236,1,21,214,168,206,236,245,246,31,226,212,253,185,249,202,55,238,233,52,190,2,6,255,47,32,14,248,240,205,30,227,242,238,29,219,33,7,228,211,209,235,25,248,232,3,205,248,251,171,248,190,224,43,9,9,14,212,240,58,229,23,237,229,14,41,246,245,172,46,230,207,188,251,209,223,187,222,212,56,216,202,230,201,243,22,231,34,208,23,236,14,248,36,23,191,182,242,235,40,37,43,225,223,81,167,29,243,245,9,236,36,232,205,249,1,248,195,65,65,53,226,11,239,7,28,247,42,248,237,246,207,29,23,21,202,236,13,189,22,7,240,49,3,9,9,4,19,219,28,212,38,37,233,232,245,212,10,255,14,254,44,224,21,67,9,246,6,211,209,251,249,245,250,249,214,75,201,19,234,25,64,226,11,56,27,222,31,49,8,236,40,17,29,16,226,209,231,35,6,40,25,49,10,212,215,2,247,5,8,39,253,17,255,47,17,18,2,49,248,241,205,217,224,2,246,4,215,59,240,15,29,24,37,215,7,211,210,31,227,193,198,0,218,12,35,31,25,80,220,192,230,31,249,53,51,254,14,2,31,231,40,232,22,61,235,246,200,251,29,236,242,247,238,247,211,205,1,34,213,27,6,20,229,245,38,31,220,241,21,33,41,6,39,15,198,27,241,9,44,22,231,243,213,244,9,217,244,9,16,218,29,14,225,240,4,39,19,0,3,253,46,20,221,201,27,227,12,16,251,234,236,203,29,36,24,222,5,254,197,5,48,15,5,254,208,213,249,10,33,26,212,2,24,240,45,13,19,238,216,241,213,18,250,7,35,212,228,250,249,222,38,2,23,3,227,223,253,231,173,38,255,221,7,17,23,22,240,227,224,216,67,225,42,23,248,244,172,244,235,237,253,210,223,6,3,169,244,7,240,242,237,20,30,228,184,221,226,14,27,217,222,246,227,237,223,19,252,19,35,38,249,194,241,11,229,26,3,215,30,39,254,220,10,245,9,1,15,25,222,230,211,247,222,235,16,205,207,211,3,221,234,5,6,235,31,205,0,30,17,216,29,237,18,9,7,249,220,41,234,249,10,4,225,203,16,7,223,65,8,7,244,223,0,7,233,221,222,24,33,43,227,3,39,11,50,235,8,244,221,24,21,7,6,235,14,242,249,254,212,3,32,0,224,15,204,3,50,226,16,233,238,47,39,28,247,14,30,22,43,12,61,230,53,222,14,229,40,254,254,63,22,245,19,22,227,15,223,228,246,5,234,249,234,214,25,58,202,64,240,13,240,252,222,237,250,34,25,8,7,9,17,17,31,10,32,9,224,240,12,2,217,12,243,3,60,22,26,30,253,0,215,21,242,44,219,34,233,243,221,232,250,30,16,44,237,246,15,240,14,25,246,43,5,46,232,39,221,4,236,23,46,234,32,246,248,215,231,42,235,49,224,52,35,5,249,9,37,7,68,221,226,237,253,30,207,39,11,67,211,53,234,38,10,246,34,247,49,255,255,232,254,27,219,226,227,25,0,1,39,242,251,7,31,239,4,226,4,0,12,234,11,46,13,47,229,10,228,249,212,41,32,6,241,255,243,246,4,31,220,229,40,0,241,34,31,224,19,228,241,26,237,225,14,1,40,251,216,231,2,229,11,47,212,214,27,29,250,235,239,13,245,35,255,12,254,214,252,24,250,238,238,232,10,34,240,10,31,249,29,10,1,34,21,42,34,19,225,242,8,20,27,200,232,248,216,225,13,50,239,7,16,31,31,209,13,2,13,247,235,240,216,4,229,248,222,253,19,207,26,243,12,234,224,231,10,22,24,22,13,58,250,32,249,219,232,234,213,250,227,14,217,250,24,18,215,35,239,28,16,212,10,17,0,217,223,3,22,237,8,209,226,228,20,25,36,25,224,255,242,11,218,39,20,248,249,9,4,2,31,27,243,28,3,11,234,183,185,248,3,15,44,216,255,196,231,224,3,22,28,223,0,251,25,208,225,252,36,239,254,242,224,32,2,253,44,2,221,6,13,225,202,241,15,33,26,47,234,3,47,197,226,236,19,22,251,241,226,29,248,215,231,15,15,20,12,1,248,200,229,230,4,235,5,23,225,14,199,234,238,34,52,21,238,26,235,6,181,247,240,21,252,16,38,33,25,247,237,225,18,255,222,29,218,214,2,17,246,33,226,26,41,246,200,174,247,17,16,206,251,252,235,197,5,3,4,38,2,238,31,205,225,233,254,243,22,0,203,221,37,254,3,218,31,235,21,232,231,243,215,253,249,6,4,252,14,212,245,241,1,1,212,18,235,224,213,229,44,207,223,232,0,212,235,36,8,15,234,233,234,44,5,252,33,252,23,255,32,4,7,247,244,34,241,23,221,4,20,38,3,23,222,209,28,19,239,6,249,25,10,35,227,43,239,254,24,11,231,227,203,235,2,20,53,19,250,20,4,241,8,45,2,247,10,255,5,229,20,12,51,237,240,233,239,5,41,224,211,54,7,206,18,226,239,224,215,7,229,234,247,233,6,250,245,218,237,40,14,14,29,250,11,33,248,5,240,212,242,18,208,8,22,211,210,225,38,35,5,44,239,253,220,228,249,2,16,246,33,31,230,35,203,19,242,247,7,31,246,23,13,233,250,252,38,25,252,221,253,255,205,18,246,254,249,39,241,229,201,208,11,12,54,191,245,15,249,25,236,231,9,245,26,29,223,248,249,216,29,41,15,8,22,218,46,32,9,243,247,234,230,246,6,250,3,248,14,238,24,253,254,9,17,246,31,31,41,9,232,27,205,247,205,254,244,49,63,4,250,19,216,18,246,0,3,14,13,7,25,14,48,7,8,221,32,255,17,251,255,41,36,254,242,249,17,19,3,238,40,18,218,8,46,20,246,237,206,210,249,24,207,12,226,255,14,229,13,33,247,17,31,244,236,234,46,213,7,230,241,15,30,44,215,218,242,11,42,31,56,209,237,237,30,238,28,0,229,8,35,226,247,25,208,33,215,30,43,216,38,30,21,215,31,221,227,24,4,255,4,22,30,237,10,30,226,245,250,44,227,33,2,1,200,21,8,11,222,45,25,255,234,245,0,36,12,43,22,236,218,30,204,236,4,236,34,7,4,222,23,226,251,10,223,238,9,241,254,216,30,250,15,240,19,213,227,5,207,19,248,240,33,255,219,218,1,34,10,22,230,41,234,243,243,220,232,222,0,234,224,239,250,33,40,227,19,227,10,0,45,28,29,247,36,6,20,19,45,25,236,238,251,22,38,19,17,32,35,41,243,22,240,252,15,12,244,30,16,9,249,238,7,245,243,244,231,242,237,245,251,231,0,242,17,24,243,19,249,35,216,252,234,241,1,29,250,249,215,33,17,230,235,20,21,17,230,22,235,228,252,242,38,0,240,238,220,6,14,255,245,17,208,226,217,14,226,52,38,1,14,246,22,250,219,27,24,234,230,33,220,1,210,236,232,7,247,4,252,41,234,6,29,45,243,32,47,21,235,46,240,240,236,28,18,230,36,18,241,5,253,241,218,240,231,37,23,247,8,42,12,28,0,34,36,3,250,209,242,48,0,220,233,38,32,47,19,25,221,18,24,224,246,228,39,245,214,13,223,225,255,225,9,30,24,8,237,32,20,245,4,244,216,3,37,254,25,230,12,33,251,251,14,37,248,10,224,3,33,233,9,216,220,241,234,240,8,3,255,31,246,202,248,18,4,0,14,4,228,26,230,231,0,21,27,241,254,4,21,227,245,244,16,237,219,232,253,32,4,221,238,25,29,32,236,45,223,207,16,249,231,246,239,212,21,11,225,227,6,239,255,243,239,221,227,237,248,224,1,19,20,250,209,17,33,249,34,35,10,7,2,33,221,210,6,16,219,30,235,48,207,1,12,233,10,27,10,29,36,10,9,242,212,5,9,222,216,3,221,19,235,20,21,0,241,41,2,33,22,19,254,10,16,6,4,251,234,243,12,225,226,226,9,224,12,34,17,253,226,252,3,26,236,224,209,232,234,207,15,7,36,35,39,248,244,54,231,220,246,18,24,221,253,250,50,29,227,243,225,18,211,209,16,233,202,30,225,224,253,10,254,219,243,248,251,242,244,8,16,229,209,6,255,254,254,26,218,36,4,21,41,9,227,244,11,211,224,211,228,43,250,245,246,13,23,21,232,36,58,251,238,217,228,231,229,36,226,241,222,9,38,7,247,30,205,8,1,35,255,225,248,242,40,220,221,244,244,221,22,9,247,230,206,255,240,33,252,255,212,244,24,1,234,207,11,245,228,235,39,43,242,246,35,17,19,17,240,8,234,223,15,212,214,36,26,10,27,219,9,232,21,230,23,17,20,211,31,35,222,19,54,22,59,239,244,37,36,217,217,241,230,234,17,229,233,237,250,4,15,16,27,8,29,253,242,250,251,219,8,243,254,228,246,238,207,26,243,6,2,20,244,39,230,13,13,239,240,230,242,208,241,33,248,34,24,21,27,9,26,14,42,4,2,6,17,213,249,250,213,30,230,222,255,3,2,28,12,32,227,4,211,3,242,7,25,245,38,32,0,4,2,209,240,252,33,216,229,238,230,41,26,31,244,234,247,234,26,26,242,8,34,12,11,21,46,247,21,235,13,250,26,200,221,39,244,246,15,20,247,252,207,231,224,33,254,216,229,254,32,244,252,0,235,29,14,246,234,8,36,240,253,19,11,209,5,13,11,235,249,247,24,23,11,222,235,246,26,226,41,1,18,3,250,243,240,23,230,36,242,221,0,4,246,9,227,246,240,253,25,234,232,225,8,217,19,207,237,30,4,19,26,14,237,222,203,25,28,220,234,1,220,239,6,217,55,255,230,239,240,19,240,7,219,239,9,231,240,245,28,33,217,1,241,252,13,222,241,244,232,213,22,216,216,207,8,224,46,216,30,250,250,1,253,25,246,4,3,10,5,216,241,15,235,9,251,4,37,10,37,218,32,225,9,34,215,1,227,232,18,224,239,38,240,246,5,252,16,236,10,250,233,19,215,223,6,221,255,243,31,12,245,35,227,228,241,52,207,21,244,231,21,208,46,3,25,238,238,3,5,29,46,224,212,255,242,22,246,239,15,240,228,214,52,19,19,227,246,0,33,222,236,11,248,238,246,221,14,25,2,20,37,19,0,239,229,12,225,255,19,23,40,223,242,27,197,25,222,239,254,43,16,20,239,217,37,32,4,241,6,16,4,10,210,217,225,38,231,228,25,237,226,216,208,236,28,6,232,13,26,8,246,223,209,244,41,37,241,248,8,239,11,209,219,2,11,254,24,239,13,211,246,217,233,31,9,15,253,236,211,249,4,233,211,233,29,30,227,213,215,227,252,2,3,248,248,22,252,11,249,247,34,244,242,248,30,6,229,8,16,34,249,237,223,37,32,246,226,46,221,8,23,244,241,254,236,17,223,40,4,234,248,247,243,28,47,242,68,24,30,2,228,236,201,23,34,64,205,47,193,238,35,64,252,62,16,231,240,16,255,17,245,44,33,80,11,2,236,251,64,238,212,44,27,45,16,253,233,239,39,4,252,55,218,45,203,3,26,9,1,27,236,60,52,242,46,9,22,238,5,54,29,205,253,33,220,5,19,45,86,61,244,12,203,211,248,24,214,65,22,21,23,31,240,255,255,245,17,199,21,29,240,18,22,34,39,62,45,13,7,14,242,223,248,242,0,13,25,239,237,5,238,203,252,18,27,237,58,231,206,200,248,13,62,180,207,213,230,220,255,237,199,2,233,41,0,223,219,35,188,239,24,32,33,255,30,226,3,187,26,209,86,237,208,73,36,38,216,191,232,244,39,6,38,25,40,190,8,21,96,216,4,233,198,0,231,14,183,14,140,28,40,236,253,233,238,17,241,35,195,207,243,231,234,34,254,46,250,34,208,32,46,14,232,244,251,215,8,19,53,255,242,8,206,188,221,203,189,231,24,21,185,220,14,49,61,22,44,6,197,206,193,169,4,255,53,220,32,200,186,242,239,228,60,232,250,207,248,254,246,216,253,230,23,29,16,218,201,221,230,47,67,4,253,28,237,239,204,208,27,33,32,37,216,239,2,244,201,23,215,249,227,217,45,146,17,41,198,54,219,37,34,231,220,194,10,249,76,244,220,40,30,198,243,3,218,218,214,20,252,24,209,25,1,43,190,37,199,244,7,236,213,236,20,25,196,208,16,43,216,47,22,48,64,29,25,204,27,223,24,20,21,219,37,38,12,215,186,57,9,25,25,38,225,22,210,211,4,204,245,1,38,204,43,250,212,36,65,195,32,7,33,39,48,46,22,231,236,232,209,6,198,243,4,237,229,24,255,27,216,238,211,30,227,223,154,201,24,220,223,245,68,17,245,9,253,2,5,37,209,8,211,24,227,211,26,219,16,188,98,219,245,45,219,235,54,247,181,13,50,26,23,10,49,231,4,24,40,237,27,12,11,247,18,218,208,38,209,229,43,6,234,210,36,14,36,252,77,232,29,242,220,224,228,98,221,12,10,251,215,223,45,239,5,69,241,204,211,217,208,49,188,27,225,2,32,14,198,26,30,22,26,7,41,227,205,38,50,211,207,50,229,225,217,192,11,16,229,31,85,19,38,38,248,9,33,226,36,13,17,224,252,6,24,21,2,253,22,57,200,51,251,206,7,242,12,49,10,213,244,209,210,3,50,226,229,24,4,4,24,23,235,241,10,64,223,231,40,227,241,240,27,25,41,63,16,26,214,232,190,36,20,225,70,247,216,208,17,17,7,250,70,236,23,60,245,209,41,1,216,255,43,213,14,0,222,255,62,206,42,250,203,173,42,224,52,239,28,252,6,56,35,70,230,27,9,164,64,9,53,241,240,24,201,26,34,22,241,6,168,6,237,6,29,235,58,254,247,41,22,5,222,213,203,254,44,244,6,3,42,210,53,6,255,70,221,1,10,47,13,50,6,11,49,61,60,244,234,230,6,12,20,46,3,231,226,37,238,214,1,53,236,237,2,65,227,251,3,247,32,9,211,253,244,232,240,54,167,43,11,244,1,226,241,16,6,26,35,18,249,204,230,13,237,16,217,187,53,230,13,203,254,0,37,188,201,238,250,245,0,237,66,34,239,229,216,244,80,4,219,200,32,191,206,67,219,247,242,243,13,216,182,165,26,203,56,226,254,8,14,2,238,72,247,37,27,253,5,22,11,181,20,197,4,174,1,224,245,24,159,36,1,35,247,6,254,243,29,164,248,210,224,252,241,23,47,13,143,49,214,40,52,254,237,2,57,234,232,217,217,251,9,215,217,65,234,249,217,39,33,24,207,217,40,170,51,234,221,221,0,232,35,41,244,25,20,247,209,15,225,6,28,254,12,209,239,1,4,221,43,26,233,239,222,216,58,223,194,222,22,231,201,208,229,36,209,241,12,92,25,211,51,214,43,20,206,7,24,220,223,26,225,208,9,216,233,34,6,207,2,223,251,17,9,11,29,51,221,222,37,12,245,235,63,249,3,216,232,20,219,245,23,216,55,44,5,212,253,176,205,190,24,43,240,217,38,12,244,4,37,244,207,179,43,34,62,226,205,30,38,35,226,203,253,38,243,1,6,248,6,223,231,17,224,246,195,255,243,36,244,51,6,245,32,202,213,10,39,227,218,208,202,8,187,30,218,18,13,237,15,4,191,21,51,230,8,216,2,240,240,241,207,216,252,51,20,42,47,27,241,25,213,51,2,209,20,238,252,249,53,253,61,6,253,218,197,20,10,254,10,211,6,48,251,207,196,210,11,20,223,11,244,6,16,231,36,197,232,5,19,53,210,36,4,61,45,50,253,246,248,212,43,238,217,45,20,240,6,2,73,13,23,193,197,249,249,47,12,215,52,252,34,213,248,240,241,24,36,7,38,7,18,8,218,40,249,38,10,253,180,0,45,22,238,207,215,11,236,200,11,226,236,49,53,205,52,235,12,30,245,239,252,7,223,237,29,46,227,239,254,252,236,188,44,193,19,206,42,203,62,36,194,224,16,8,222,252,239,248,31,10,213,203,213,215,214,16,55,67,248,19,43,179,238,252,36,33,58,247,255,223,13,232,201,38,62,81,210,241,0,45,35,4,245,69,33,249,233,217,252,21,26,43,50,78,8,2,48,39,16,21,27,51,111,32,4,56,29,12,23,34,67,93,13,61,220,217,217,21,204,94,254,244,218,208,9,207,54,240,62,67,246,41,73,19,32,49,202,43,20,208,36,236,212,63,222,211,7,242,223,220,30,13,218,4,198,63,230,214,43,94,235,31,40,52,66,211,55,62,51,221,213,38,237,48,251,244,202,231,234,29,223,34,8,49,48,30,55,58,218,255,235,85,220,235,65,229,20,235,238,211,10,20,247,46,230,3,5,38,247,7,245,37,248,185,1,67,4,219,74,221,247,4,31,202,34,6,42,38,21,18,60,14,26,20,1,11,53,7,8,24,202,20,7,254,13,200,51,223,53,10,16,223,238,224,240,254,250,85,241,34,24,17,47,193,249,219,198,18,253,224,22,10,13,244,54,18,19,17,10,2,16,218,23,26,231,243,16,51,228,241,205,20,236,255,8,54,12,40,181,17,28,23,190,226,14,223,233,214,7,33,30,202,52,193,234,6,211,232,249,250,246,191,233,248,32,46,43,234,1,237,27,226,0,31,252,53,247,234,2,245,241,246,250,200,242,185,205,194,79,242,252,51,231,9,239,245,148,1,220,225,18,19,76,248,219,231,36,231,225,51,11,234,233,227,234,39,60,40,8,199,241,191,252,37,52,236,253,17,16,5,239,214,8,34,39,2,238,248,29,156,212,242,229,214,39,207,254,250,4,15,243,5,238,228,204,16,224,155,209,228,45,226,58,24,192,238,173,19,43,237,45,68,227,218,43,226,37,193,205,14,46,48,249,10,150,13,153,6,33,219,45,32,208,198,223,234,13,252,7,18,14,237,176,18,3,234,242,247,247,216,2,179,202,216,18,239,8,21,232,236,219,216,26,2,30,10,31,222,242,221,223,211,15,4,238,252,31,242,181,31,252,22,211,35,213,23,218,4,218,66,60,63,240,247,2,239,13,17,51,185,16,239,5,201,44,66,231,3,6,238,245,239,208,208,37,217,25,50,62,13,12,239,231,21,255,209,234,20,3,214,23,38,60,250,3,253,18,42,22,203,242,49,29,32,198,201,47,244,242,251,40,51,60,17,255,18,6,50,241,8,20,67,233,216,47,252,9,48,30,0,218,195,254,2,62,5,79,10,67,237,10,49,212,48,11,32,201,40,210,14,245,35,0,9,232,60,60,47,31,6,220,18,28,79,8,47,42,250,230,0,218,230,25,24,0,11,234,29,24,12,235,89,40,60,26,34,76,65,42,221,86,226,233,16,48,241,235,252,1,62,50,2,23,254,216,25,31,229,97,231,241,237,13,234,37,44,1,85,230,54,72,255,51,20,252,46,4,232,57,77,52,34,232,47,241,65,55,5,60,235,4,57,210,246,12,66,19,249,42,63,36,195,34,44,43,1,244,220,9,17,234,254,35,254,241,82,12,28,61,206,208,32,245,7,10,227,224,24,231,233,89,45,50,5,70,223,48,31,11,16,16,2,220,35,47,10,24,46,19,46,5,232,27,76,60,194,27,22,7,212,252,246,56,34,29,245,231,22,223,221,34,244,55,20,18,30,30,21,19,247,15,239,24,39,14,50,233,29,53,20,46,31,10,213,235,50,243,239,219,24,216,29,30,29,249,10,40,11,2,49,227,220,233,36,212,6,247,20,0,10,50,204,208,33,213,33,30,54,17,34,28,218,10,41,208,250,25,29,11,24,251,8,254,203,6,52,26,56,1,37,252,255,37,21,217,5,202,248,46,251,41,220,61,207,48,222,189,208,209,2,77,43,23,225,253,239,255,179,28,227,32,39,218,45,188,192,11,253,44,0,208,231,29,210,28,47,23,46,53,38,11,221,206,242,6,44,252,11,253,223,23,249,33,239,252,46,20,43,207,220,18,205,234,28,14,14,242,37,54,238,192,186,46,212,66,247,31,248,246,27,2,229,247,39,249,236,52,227,251,255,216,228,65,15,217,20,32,207,45,243,245,232,50,239,203,0,20,3,245,60,40,30,208,30,220,32,208,220,13,11,56,201,15,193,225,226,233,251,236,228,244,13,36,228,39,192,247,216,30,19,29,240,34,221,74,227,224,47,239,61,8,242,205,228,6,13,237,12,202,235,11,224,61,16,243,46,211,64,31,190,176,13,56,77,214,221,241,240,248,11,2,4,11,16,244,221,255,240,206,10,32,34,4,212,239,236,249,19,196,214,43,215,45,41,190,233,16,0,239,218,9,226,3,239,200,215,208,35,11,202,246,43,2,239,224,3,231,254,253,35,24,5,171,252,227,239,233,253,237,40,18,217,228,31,17,12,210,228,240,231,237,201,235,10,218,248,216,20,26,192,238,15,222,5,227,229,46,2,201,31,13,240,206,210,43,15,30,15,245,2,6,18,220,224,24,254,37,227,9,37,9,14,223,53,45,18,254,12,3,235,244,33,39,50,204,32,255,51,236,27,24,7,246,254,18,11,220,6,32,250,41,77,8,26,1,9,13,209,226,255,57,235,18,32,252,253,245,211,77,23,211,249,246,239,211,243,7,51,70,23,224,206,217,222,244,248,80,60,0,250,40,224,39,234,16,81,12,52,212,50,245,247,15,11,22,31,238,40,39,1,249,23,4,26,67,39,31,251,236,220,215,2,14,43,51,49,246,2,232,49,236,13,241,13,43,42,39,54,232,250,255,65,21,2,215,232,5,38,226,8,42,247,28,26,213,253,53,210,242,237,44,6,236,6,240,0,235,19,210,46,64,199,231,242,36,54,193,30,72,16,216,233,222,245,231,211,26,7,71,15,25,254,24,21,208,20,254,248,231,20,218,49,202,252,54,80,22,8,7,247,47,221,203,52,74,217,19,222,30,31,51,0,227,52,12,219,34,212,251,0,20,39,51,14,255,225,35,56,54,45,5,20,209,15,246,236,254,47,215,21,59,241,221,218,240,11,233,45,23,2,221,236,212,50,2,255,72,9,229,249,250,241,31,29,55,15,244,240,243,30,244,26,8,253,10,201,9,231,40,247,52,44,24,67,218,183,7,18,15,46,0,3,244,251,188,48,243,11,39,227,244,54,222,193,252,250,253,52,232,206,47,239,240,17,76,49,7,4,30,73,205,221,205,17,245,49,244,9,76,243,197,19,253,207,19,233,232,4,192,197,205,245,20,38,46,32,57,168,191,20,253,3,61,229,26,241,202,252,183,235,32,7,245,32,8,179,3,235,246,4,232,233,205,40,229,196,255,240,248,44,30,211,222,0,10,235,255,248,254,12,229,11,221,26,16,245,246,246,252,44,232,6,233,240,220,34,17,23,2,11,233,211,250,243,5,215,30,253,224,197,241,248,254,203,59,23,28,244,27,22,47,229,232,4,40,215,42,2,188,237,23,35,235,243,47,3,19,192,0,10,3,33,223,193,238,249,35,252,31,28,40,197,8,230,248,38,14,243,228,51,25,15,251,22,218,31,14,236,34,240,43,242,255,24,219,23,218,255,196,23,48,254,215,48,255,21,237,12,203,33,202,27,40,43,13,39,211,248,26,29,45,16,211,13,25,220,192,13,33,231,214,187,62,204,238,25,45,31,240,246,80,2,249,24,45,29,249,37,246,216,255,211,240,13,17,253,42,219,233,212,210,40,29,12,28,5,15,0,4,21,238,20,57,18,38,251,235,238,6,40,243,4,12,235,19,45,43,63,242,248,46,233,9,253,236,0,250,223,222,33,13,33,235,27,226,31,207,246,16,248,12,58,57,7,36,19,32,15,15,34,70,237,38,246,249,39,4,49,227,1,241,24,57,37,255,63,52,5,28,252,45,217,8,254,243,233,43,11,246,6,202,8,219,1,16,32,72,10,57,249,246,229,52,1,48,27,211,214,250,30,37,13,52,6,13,10,17,15,208,232,33,245,199,253,15,46,37,25,28,254,42,41,233,9,236,53,45,238,22,57,28,250,22,53,255,222,235,224,16,247,44,12,241,252,28,38,248,2,250,250,252,0,4,10,10,246,33,48,234,11,27,221,227,243,3,66,220,250,228,248,43,233,20,227,61,232,8,56,32,52,25,16,25,40,18,14,226,225,38,23,236,35,28,18,17,4,11,38,36,44,222,225,218,2,39,23,252,248,215,17,251,220,1,2,242,16,19,45,249,217,19,1,15,6,34,239,249,204,200,250,223,25,20,22,211,236,12,5,223,206,229,17,51,233,5,234,222,13,204,240,19,31,239,228,233,2,205,25,26,66,247,39,203,31,238,44,3,3,238,48,230,45,20,22,244,248,17,225,243,243,205,0,227,206,13,223,24,52,224,210,248,49,21,228,248,254,42,205,46,9,8,22,205,14,203,53,233,222,241,227,37,211,252,210,244,4,221,255,241,224,231,255,37,44,36,48,13,210,22,245,225,2,253,42,233,230,53,230,253,5,225,49,10,9,252,244,41,196,25,60,243,239,59,32,251,32,19,1,251,254,30,229,7,22,26,5,47,250,246,229,27,45,30,29,255,4,182,239,11,30,24,228,0,220,36,21,5,250,61,251,244,253,221,247,2,43,213,226,219,16,217,14,247,40,86,33,231,242,211,218,1,50,30,11,48,12,247,36,223,176,17,56,31,30,9,240,168,176,20,187,254,211,242,214,37,191,208,212,230,233,32,52,215,209,228,189,201,203,46,39,204,210,195,148,180,252,253,7,208,7,216,212,186,186,163,255,217,243,7,6,250,196,187,218,208,226,213,23,58,210,157,246,177,228,206,7,199,6,14,236,248,217,4,48,247,235,214,200,178,253,218,57,221,43,20,232,231,161,40,249,254,240,22,41,49,205,2,51,17,251,250,208,210,3,172,231,50,1,61,11,13,197,211,7,190,27,30,199,217,248,211,35,222,9,231,37,235,253,28,45,217,6,213,3,2,6,34,248,47,16,13,247,44,201,222,46,212,42,3,177,42,16,13,39,232,10,13,254,25,64,75,210,33,19,5,9,219,251,47,1,238,205,21,202,209,240,191,58,6,231,251,40,7,2,32,246,245,249,236,21,54,4,221,216,244,239,103,230,23,3,47,246,207,192,68,57,16,77,3,24,239,3,210,4,83,25,255,222,232,195,16,185,43,97,210,37,220,36,249,9,216,12,51,195,235,48,201,255,227,202,74,86,16,15,48,5,229,12,226,233,255,46,10,228,13,46,50,244,56,95,230,0,255,37,42,224,244,38,61,235,216,2,248,233,49,250,50,10,241,214,7,30,249,43,13,234,83,1,214,253,44,225,20,200,26,255,252,205,1,39,26,76,1,35,58,29,196,246,29,211,231,200,43,48,1,7,189,200,239,45,211,242,60,31,228,36,23,3,249,26,56,49,252,7,206,228,57,7,48,251,253,39,229,21,11,0,216,37,11,243,11,232,227,29,242,22,7,63,46,209,247,48,219,25,7,10,72,241,40,46,248,37,73,240,8,219,252,61,218,240,21,5,1,9,71,251,17,47,7,237,43,31,7,36,5,72,6,253,249,221,56,7,230,168,11,232,11,247,5,39,14,241,214,43,242,69,10,208,244,73,215,250,8,209,197,23,246,244,83,47,226,13,19,28,232,52,30,230,229,228,0,246,230,17,199,232,28,34,226,44,221,191,223,210,1,68,213,235,74,232,210,230,241,196,17,232,177,28,185,27,221,245,19,230,36,11,6,240,243,202,23,72,34,35,230,225,250,50,49,47,56,247,229,190,252,33,0,178,23,70,235,245,6,248,246,32,243,233,5,4,251,213,2,220,211,214,28,26,20,18,255,236,219,248,2,14,60,40,234,12,215,58,13,206,6,208,229,222,173,213,252,33,30,224,6,71,186,23,237,38,219,208,226,227,71,200,230,210,239,223,41,4,225,36,17,25,250,249,2,198,17,219,4,30,212,171,101,48,34,34,235,223,247,23,187,253,25,217,4,20,224,187,235,219,236,74,17,202,34,43,43,235,35,5,34,236,32,211,7,249,3,4,214,7,240,220,52,7,249,187,49,14,201,9,206,31,34,25,3,204,249,30,40,33,231,198,231,232,217,0,204,252,39,228,4,227,223,199,33,211,215,255,219,186,22,238,196,51,246,229,244,235,248,31,50,226,23,202,224,249,58,231,236,213,225,252,16,229,255,251,193,13,42,198,24,11,5,14,249,229,248,5,202,68,45,50,195,252,43,213,220,232,238,35,225,245,16,234,225,5,250,10,246,254,29,37,205,251,4,234,38,59,239,13,223,208,223,58,7,254,233,23,218,239,50,20,227,19,27,8,52,240,220,34,31,74,230,215,234,243,247,28,216,31,14,30,21,0,210,2,251,213,21,37,52,11,249,209,13,213,40,31,28,54,18,218,26,225,252,11,4,23,13,0,35,222,199,243,240,1,1,35,22,13,251,3,48,46,208,13,33,255,199,22,241,41,218,21,209,219,230,221,243,231,49,41,34,27,209,19,37,33,249,48,234,240,58,254,250,228,50,14,48,42,43,231,33,228,206,221,228,50,224,40,221,14,20,26,242,238,195,215,221,4,217,3,44,2,240,43,206,58,2,84,4,72,244,37,214,19,31,26,53,248,31,231,40,20,5,25,226,15,227,11,247,42,19,19,57,27,44,254,238,215,8,205,4,47,200,216,208,229,10,252,223,27,28,218,58,0,216,219,221,44,242,214,25,30,232,2,12,221,211,4,65,7,4,211,231,6,226,249,200,58,19,13,252,236,7,41,237,250,254,198,206,217,222,5,225,224,218,10,206,17,7,1,48,19,20,14,249,45,244,220,55,218,202,21,18,43,241,38,9,48,204,212,248,45,248,45,25,45,68,14,22,253,223,61,245,210,56,243,198,245,9,232,214,34,238,242,23,224,247,55,34,58,31,25,255,9,232,0,232,217,52,33,46,21,9,75,235,47,16,45,249,34,249,209,246,51,41,241,205,35,47,214,218,35,11,40,226,219,21,9,213,222,12,244,215,22,243,27,23,209,45,9,239,18,231,207,209,235,36,38,0,21,245,27,0,161,239,247,8,249,229,203,230,227,179,7,233,193,12,25,34,56,198,230,252,45,219,226,45,237,31,21,209,215,211,223,239,28,21,10,1,205,215,203,243,22,13,215,11,11,248,6,187,25,247,241,5,230,214,210,1,232,215,42,33,4,253,1,198,243,207,252,247,244,21,211,248,228,240,188,5,30,231,36,6,53,7,4,220,254,19,13,222,31,43,228,233,246,50,239,243,14,226,70,234,30,182,179,32,223,40,9,3,251,51,232,250,18,253,240,18,7,221,28,3,46,221,243,233,10,44,11,39,5,231,29,225,224,36,52,230,245,241,246,42,245,31,54,28,222,32,234,253,19,234,245,52,82,51,33,220,8,17,21,232,17,22,24,241,232,246,236,222,28,69,11,243,1,3,250,252,58,7,25,62,34,238,21,213,9,213,219,61,11,54,40,2,31,25,28,224,32,53,12,12,54,25,22,38,227,16,244,69,249,23,22,255,1,17,18,76,29,42,25,238,252,42,46,251,63,84,254,215,218,15,5,12,61,21,42,17,248,232,251,15,253,5,221,246,4,246,34,253,16,238,27,6,58,255,215,11,43,2,226,253,247,76,17,6,249,219,36,250,232,251,10,232,2,22,13,38,20,225,36,51,223,236,251,33,16,22,226,43,71,222,236,0,4,242,24,201,1,71,10,212,6,64,217,240,250,240,240,19,20,243,6,250,2,38,226,60,242,15,218,0,8,43,251,234,8,249,60,221,8,11,251,25,247,46,175,236,18,230,252,24,28,248,52,20,32,219,62,46,15,38,33,236,235,1,33,238,240,255,1,217,35,17,0,255,232,230,38,219,252,221,226,238,15,236,12,25,44,251,30,30,57,205,7,8,48,240,208,13,243,245,42,235,23,249,13,198,26,18,49,7,38,4,222,250,221,2,215,36,239,19,250,230,0,7,240,215,247,25,7,37,25,48,225,231,14,216,237,249,50,243,201,213,204,250,237,0,19,30,243,37,253,212,254,28,226,16,3,4,243,190,202,234,240,27,17,25,8,246,226,252,234,223,42,225,45,27,249,253,215,213,6,253,221,39,17,23,179,242,250,16,219,232,252,230,236,237,208,20,12,248,235,8,37,230,16,19,194,250,28,3,209,27,10,26,12,17,13,22,25,252,217,220,237,234,241,212,237,254,20,243,27,3,22,21,12,236,6,11,224,241,238,236,205,10,229,252,21,35,3,226,247,239,230,9,233,7,244,32,8,241,248,33,23,237,225,237,35,244,17,27,246,5,19,3,35,44,237,13,4,245,245,39,28,35,42,222,27,16,47,255,244,216,40,236,218,40,36,9,224,1,229,18,3,232,30,50,251,252,239,209,243,34,10,24,248,216,27,21,34,207,243,44,11,241,250,43,16,246,224,235,34,40,235,8,20,231,212,214,240,40,42,233,204,251,10,212,243,32,244,15,10,11,251,26,6,32,240,52,3,16,45,17,39,219,9,33,43,239,232,14,4,248,238,33,242,244,28,15,54,39,24,34,253,27,220,5,217,251,13,230,241,28,74,255,67,237,247,248,239,255,210,255,223,5,245,240,240,26,238,232,23,238,224,7,249,11,226,44,16,21,22,5,29,237,7,245,21,249,64,13,2,33,48,50,231,19,239,55,63,232,11,21,43,209,250,1,66,13,246,51,69,22,250,21,238,223,29,2,9,3,238,9,51,253,3,45,245,8,16,227,35,9,43,20,3,35,14,2,44,19,8,11,37,235,1,1,2,7,27,253,14,6,249,32,235,9,243,36,223,239,225,243,239,7,33,236,53,239,251,222,25,225,41,254,199,238,229,201,42,0,244,194,8,21,6,217,214,250,234,243,214,251,10,14,241,232,245,21,8,16,52,1,23,60,247,236,221,236,254,238,238,248,232,12,35,47,20,207,29,51,14,39,24,45,29,0,208,26,225,19,242,3,24,219,10,32,7,29,248,241,50,241,47,230,249,36,253,236,224,228,238,15,5,238,1,219,42,215,46,42,229,238,251,32,6,24,219,225,1,222,240,215,16,7,49,9,228,52,13,15,239,14,0,45,9,239,12,205,216,247,227,34,216,13,251,241,232,26,251,229,19,250,224,51,218,39,212,248,4,249,48,18,1,250,214,232,227,229,227,33,27,29,230,219,32,226,8,239,9,3,219,255,21,230,208,220,213,9,20,222,248,234,4,234,7,248,2,4,217,239,31,40,48,10,227,253,228,234,231,229,218,233,233,0,244,230,216,241,49,248,196,240,20,27,28,227,238,18,25,230,6,238,57,3,223,247,252,246,40,239,36,8,49,231,223,235,250,0,48,16,3,21,31,39,211,214,251,246,249,58,23,19,15,34,226,182,0,218,52,11,230,26,20,12,16,211,243,69,28,0,220,37,55,19,220,49,218,213,222,40,8,98,6,38,19,11,24,222,13,73,234,209,1,39,22,24,37,209,25,53,21,239,234,226,16,50,56,8,79,68,11,48,243,232,238,34,2,97,232,66,59,212,27,250,32,61,59,25,218,31,4,204,239,7,42,244,26,238,243,21,243,250,50,23,56,51,234,222,251,60,55,250,26,1,10,46,241,234,213,216,49,37,3,200,245,168,34,225,252,246,51,214,217,213,248,7,6,216,90,17,253,209,202,5,0,29,208,66,255,6,227,242,14,41,57,248,71,207,22,249,35,21,239,210,45,92,53,213,15,23,17,51,194,241,219,195,13,31,29,235,193,214,40,71,204,7,39,196,204,254,24,201,29,217,235,31,6,49,228,44,219,26,227,216,74,31,25,33,219,228,218,221,235,46,26,0,254,224,47,45,203,2,219,210,191,28,243,237,18,227,180,232,15,221,6,213,238,17,14,181,200,233,206,218,213,28,207,18,247,242,239,213,224,26,4,254,204,249,204,244,6,54,198,41,234,203,245,216,19,224,25,31,244,252,232,205,38,208,44,248,249,244,248,246,30,4,233,228,23,7,216,57,201,196,37,25,227,239,7,15,26,206,205,23,218,238,211,214,29,4,12,239,190,5,205,24,230,15,3,208,214,49,237,238,3,226,17,19,237,241,25,33,77,26,253,200,37,209,22,247,38,199,51,0,42,244,231,43,213,49,20,36,17,25,35,224,220,9,41,225,233,197,227,19,203,235,241,18,230,3,229,253,251,16,243,38,237,8,33,9,224,251,40,243,231,39,0,198,226,231,2,252,54,200,63,236,59,252,40,48,254,40,46,29,45,34,37,43,57,13,233,205,29,25,40,199,244,231,2,12,6,223,31,38,213,40,27,187,220,35,240,236,11,175,213,220,41,32,223,34,230,43,214,33,35,198,57,223,54,232,45,232,39,217,249,52,35,250,14,249,219,12,47,199,0,53,28,41,48,228,7,240,27,62,75,25,50,23,215,14,9,207,241,230,234,74,46,4,238,51,220,44,19,41,16,250,181,254,33,14,35,184,232,16,30,28,11,243,9,49,254,225,234,6,0,227,209,241,23,9,34,250,218,37,215,220,243,73,6,241,217,35,246,220,238,242,43,210,228,211,218,17,220,253,24,36,75,48,35,226,251,214,217,47,43,10,23,252,230,223,255,253,4,242,37,26,39,221,27,17,252,30,246,15,0,4,42,31,32,32,58,17,229,29,27,237,1,234,45,36,28,14,1,43,1,40,202,209,254,14,206,248,29,46,246,209,205,245,207,61,227,238,219,240,24,38,75,41,248,24,223,227,228,41,10,252,226,254,26,14,241,210,57,19,47,19,245,215,237,32,234,42,47,9,85,248,207,40,222,254,250,250,225,36,253,64,251,246,59,234,227,28,22,81,241,216,248,211,247,223,13,13,11,39,56,252,232,33,62,40,16,67,70,251,223,217,15,217,19,1,68,222,237,192,250,39,234,37,10,62,43,245,32,224,19,23,245,38,245,39,217,34,11,50,0,20,3,253,212,57,231,13,247,40,216,48,21,2,48,52,15,48,200,27,248,14,224,10,33,230,214,37,52,17,7,251,220,22,13,252,23,220,59,23,241,181,13,255,232,235,22,16,40,216,22,250,8,224,201,211,37,33,7,235,48,210,220,253,222,27,245,204,6,200,32,224,232,42,246,30,206,220,219,43,27,255,252,82,237,234,19,203,221,10,225,27,33,216,44,194,237,4,225,10,4,8,219,1,36,211,31,31,209,182,52,24,51,9,206,43,29,210,243,65,186,30,49,198,233,41,67,214,17,210,218,238,17,44,44,65,16,232,26,248,26,250,16,223,226,188,37,36,27,219,27,253,239,47,197,219,188,42,21,23,199,54,38,232,34,27,218,250,2,252,27,46,8,229,233,204,223,18,252,4,33,218,29,35,233,225,235,255,207,90,190,13,239,252,164,206,27,241,5,185,229,7,237,4,63,24,47,55,205,45,216,189,244,68,23,223,37,199,3,250,44,6,48,45,21,53,220,8,243,30,25,4,205,2,38,4,240,244,241,193,32,17,35,246,13,34,219,50,217,50,212,36,10,223,0,26,16,8,243,192,9,35,210,25,176,38,11,242,188,57,226,247,213,18,36,208,207,15,228,233,225,34,184,251,61,244,30,2,56,213,20,211,58,55,230,222,234,242,13,231,231,24,16,233,9,47,217,250,222,184,244,37,52,199,13,9,193,232,186,251,35,225,221,26,35,13,0,14,8,255,36,10,205,55,24,207,218,60,38,19,53,41,38,180,255,226,12,1,12,232,29,254,238,254,209,64,40,246,15,18,34,247,242,15,226,254,39,44,204,33,41,44,248,6,45,6,238,208,45,14,218,42,28,208,17,248,2,233,235,246,2,0,244,230,22,24,247,237,231,59,218,7,31,239,207,212,229,38,4,251,0,244,32,10,219,29,248,6,221,25,241,14,208,220,228,227,24,13,10,1,35,241,239,1,26,39,251,13,0,35,33,230,40,33,219,8,254,241,231,3,254,250,4,240,21,230,230,235,38,235,254,229,32,1,2,34,32,42,235,239,234,17,35,10,212,21,228,31,210,35,235,231,15,245,222,24,220,226,40,18,234,17,4,231,31,30,254,16,217,25,16,40,34,237,225,196,208,228,33,246,11,231,214,14,8,225,14,247,1,5,228,215,232,234,9,238,0,5,14,11,27,234,24,221,242,229,9,205,44,2,9,251,23,244,22,254,255,23,8,216,225,244,20,25,4,214,220,20,237,232,251,231,222,6,10,43,13,36,221,246,14,35,223,239,4,23,244,25,223,25,245,231,241,245,208,255,241,198,6,249,252,251,223,26,14,246,217,241,30,26,12,28,34,29,11,11,254,254,247,6,15,232,10,215,207,19,255,30,238,232,242,9,219,237,8,19,227,236,249,254,232,239,47,12,251,28,36,19,214,38,224,235,241,10,249,13,20,208,242,28,11,20,9,229,29,218,8,26,52,228,42,16,226,34,223,226,18,252,27,249,244,17,40,33,217,242,56,51,3,232,243,208,1,26,231,228,1,26,233,21,208,16,11,2,27,227,248,244,16,17,215,215,10,240,14,11,247,240,226,223,25,213,218,22,234,0,8,41,18,12,15,2,248,31,255,15,249,255,213,12,12,8,10,15,9,19,228,212,32,8,11,236,248,6,20,37,11,23,35,234,4,6,237,218,226,35,239,2,6,237,38,231,238,244,11,36,12,234,35,252,225,28,225,17,58,14,239,5,25,2,9,11,240,17,201,243,236,242,0,239,28,245,48,205,229,232,33,243,235,0,20,237,225,2,248,9,26,234,246,247,240,194,47,17,45,5,246,235,246,37,19,59,6,32,244,233,20,251,2,6,5,31,230,243,27,7,250,59,202,22,4,13,20,239,14,39,34,251,16,28,242,33,23,233,13,233,216,30,236,246,3,36,243,47,8,209,25,15,232,246,219,4,25,0,228,12,237,0,245,11,200,18,240,23,226,248,24,251,237,227,41,30,222,217,238,18,3,24,14,12,21,246,215,248,245,244,22,251,33,255,0,226,237,2,31,40,242,21,228,28,232,246,1,249,253,7,41,23,30,201,2,38,32,219,37,225,248,242,213,22,2,8,29,28,223,16,237,215,13,244,247,15,202,245,251,243,223,254,29,42,235,239,236,4,31,16,255,13,35,27,2,20,18,12,255,217,253,31,215,240,233,37,213,225,237,253,2,27,18,225,34,233,249,25,4,224,218,9,206,30,220,251,7,31,237,11,209,227,43,45,2,236,226,249,28,247,24,1,252,234,50,43,253,254,10,35,1,17,196,249,251,1,47,223,247,23,7,25,36,13,19,16,215,31,228,17,195,35,241,248,24,218,42,2,39,224,36,237,235,224,242,4,241,10,243,29,17,249,34,245,19,226,25,235,23,212,241,8,2,229,8,30,12,18,0,18,244,22,53,7,0,248,255,7,11,223,43,23,21,40,225,246,249,225,231,227,28,249,36,23,18,24,227,10,1,14,221,31,241,27,222,2,241,23,10,0,242,254,19,211,235,19,254,214,252,14,21,2,16,4,29,254,246,241,225,251,22,245,13,250,250,15,18,44,206,12,254,29,242,37,214,20,41,255,11,17,11,234,216,28,22,240,220,14,248,35,207,31,40,26,236,28,1,12,10,3,210,255,207,244,36,22,235,4,222,232,27,4,242,39,8,12,2,238,29,44,223,249,44,27,249,218,223,37,214,4,34,240,1,233,252,10,227,41,206,224,231,16,22,229,43,209,244,219,218,241,22,246,229,231,211,217,196,23,246,21,28,254,39,17,251,255,226,45,25,233,29,1,230,229,216,3,252,219,35,25,3,37,210,236,218,39,254,238,250,218,248,35,214,238,241,17,23,242,34,248,248,212,11,14,23,34,9,18,247,9,233,1,217,243,254,255,231,0,49,217,254,10,33,25,30,33,7,203,226,30,0,32,5,32,49,1,23,244,230,253,16,0,223,239,19,45,225,240,39,243,231,231,239,231,220,219,202,17,4,14,228,11,29,227,17,253,26,232,5,3,31,29,37,255,10,3,241,37,233,14,31,17,233,232,39,249,4,249,26,33,6,244,34,16,25,5,236,250,237,28,242,235,0,22,231,0,22,34,13,206,247,9,10,238,4,216,43,205,21,225,234,246,247,254,2,245,237,229,249,219,216,246,6,243,18,13,14,225,2,33,243,8,15,25,39,42,220,5,239,230,0,38,21,4,33,226,211,8,25,5,243,28,218,32,242,249,18,244,233,206,244,21,195,2,34,222,240,218,216,15,25,197,22,7,13,187,76,49,185,238,202,204,249,23,22,218,0,19,12,22,235,11,2,4,218,216,7,38,34,214,218,177,11,1,30,190,40,30,199,20,247,227,243,14,3,231,253,211,235,179,39,15,195,241,15,201,236,56,182,255,25,7,237,243,206,172,18,17,4,244,34,19,254,6,143,55,7,222,1,25,29,255,214,144,31,175,37,16,233,240,39,242,226,1,213,27,20,230,223,24,244,234,49,17,1,3,27,225,248,254,144,44,208,247,4,216,3,33,252,221,45,14,25,224,243,31,45,242,209,56,230,230,33,19,236,38,182,187,239,14,250,58,213,9,5,176,218,13,225,6,249,30,13,50,232,10,217,179,14,50,29,2,55,241,233,1,237,5,245,236,12,19,239,13,17,214,8,7,36,211,248,6,35,14,22,245,233,231,220,213,218,250,43,246,32,23,33,203,247,22,30,27,248,240,252,225,233,218,192,23,62,233,42,30,233,238,223,206,57,89,16,31,30,219,32,15,213,47,54,21,0,239,237,38,50,0,17,5,247,48,75,195,0,3,206,9,61,6,253,66,24,239,203,203,78,90,226,247,6,204,205,7,219,18,82,224,33,222,13,201,0,234,43,106,51,12,36,233,195,49,23,78,89,25,235,61,240,240,240,253,242,38,5,3,216,234,240,254,240,229,15,15,7,250,252,10,46,221,9,31,39,217,23,247,204,68,193,46,45,42,20,246,24,240,32,234,32,65,250,234,12,24,48,9,18,255,11,67,36,229,215,211,241,202,36,244,84,50,5,213,18,3,206,34,211,25,249,39,209,12,44,22,62,219,2,3,5,202,223,218,75,248,246,30,63,224,250,57,62,238,60,21,0,221,1,55,209,60,42,55,242,254,8,12,228,197,219,48,34,32,242,188,34,8,13,56,69,4,245,223,13,238,47,231,46,12,10,212,3,14,14,216,11,230,43,13,251,225,207,220,244,207,30,24,59,24,28,23,41,246,28,64,81,57,247,224,5,225,208,226,238,22,9,49,12,247,241,231,193,248,26,224,201,252,10,231,207,17,244,56,4,3,234,255,254,243,29,9,6,16,197,194,26,232,210,32,56,1,249,43,31,230,202,224,33,15,10,45,223,217,244,239,241,23,249,43,52,224,192,234,23,221,212,251,238,26,210,24,250,232,197,212,245,54,220,220,205,16,9,36,22,18,87,26,34,5,46,38,45,216,251,254,223,183,239,11,243,39,221,59,46,231,250,190,198,23,18,213,237,82,20,193,156,32,193,51,237,18,43,220,253,24,214,50,251,253,221,241,215,243,167,44,249,224,50,24,18,204,20,252,25,63,38,50,3,235,15,202,193,40,47,9,18,236,38,53,242,221,68,208,245,243,30,26,226,186,235,23,29,11,5,214,254,250,219,247,3,224,216,7,28,71,27,201,18,1,62,44,28,18,29,25,230,0,35,19,30,219,254,226,14,218,15,239,254,196,234,25,1,30,37,215,251,199,12,220,18,245,40,235,233,28,225,5,10,214,33,224,222,253,208,247,255,14,0,195,213,227,197,231,247,25,238,0,219,195,66,216,0,15,249,20,53,14,212,40,212,186,41,40,234,252,9,234,64,10,55,238,229,15,48,230,238,236,37,215,11,224,229,42,223,200,20,254,231,200,35,13,232,201,209,6,20,16,234,235,29,252,28,47,74,201,212,227,234,34,48,253,21,25,78,205,3,192,1,23,44,225,11,234,31,25,21,3,222,232,217,1,243,18,223,13,37,28,247,231,76,54,57,10,54,34,19,240,222,26,46,18,10,38,239,221,244,243,52,33,18,237,23,219,245,254,201,255,51,21,27,5,245,4,15,46,5,240,24,26,29,232,212,67,233,219,249,11,218,220,237,231,246,219,221,212,37,8,235,46,236,24,59,40,56,5,19,242,8,17,226,65,213,2,224,47,8,36,237,233,0,251,19,10,11,225,59,232,56,33,220,247,19,5,247,42,254,10,44,218,243,32,225,239,60,11,211,44,60,246,43,33,37,212,226,234,57,18,15,215,16,27,212,232,241,30,242,38,67,2,243,252,33,43,18,221,242,235,19,211,8,3,39,52,5,62,15,208,12,219,41,231,220,216,26,43,234,226,227,216,55,223,50,248,236,10,3,59,246,229,49,208,6,18,227,40,203,4,237,24,237,14,204,249,57,193,45,7,10,245,249,5,51,9,230,27,207,16,9,8,229,33,17,40,246,221,44,39,252,29,236,5,212,39,217,27,225,26,230,238,23,221,230,29,226,216,29,2,32,217,35,29,235,249,35,13,37,11,56,248,242,9,212,246,43,242,236,45,255,209,0,248,191,43,14,216,215,42,28,23,222,42,1,246,50,4,240,236,48,204,221,19,1,242,245,36,16,247,248,244,212,23,232,12,44,0,23,45,236,9,54,19,30,37,11,245,199,218,224,2,26,9,7,220,30,5,225,241,71,190,254,245,25,23,230,218,252,215,237,246,30,16,245,204,221,254,183,234,243,21,1,51,41,187,36,209,252,216,214,29,217,44,225,241,227,245,215,13,212,23,47,199,241,35,38,222,217,223,252,50,33,13,26,217,217,233,32,249,52,244,10,0,47,5,5,22,241,18,46,0,244,228,42,62,37,5,32,215,233,210,242,9,249,210,57,27,22,46,6,229,31,20,216,1,43,234,30,232,22,9,25,18,23,12,216,74,14,220,220,26,213,37,35,238,242,211,23,7,208,65,40,75,56,231,20,19,22,21,227,237,52,213,32,238,206,37,46,211,64,14,31,219,205,240,13,3,7,235,251,43,208,195,22,39,248,3,31,224,203,21,40,48,245,222,232,219,50,63,218,198,10,3,14,41,239,61,5,227,240,27,217,4,248,61,230,67,200,45,190,58,254,211,21,233,43,249,253,176,244,15,27,191,38,240,28,230,20,213,29,25,55,0,28,230,214,205,240,226,222,8,210,204,233,253,29,2,28,19,8,191,213,15,223,27,21,218,24,243,49,225,196,12,253,196,35,238,248,237,27,240,245,24,228,2,40,46,239,33,172,20,8,7,0,28,57,8,254,231,217,205,250,250,45,248,24,205,195,6,243,225,46,242,245,254,218,231,237,30,232,44,220,249,31,46,247,213,238,239,242,48,231,238,242,209,16,222,31,22,246,254,239,4,221,1,33,7,231,255,251,213,8,23,201,3,1,31,46,247,227,39,224,251,224,6,232,7,213,2,224,213,198,7,211,230,246,216,13,245,7,17,239,31,247,31,1,15,221,237,38,208,49,59,225,16,46,26,10,77,251,25,71,218,227,217,19,52,236,252,4,254,230,241,209,230,34,62,223,34,227,216,191,243,189,232,8,47,48,204,0,217,11,24,221,195,0,32,17,35,225,216,195,200,1,254,198,214,221,209,8,21,210,8,52,15,216,225,226,220,12,244,54,3,215,54,247,188,230,206,211,204,30,4,22,34,19,2,229,41,230,49,19,38,241,243,239,12,25,252,18,247,235,47,228,220,245,4,221,61,222,249,246,204,213,189,223,4,244,58,4,237,1,24,216,39,209,187,220,212,14,254,254,238,235,203,55,220,33,226,197,29,236,221,235,11,16,241,209,9,201,12,221,175,207,220,229,25,194,240,3,224,203,230,31,68,19,179,3,9,17,52,253,250,225,47,185,233,46,86,247,243,226,38,38,239,247,248,252,254,239,218,220,206,160,13,15,1,206,239,242,2,251,193,227,71,34,27,10,29,220,215,215,249,66,79,64,34,251,37,46,238,238,65,214,214,47,52,9,209,224,19,6,228,236,215,27,228,46,24,228,248,8,250,221,218,43,208,2,25,48,211,24,1,207,49,4,7,243,66,253,238,41,254,254,29,62,240,54,241,14,243,0,8,26,21,252,59,206,219,242,61,246,227,47,0,204,14,36,38,207,250,16,31,214,2,6,55,217,220,215,239,59,215,9,211,255,255,21,201,255,25,222,250,231,5,31,39,48,20,34,184,42,220,26,54,231,32,206,28,250,250,227,62,66,20,212,33,76,3,252,213,26,52,55,15,5,28,240,240,190,10,4,31,24,229,65,237,31,24,66,57,254,42,244,218,220,14,212,232,38,32,201,211,254,50,245,182,35,54,54,1,15,215,229,10,169,245,10,64,40,200,199,52,230,226,10,22,39,5,229,24,6,188,4,208,34,222,251,8,35,9,233,42,199,10,207,16,51,210,8,5,248,20,14,56,35,5,234,237,224,246,248,7,6,32,223,23,38,16,19,35,55,193,13,52,210,20,252,32,33,103,37,23,213,241,39,213,39,49,254,41,58,249,67,255,37,246,46,26,58,4,249,8,8,18,186,247,249,226,26,17,244,70,254,10,235,43,3,208,236,247,44,15,68,39,37,10,254,211,229,54,228,48,31,223,37,206,251,249,24,27,209,224,185,41,252,210,14,221,15,219,3,236,49,236,16,244,246,249,246,213,51,219,219,6,236,40,12,238,189,210,240,50,252,243,66,20,25,223,64,30,245,214,29,251,19,26,195,10,189,12,205,7,68,48,4,244,230,28,241,5,230,245,36,201,31,178,254,13,200,204,238,8,54,232,255,14,58,239,214,250,243,225,200,249,230,8,249,210,6,240,37,1,186,3,53,43,34,242,235,218,206,233,32,11,243,27,9,24,197,226,18,17,52,0,211,223,215,36,9,26,239,26,218,17,40,253,9,210,243,36,244,199,9,15,12,225,219,17,226,45,249,63,39,246,22,231,26,19,53,47,235,230,48,4,244,13,226,17,237,41,253,33,201,9,229,19,11,249,216,214,231,242,237,3,210,2,8,252,6,19,11,0,10,252,219,211,255,218,232,245,3,15,250,7,25,22,222,230,228,255,253,220,244,250,212,250,23,15,238,243,34,27,252,240,224,238,250,30,7,218,13,21,238,231,33,248,15,2,217,35,224,249,246,218,199,200,4,9,10,28,218,216,11,9,231,238,13,0,219,211,222,26,248,4,242,26,238,228,11,6,7,248,34,20,19,214,230,236,23,219,255,226,4,231,227,246,233,216,42,223,0,2,227,40,12,232,251,235,252,242,18,215,222,20,233,231,239,237,5,9,227,239,8,32,215,238,245,34,249,42,212,227,225,225,17,250,19,232,8,236,210,237,248,217,247,16,10,25,0,248,220,3,241,25,246,8,254,20,0,225,26,16,8,31,246,31,215,31,14,218,3,236,12,242,9,200,29,237,213,36,251,14,246,240,28,14,254,249,227,21,1,244,33,215,27,251,250,0,8,21,251,230,225,215,220,23,243,248,225,2,235,223,224,250,27,242,244,252,14,22,255,22,0,246,35,13,4,250,10,24,208,237,218,255,23,12,249,38,4,26,2,5,35,3,3,254,222,209,230,213,13,240,17,236,249,8,18,226,221,222,43,234,22,239,212,26,216,11,22,252,27,11,246,13,0,218,237,16,7,246,15,4,1,231,1,224,222,6,251,3,248,231,221,4,210,27,252,0,22,223,16,232,215,243,219,252,255,30,6,222,215,252,223,210,32,234,254,8,6,234,214,33,232,228,10,239,4,219,227,247,18,0,30,38,239,7,11,250,248,10,218,27,23,254,6,239,4,226,251,14,247,8,239,242,242,231,20,230,221,234,20,240,16,10,252,30,18,208,21,248,245,6,34,31,4,252,223,11,28,234,250,0,247,237,18,217,236,247,241,10,6,227,24,17,255,16,3,246,9,17,18,17,243,14,248,240,23,246,0,234,0,5,218,17,252,14,252,217,11,242,29,227,207,249,32,245,224,6,41,255,7,21,28,247,13,248,209,232,7,10,248,234,247,255,2,223,233,7,244,209,9,6,6,34,12,232,246,251,254,232,28,5,5,204,31,1,211,33,251,243,245,223,222,17,12,13,209,235,23,11,12,206,10,14,222,20,15,24,10,16,214,7,1,223,30,22,252,5,11,233,249,27,2,4,249,252,16,229,223,21,254,1,31,1,5,240,234,237,212,14,3,244,255,19,248,227,214,215,19,32,9,11,23,235,233,16,4,252,222,245,16,2,229,238,225,228,8,22,214,248,3,234,238,233,24,41,255,238,216,239,20,219,229,238,17,239,214,247,15,243,247,212,250,46,28,230,232,31,251,5,36,221,18,22,31,249,238,11,6,231,224,231,232,220,222,234,241,13,17,22,47,214,223,1,8,21,245,218,33,249,1,21,243,28,243,18,213,216,10,20,23,238,28,241,0,255,25,38,228,248,22,248,8,243,14,0,14,6,6,21,224,20,14,240,251,17,218,213,3,8,231,29,3,225,8,241,252,6,251,6,242,21,225,20,7,0,244,28,4,221,4,246,28,230,238,23,230,14,236,211,27,8,41,27,246,10,239,229,4,24,234,255,250,14,15,250,7,235,3,213,233,250,18,210,12,247,6,214,208,234,248,14,2,29,234,24,4,248,31,241,4,249,23,240,20,230,248,207,40,33,14,253,28,251,18,253,230,48,4,10,12,33,243,220,227,17,15,25,8,1,244,254,230,10,13,238,18,21,12,227,230,251,20,252,39,37,25,5,227,219,228,253,224,36,1,25,243,230,212,30,228,217,5,231,255,7,4,237,11,246,212,51,247,34,5,247,35,0,245,23,234,12,251,231,20,240,230,252,30,33,231,16,243,220,30,11,3,251,215,26,5,237,5,227,219,244,246,10,15,243,226,223,213,249,227,253,42,8,10,23,12,218,32,228,7,244,4,223,12,1,234,235,233,3,234,239,229,12,8,223,206,41,28,209,241,21,255,16,244,222,235,217,207,228,237,27,250,217,222,21,229,33,20,11,252,232,244,9,246,2,222,251,9,16,232,235,30,11,240,215,16,9,2,229,27,39,17,36,207,9,10,13,245,23,17,221,6,228,252,2,3,243,228,230,233,228,6,13,0,8,12,248,40,221,210,32,229,38,249,233,229,237,7,251,220,5,19,4,230,7,26,0,11,238,249,30,244,18,243,10,228,215,30,236,238,31,33,220,3,7,220,240,34,6,242,32,221,232,16,228,15,9,23,19,37,229,36,34,1,245,248,10,12,238,223,242,245,220,237,14,14,236,19,231,22,21,0,27,6,5,251,220,21,211,3,25,246,252,20,238,20,223,12,16,219,228,30,7,221,236,33,234,248,15,17,8,253,232,228,232,213,233,246,11,6,22,28,236,229,41,12,252,234,250,2,251,31,215,227,216,30,249,72,251,7,5,221,243,230,250,39,61,4,252,38,234,198,242,244,20,189,255,4,226,38,31,16,47,56,32,234,6,9,223,61,25,33,18,43,15,227,245,238,28,63,70,46,255,71,71,18,11,18,238,40,41,8,252,223,232,18,218,79,108,242,68,0,14,212,221,213,232,41,247,37,243,212,198,78,42,255,34,7,4,66,227,14,43,218,90,49,35,248,49,238,37,244,40,29,241,248,232,188,232,251,20,206,116,36,253,236,245,55,33,202,18,3,69,196,197,246,6,33,1,7,81,227,190,24,31,93,231,1,8,96,19,205,246,52,226,0,192,253,57,33,189,61,1,241,228,22,233,82,246,205,11,225,234,254,248,48,42,238,11,51,245,246,238,19,22,75,244,212,42,51,174,211,235,213,83,233,13,70,101,22,15,33,227,42,231,198,59,7,201,200,34,233,238,234,248,203,68,240,227,11,194,42,228,176,19,98,252,41,3,236,16,17,241,90,221,46,212,32,234,67,11,173,21,210,88,12,22,211,49,11,245,14,199,8,51,238,182,20,36,232,48,242,215,19,22,40,81,218,230,5,253,226,0,5,240,67,43,204,32,211,204,5,254,18,250,230,196,34,0,200,55,221,246,5,25,242,9,196,188,234,229,234,19,11,6,70,247,234,14,211,184,14,18,254,245,2,77,235,229,212,228,239,218,4,24,227,51,255,12,238,231,209,240,19,18,29,237,234,68,238,9,192,228,251,247,229,209,13,214,225,6,24,199,28,17,7,39,48,21,18,194,5,249,231,232,16,248,1,203,36,21,17,234,60,234,235,21,15,225,214,239,226,39,11,183,24,230,90,0,4,252,34,36,140,253,183,8,234,53,223,238,94,176,248,158,178,47,5,245,4,254,155,49,208,203,246,17,208,207,5,219,252,183,31,8,28,25,46,239,174,16,2,35,59,1,1,232,66,152,3,226,212,206,243,238,17,27,232,16,51,10,254,42,5,243,2,222,23,71,233,3,4,243,218,8,240,80,54,36,50,44,240,249,52,157,10,3,241,20,8,252,14,42,160,11,160,13,29,49,249,242,28,217,250,192,28,220,242,13,212,5,193,20,32,249,202,232,253,222,61,12,233,206,28,217,46,24,14,39,195,241,243,4,39,14,25,247,224,254,237,212,61,224,24,253,240,250,35,13,34,32,245,38,204,238,27,249,52,22,246,47,245,232,21,236,252,253,10,246,34,72,251,25,3,66,53,54,8,17,255,6,233,203,252,187,9,224,20,42,227,28,32,6,52,213,7,104,29,187,16,33,245,2,37,53,9,12,34,233,58,0,0,9,233,187,225,239,230,29,51,210,59,244,212,14,9,47,33,233,2,68,246,187,235,209,239,13,10,226,57,14,5,244,209,233,92,31,4,33,56,24,225,47,213,66,235,69,57,64,217,40,231,7,12,253,11,74,229,55,0,26,252,60,17,232,88,244,46,254,11,208,9,34,16,71,11,254,215,49,251,37,48,38,28,4,229,37,251,240,222,20,228,38,48,172,44,46,231,252,60,7,28,195,244,8,227,31,13,34,36,65,24,19,7,45,32,49,33,1,89,9,70,13,17,13,70,253,243,56,32,30,37,202,28,68,34,33,67,211,232,77,0,208,16,52,234,28,211,11,246,244,28,197,21,28,78,228,3,252,1,22,235,49,22,236,192,24,249,14,46,225,37,245,87,209,231,253,24,22,51,17,12,55,232,206,20,226,250,60,36,226,62,12,32,245,240,29,83,58,252,228,5,26,239,15,20,40,14,210,39,37,220,73,221,17,1,46,28,219,255,20,47,236,254,39,237,25,79,8,224,241,237,230,6,5,50,58,15,234,15,45,235,245,223,27,62,245,206,28,219,48,16,23,40,185,6,238,231,253,237,32,48,215,16,240,223,251,238,3,244,254,41,214,13,241,25,10,221,19,244,226,20,201,243,50,222,237,242,244,23,227,29,221,247,221,217,227,204,3,189,0,236,10,53,53,9,209,224,202,249,17,85,30,16,204,222,35,11,15,89,69,24,196,49,170,243,19,189,247,15,222,30,10,214,218,246,76,40,57,30,12,249,13,36,28,79,71,51,248,34,219,1,247,22,69,215,238,221,4,36,179,6,217,67,231,79,201,241,41,4,242,248,54,241,31,50,224,2,207,241,153,26,0,24,235,30,241,208,255,205,30,16,10,221,17,231,15,33,211,255,231,54,33,5,221,238,213,1,216,0,26,9,233,47,232,201,248,217,27,1,41,34,248,211,213,246,39,199,0,212,247,8,233,30,29,0,179,19,210,8,27,234,14,191,243,35,230,19,232,30,226,21,243,60,224,18,56,29,5,216,236,55,61,241,38,244,229,252,236,37,220,12,90,61,43,210,35,231,24,200,17,63,54,34,42,4,215,6,235,202,2,204,24,34,220,232,240,255,47,48,252,232,234,6,11,222,254,12,35,238,207,224,209,207,254,20,1,246,208,213,255,221,243,187,232,15,212,231,42,224,251,203,255,9,254,227,210,19,46,207,14,16,12,193,37,238,211,228,225,32,15,217,39,24,20,197,228,251,24,177,190,212,13,223,21,231,7,7,187,30,248,17,23,47,50,219,251,187,234,18,45,21,12,17,207,214,2,247,230,246,10,231,208,208,63,202,244,213,24,44,240,42,239,29,1,26,206,21,6,43,234,230,6,18,250,252,249,35,19,222,11,242,221,251,242,236,41,46,36,31,50,232,227,205,2,254,254,254,15,27,244,246,40,17,229,222,23,235,253,216,235,213,11,205,245,236,40,219,54,20,184,218,1,250,49,216,242,33,19,190,44,26,40,45,249,34,21,253,64,27,38,21,6,223,211,236,2,253,47,12,36,213,48,248,24,40,251,249,202,232,245,61,14,64,20,253,240,36,1,42,230,46,235,246,231,235,237,240,223,252,52,27,33,236,221,43,10,27,252,24,245,230,234,244,43,10,225,238,237,229,33,20,6,41,44,47,253,248,64,37,242,32,6,219,223,37,38,9,225,4,213,31,241,22,24,235,25,237,18,240,250,222,44,44,219,236,195,39,11,2,236,38,223,4,55,234,240,238,33,246,219,230,229,20,200,236,224,216,226,241,212,26,43,51,21,4,6,6,214,212,12,241,32,27,9,44,239,8,220,6,40,9,22,47,5,27,10,226,239,54,253,5,241,213,227,29,6,30,13,247,20,213,255,26,203,16,4,41,234,222,56,30,21,16,30,44,20,255,237,246,224,224,212,226,222,235,227,10,7,216,230,18,248,0,242,252,223,249,5,12,248,3,251,3,221,249,18,216,8,1,33,13,206,43,42,242,230,252,205,254,222,251,222,56,213,247,13,253,252,237,229,11,251,219,30,40,46,19,6,184,233,4,203,24,230,29,24,0,198,188,248,254,227,215,31,17,198,9,204,215,27,225,212,250,209,2,203,181,253,247,8,0,16,206,216,250,33,254,226,218,238,32,11,206,189,41,238,249,12,236,12,36,234,252,222,4,239,228,61,37,246,14,233,31,2,227,2,196,32,204,219,18,25,252,51,243,4,8,228,200,223,245,226,30,214,245,6,205,20,23,240,10,227,244,38,10,194,23,202,38,20,42,244,28,194,238,203,205,17,255,248,216,252,200,45,240,39,21,254,215,0,251,18,10,198,205,207,40,53,246,234,253,246,30,236,73,223,2,37,33,11,32,15,226,236,230,15,23,3,47,246,30,229,33,9,6,242,233,218,2,38,25,4,219,24,5,253,242,21,203,11,242,221,238,19,23,245,241,246,1,18,251,18,28,229,227,20,238,19,251,183,224,252,203,207,32,30,43,19,240,41,35,2,213,229,212,227,0,239,9,230,28,226,229,250,17,11,43,33,26,40,220,231,239,218,1,26,12,12,196,250,249,6,23,29,0,44,235,233,247,226,214,10,50,30,41,24,194,23,47,211,203,210,40,212,208,16,4,49,251,50,24,18,31,6,32,234,13,215,224,236,36,2,234,225,196,221,215,223,43,31,241,218,210,254,240,250,244,6,234,50,18,203,32,7,246,253,214,35,229,39,9,215,214,24,51,211,1,9,209,20,33,1,14,201,11,19,23,11,9,255,2,33,0,24,26,45,3,37,17,217,250,248,3,0,239,54,25,208,8,242,33,246,30,217,239,13,254,226,218,16,20,21,235,252,243,30,247,33,29,20,226,47,32,28,17,30,44,25,241,2,227,36,27,250,229,12,225,217,28,36,3,222,196,213,244,2,208,28,32,9,9,208,18,34,249,229,26,10,245,42,10,21,12,31,222,211,45,223,220,233,217,30,223,250,14,236,227,39,0,29,53,18,237,240,2,243,205,42,249,249,11,31,253,234,255,43,46,237,247,250,25,21,231,3,10,22,220,50,17,24,23,22,241,251,214,31,249,231,34,53,255,1,2,30,35,36,237,238,212,240,2,22,194,24,223,218,220,66,38,227,236,15,241,209,43,3,234,31,32,211,205,42,230,255,3,240,248,236,7,242,21,210,8,5,10,25,0,4,218,223,221,249,22,241,24,237,248,27,221,23,217,244,232,220,240,210,242,36,37,224,247,212,197,4,231,198,27,225,238,29,225,224,28,1,14,17,213,47,26,250,24,14,206,11,232,33,218,249,23,255,223,216,219,25,41,213,229,202,29,20,6,33,14,15,31,34,19,233,209,245,38,16,224,35,242,38,228,61,25,29,19,234,234,254,251,240,15,214,6,243,219,33,213,237,216,31,5,51,239,229,204,215,221,9,234,217,54,218,47,42,20,237,239,13,35,209,232,205,20,248,24,11,30,206,243,4,250,20,242,25,9,235,6,11,16,219,220,253,11,9,223,230,228,233,4,247,253,8,252,244,225,219,224,249,15,242,253,11,5,246,236,27,235,244,14,241,18,30,18,250,27,21,237,243,3,4,224,23,247,32,227,209,8,1,9,243,242,246,15,243,226,238,229,8,13,29,235,8,16,19,252,240,251,250,15,240,13,226,5,3,254,10,15,249,244,24,253,17,249,249,244,13,16,241,238,25,5,2,240,9,247,16,219,243,252,8,247,248,249,253,9,4,255,25,222,250,11,254,4,249,246,7,250,20,9,0,254,236,217,234,25,29,218,248,3,0,244,212,21,2,23,250,250,254,241,246,1,244,239,25,239,248,15,11,1,21,249,253,240,9,5,3,6,243,25,225,15,24,20,239,12,3,223,226,229,18,36,2,250,240,244,253,6,220,21,243,26,251,238,249,1,228,14,26,240,34,9,249,10,3,236,3,246,24,230,253,249,2,28,29,22,19,34,30,246,0,5,232,222,0,5,25,250,247,8,11,240,9,235,238,21,252,250,250,252,15,251,238,249,29,33,7,2,252,233,223,33,241,240,5,252,11,252,22,28,13,16,32,242,255,2,19,243,222,213,14,241,18,253,16,250,9,14,217,9,15,13,2,7,1,15,241,247,227,244,25,248,13,237,18,242,218,246,233,1,3,247,4,244,10,222,19,9,249,3,10,251,228,236,0,247,239,248,8,249,244,16,27,2,8,236,225,244,3,251,254,18,19,252,240,236,13,12,7,33,245,224,32,19,252,245,5,251,7,247,253,252,241,249,247,251,1,12,250,235,4,253,222,246,238,12,255,13,9,252,234,11,14,3,254,9,239,233,1,218,28,243,247,14,16,227,0,20,223,8,1,15,6,19,10,1,7,18,5,8,11,1,30,255,232,18,13,19,6,251,247,25,237,252,238,208,246,254,3,3,247,246,238,13,14,24,1,12,5,250,239,1,254,1,19,244,241,6,254,12,12,235,246,209,250,232,13,254,6,223,232,26,216,23,6,7,242,237,247,1,15,218,243,2,244,255,11,244,27,219,209,255,247,1,11,18,2,244,210,242,16,1,8,243,225,222,230,214,216,8,252,14,26,18,34,235,250,4,249,0,6,239,8,18,252,5,235,251,250,8,243,239,221,253,215,249,255,255,13,247,4,22,13,1,240,4,239,249,1,216,9,21,29,4,11,14,0,18,226,221,13,229,15,251,5,248,232,238,239,247,237,0,1,249,5,246,233,13,25,238,20,236,0,7,27,28,248,21,7,10,250,3,11,241,232,217,252,29,235,255,3,0,255,236,254,248,253,240,245,17,243,2,7,250,246,246,245,10,252,4,229,22,18,240,24,26,254,1,252,228,15,244,241,17,19,1,246,4,227,12,230,5,230,3,245,223,240,23,218,28,252,226,228,243,1,6,238,224,24,6,249,238,8,252,255,240,15,7,27,8,253,1,18,0,6,19,33,10,242,20,2,6,248,234,17,238,27,240,12,247,250,1,19,21,3,16,16,237,248,6,246,251,26,21,246,242,2,243,8,14,246,252,225,243,10,6,26,254,242,6,241,239,11,7,251,7,10,254,26,254,20,14,28,13,240,228,7,247,18,239,12,251,42,16,252,2,9,17,225,233,233,249,245,26,249,230,23,18,227,28,226,21,11,251,0,20,243,7,244,239,1,12,7,4,254,218,235,223,252,2,251,254,255,246,211,248,229,40,248,6,4,24,236,1,13,13,239,2,12,2,26,225,230,12,20,6,251,6,7,240,233,28,255,238,230,1,19,2,19,12,22,222,6,30,13,12,7,240,247,3,235,235,14,4,249,8,252,33,8,29,251,26,248,12,7,241,8,230,21,6,222,246,11,1,231,16,9,226,223,254,252,243,3,245,234,21,18,26,240,15,0,251,237,221,37,239,22,219,15,233,252,10,12,21,10,247,14,251,244,7,243,27,26,13,3,4,247,6,239,226,253,227,253,17,223,241,14,8,2,226,227,2,243,231,3,253,254,32,16,242,31,234,225,242,252,6,252,30,16,11,213,235,238,6,248,241,10,253,23,20,26,12,8,254,15,18,12,243,11,216,255,0,5,5,26,29,245,8,226,252,252,3,245,240,20,247,212,20,11,7,250,247,0,20,223,232,242,247,253,4,35,6,26,25,220,14,246,3,254,242,32,34,6,247,20,3,11,255,238,7,11,236,32,25,238,4,19,2,34,231,252,16,30,251,255,9,12,26,27,219,229,23,252,3,253,10,225,3,252,230,243,234,12,6,227,232,226,221,23,23,246,7,246,1,224,18,1,232,242,6,2,15,237,250,220,20,13,238,3,242,243,245,251,234,244,230,231,243,14,4,230,222,245,244,253,239,248,7,254,232,236,232,1,230,26,252,255,1,25,236,239,250,3,227,8,227,10,209,14,35,207,11,3,252,3,2,237,5,35,244,196,1,21,1,252,226,38,214,222,23,200,249,5,232,248,247,21,247,212,239,213,241,252,13,236,250,230,193,199,250,234,243,221,240,200,255,24,254,246,240,236,212,25,4,240,222,195,225,9,246,253,224,33,249,17,203,229,21,240,1,11,16,31,197,246,238,236,9,214,222,245,213,11,1,232,238,12,216,19,18,6,191,237,248,13,239,235,27,8,3,19,18,253,7,239,221,251,252,205,12,44,250,2,237,233,13,237,198,210,207,240,3,232,242,231,231,237,26,38,2,220,252,240,249,243,1,4,252,18,229,27,235,251,255,232,235,230,252,56,21,216,34,19,228,9,210,238,227,235,216,0,235,10,41,35,243,55,5,250,34,235,254,46,34,246,250,249,31,223,215,246,219,33,250,253,10,222,227,34,255,232,42,2,7,0,247,6,216,6,249,43,15,8,233,239,29,225,237,24,0,11,13,24,233,243,5,254,255,24,8,255,228,34,209,207,212,246,243,25,34,12,236,208,42,228,47,6,18,255,7,226,248,30,226,253,56,249,25,248,226,226,6,10,248,12,24,238,10,24,229,3,6,56,56,19,21,254,214,236,247,250,231,14,39,5,250,12,240,40,10,26,41,20,4,24,11,42,217,32,32,19,251,5,230,240,10,242,9,39,44,251,250,9,249,37,38,223,237,240,28,228,249,223,211,3,198,244,46,10,250,239,252,239,9,211,236,14,35,248,2,33,30,249,2,34,251,250,6,255,14,6,246,6,19,233,25,10,1,1,23,16,222,30,218,22,253,235,217,34,227,222,5,22,8,254,245,216,229,246,222,10,8,10,41,246,208,41,21,230,6,26,251,14,6,255,13,246,10,18,227,226,28,3,8,244,226,241,235,241,5,3,21,239,15,247,21,15,248,4,231,250,18,225,24,52,229,221,234,251,27,254,33,241,26,239,214,255,0,249,226,210,208,21,9,10,243,21,1,14,212,242,17,223,244,5,245,238,20,222,4,15,205,19,234,245,6,32,21,253,243,193,6,4,16,12,227,238,24,230,237,32,0,17,11,20,249,248,242,204,27,241,252,232,36,219,243,255,9,190,0,10,251,6,1,35,26,205,15,240,7,28,237,27,248,232,236,15,222,252,29,226,204,232,5,194,3,223,13,246,254,5,32,13,203,224,231,247,249,232,4,233,255,223,17,12,253,9,234,7,35,227,27,17,1,241,14,220,32,35,224,236,223,216,253,255,6,1,12,232,213,220,223,214,245,240,224,205,18,11,194,232,255,30,211,27,218,15,185,242,211,25,16,8,249,6,219,241,215,218,18,255,28,27,237,245,251,214,234,37,1,31,235,214,23,26,199,232,37,235,7,30,223,2,199,206,242,245,21,240,209,240,29,31,197,240,46,9,39,27,248,11,15,10,245,34,17,245,10,220,218,13,11,239,7,241,240,236,229,31,198,255,19,1,1,202,27,242,231,22,204,238,249,239,33,14,210,231,3,189,16,26,239,21,241,240,34,10,214,242,238,222,17,245,228,249,207,237,233,19,15,241,3,3,233,248,236,247,17,8,234,233,27,251,14,231,3,252,30,212,246,241,44,210,229,241,246,253,213,21,226,9,14,237,3,24,24,248,25,21,41,35,28,247,23,228,239,252,20,255,238,233,3,10,3,41,207,7,40,51,231,15,244,241,24,13,229,33,14,6,41,218,252,238,229,21,224,45,235,43,249,31,250,236,0,251,10,209,252,228,255,23,17,40,255,19,231,17,251,249,21,221,198,20,57,7,253,0,242,21,208,248,13,27,0,26,9,3,19,227,234,222,28,254,20,241,3,15,21,231,205,13,0,227,224,247,230,27,23,248,228,218,14,255,234,2,5,202,27,226,243,26,248,4,25,5,210,8,236,0,16,22,233,31,209,234,228,20,40,12,253,8,243,221,24,199,7,252,253,236,36,20,231,209,242,229,253,0,7,5,6,206,240,243,17,216,248,251,254,2,221,17,11,11,24,18,245,242,243,17,240,12,19,23,5,221,1,22,11,220,224,22,33,248,246,11,236,19,249,22,5,23,241,2,4,23,206,235,216,227,2,19,221,244,222,240,245,230,20,1,11,29,253,14,245,17,232,42,250,238,1,11,216,37,7,209,30,249,6,3,230,241,13,252,23,204,39,0,245,5,234,228,243,232,251,25,9,2,0,226,243,236,23,215,214,4,253,29,222,35,30,253,22,225,4,252,244,0,16,12,31,213,230,13,238,21,17,239,14,217,14,232,11,1,12,13,20,253,241,240,214,8,23,25,29,239,20,35,243,34,254,251,240,23,210,214,236,15,20,4,28,254,222,229,228,209,27,24,16,5,4,250,207,8,211,242,6,230,226,19,239,226,249,9,41,230,37,29,253,49,37,209,255,248,39,234,4,237,42,6,233,51,19,33,0,203,27,49,202,223,205,236,229,36,249,18,218,238,35,233,245,63,248,223,50,33,24,232,47,35,6,217,36,0,26,251,220,28,34,69,18,36,11,218,212,244,244,34,58,2,20,25,246,252,210,232,248,225,50,186,12,221,222,3,214,32,247,18,239,215,27,5,12,72,231,50,255,12,200,222,229,218,32,38,216,21,228,35,15,219,39,63,254,39,183,221,31,219,2,249,57,254,8,194,249,42,10,34,11,15,222,13,252,237,74,234,36,25,38,16,239,40,41,31,25,194,218,42,40,8,242,27,255,200,232,212,44,207,223,36,216,12,25,21,240,19,16,189,23,233,28,206,0,37,28,237,1,50,41,238,213,210,232,24,40,255,242,222,50,33,212,4,0,28,27,3,255,210,224,224,42,253,11,34,50,12,212,255,226,10,18,203,9,201,24,254,19,24,231,223,34,212,231,193,251,40,32,19,233,32,201,20,37,78,230,1,234,250,1,2,241,3,240,42,237,249,3,215,244,0,5,56,216,201,21,225,30,204,220,246,254,23,215,35,37,34,229,230,241,233,19,203,251,32,233,16,227,30,210,255,241,223,30,222,231,225,244,238,21,26,255,240,196,238,56,28,195,226,1,207,25,211,26,224,42,44,216,24,34,1,223,36,42,31,239,9,231,232,211,215,233,0,17,217,246,40,0,18,211,41,239,233,22,18,232,27,33,23,230,209,2,239,23,17,50,227,198,38,224,228,213,250,35,248,220,4,62,223,68,5,28,243,215,218,217,246,179,210,231,248,47,47,245,27,1,240,45,30,12,222,217,33,234,60,233,245,17,3,226,10,17,2,31,189,225,238,54,252,1,13,37,240,235,11,32,246,8,203,35,208,33,164,3,36,235,216,27,223,191,239,252,34,238,35,40,5,234,17,246,7,223,28,48,7,222,251,5,8,211,27,24,2,213,0,35,23,228,39,231,236,42,11,16,3,47,3,236,32,57,242,48,26,226,39,242,28,0,38,217,26,7,224,39,230,240,239,6,218,241,55,233,9,218,234,16,250,218,235,25,213,223,55,235,232,225,20,226,33,236,225,65,14,25,19,248,221,223,241,221,19,230,7,52,15,207,16,248,40,246,0,245,71,245,52,27,2,223,48,222,67,172,50,235,30,251,30,7,41,54,21,216,232,219,249,20,45,227,15,5,3,56,242,222,73,46,250,231,19,0,242,205,57,59,4,254,3,13,253,38,209,27,3,249,21,71,4,233,253,223,231,25,47,16,214,22,20,2,49,236,74,246,207,15,247,244,24,42,252,70,216,8,209,235,18,233,5,247,29,41,52,236,20,18,36,18,55,11,255,29,250,36,45,246,239,230,28,253,61,239,212,22,34,31,228,9,33,34,26,23,4,13,224,234,72,25,35,10,19,17,51,3,251,227,32,13,16,25,237,245,221,234,21,52,42,13,216,201,253,52,64,43,58,31,222,215,0,27,23,238,24,64,247,12,233,238,37,209,8,55,67,240,232,35,238,208,249,54,228,255,68,239,223,44,7,1,198,10,243,246,237,32,26,15,234,240,8,28,245,9,21,28,26,255,232,45,247,255,191,227,49,2,38,25,22,224,29,246,2,27,46,238,14,4,29,16,236,226,55,222,41,45,23,243,20,231,8,242,23,28,241,209,5,207,17,243,43,21,0,219,8,10,34,244,234,195,230,13,5,39,241,40,12,235,223,245,31,252,196,30,8,230,21,37,238,1,49,27,246,38,26,246,219,11,1,223,18,31,251,45,12,240,3,6,77,197,24,3,25,234,227,39,243,40,16,254,21,0,243,7,242,249,8,228,34,11,22,248,48,7,3,11,21,224,229,233,239,32,4,26,228,29,231,229,206,13,222,214,245,2,21,221,206,24,3,219,36,8,36,226,20,241,40,228,206,254,243,52,250,3,245,49,221,239,252,47,47,2,43,194,245,36,246,36,43,8,173,252,179,227,212,38,9,252,49,2,236,240,4,36,21,240,20,26,224,240,21,19,59,49,197,238,8,240,202,22,253,240,229,242,43,238,241,239,228,24,226,35,248,56,49,190,22,35,11,231,253,39,235,47,10,205,204,24,249,31,234,215,35,226,224,21,19,252,3,211,5,48,194,6,229,225,249,219,252,40,18,28,0,11,69,7,222,40,31,232,38,228,1,242,236,220,251,13,5,244,9,242,1,243,232,214,54,209,23,5,235,214,249,250,230,42,234,5,214,18,249,238,233,232,211,248,1,219,13,30,61,26,253,225,11,205,5,255,27,5,38,8,47,231,251,19,232,41,18,233,2,210,11,29,9,242,32,39,26,35,255,15,12,2,225,29,255,246,212,238,10,243,47,37,240,1,18,213,252,234,29,14,237,41,230,48,232,255,205,3,41,232,253,251,250,248,45,9,48,40,24,4,14,254,224,33,29,22,50,215,201,244,37,26,234,226,240,0,13,11,51,236,231,217,8,220,2,12,245,236,17,10,242,249,25,22,232,15,245,216,238,38,223,8,61,19,228,246,40,251,250,235,250,74,43,13,223,2,11,36,40,221,28,9,10,18,226,16,218,235,214,9,4,0,1,14,254,229,7,221,243,255,27,223,7,36,243,225,193,233,255,20,11,23,14,6,246,191,46,9,28,254,41,28,5,231,174,23,8,242,230,31,250,4,207,202,247,252,8,239,226,36,253,199,178,18,16,17,244,250,34,16,190,204,21,235,248,240,14,36,55,206,19,249,252,34,39,216,251,235,4,202,12,61,231,211,44,31,242,183,240,224,27,208,203,9,10,235,194,29,228,1,251,0,18,238,242,206,35,239,0,236,6,31,254,31,212,210,231,252,215,254,236,214,45,239,5,239,245,37,255,230,44,248,188,20,214,3,20,229,228,14,46,5,35,241,239,18,240,3,239,27,242,249,225,226,244,45,250,235,45,244,13,225,221,244,10,225,8,228,27,42,8,243,17,245,228,241,26,2,19,216,241,41,239,41,2,15,14,17,236,240,244,204,247,4,14,2,44,39,16,1,48,230,1,29,248,215,254,22,249,254,16,2,3,69,235,224,17,34,8,238,26,227,222,215,16,243,19,246,33,28,241,226,243,226,9,22,242,13,4,17,246,15,227,16,252,20,247,231,227,231,48,227,45,13,243,8,0,230,253,30,243,37,212,41,7,34,37,209,1,12,36,44,27,19,4,251,7,45,28,2,220,226,243,8,236,250,32,23,68,232,230,11,254,228,12,255,244,33,217,21,228,11,249,16,65,241,211,8,233,244,222,36,247,255,252,5,13,3,243,244,49,226,13,20,11,11,9,10,221,28,239,79,41,29,21,4,25,22,14,40,7,54,253,9,245,1,36,18,7,53,240,246,222,25,13,14,241,218,87,2,230,251,255,239,225,240,11,52,66,15,41,10,13,249,240,253,14,241,62,45,219,251,228,228,30,66,21,248,239,208,21,253,244,237,9,249,216,40,20,243,26,31,40,76,57,3,3,29,35,223,36,70,12,17,27,13,247,224,230,58,75,246,27,45,255,252,242,25,32,247,228,19,249,4,39,28,253,34,46,26,12,208,3,233,4,223,37,62,23,63,6,16,34,227,29,13,5,34,209,251,245,244,12,11,19,23,0,252,231,237,248,211,27,41,21,26,221,204,12,229,11,6,54,15,39,15,249,212,3,210,7,59,244,38,25,250,15,57,218,250,20,226,5,31,222,249,34,221,24,27,246,50,228,213,230,6,235,45,25,22,11,233,45,11,238,237,28,38,14,37,180,10,20,227,243,21,18,251,22,229,10,199,30,14,37,2,4,247,234,4,30,15,44,32,234,194,5,230,14,194,235,225,33,0,8,234,14,6,223,238,23,5,26,250,12,35,25,252,251,243,252,244,222,33,30,8,208,232,34,9,234,241,6,36,56,239,35,215,39,23,193,239,229,248,33,21,242,14,237,200,253,25,211,14,41,36,18,235,203,43,30,240,10,1,47,252,41,243,209,244,11,18,226,216,252,220,249,22,0,212,251,213,235,56,14,241,217,5,23,246,202,241,223,219,221,216,2,240,224,232,19,36,231,20,25,250,238,28,4,251,246,42,216,4,233,232,0,9,236,218,39,237,239,10,248,33,221,8,11,32,230,19,5,15,9,209,219,9,46,241,219,218,8,221,232,249,244,35,242,6,239,242,225,10,18,232,254,36,247,44,2,231,46,242,17,55,51,228,232,13,238,242,0,241,8,27,15,55,5,248,243,9,219,10,8,210,25,252,183,207,251,34,40,242,3,216,30,16,26,2,16,24,211,9,0,10,10,199,238,35,235,222,19,27,246,245,14,199,6,239,247,233,33,241,242,244,226,235,15,29,35,234,11,253,240,7,2,255,246,15,7,18,217,30,21,232,3,247,10,7,34,230,229,240,16,9,255,57,17,39,31,218,212,251,47,251,229,12,240,251,220,225,4,249,216,246,73,7,27,244,218,239,213,25,244,231,40,4,236,17,38,241,33,30,3,17,10,4,242,36,6,253,10,12,18,253,23,233,249,223,231,54,38,47,252,238,245,23,30,220,243,44,235,254,245,219,41,233,240,221,210,14,25,0,217,239,225,25,38,236,242,24,65,253,232,8,239,0,254,18,253,21,221,252,215,245,238,28,10,248,238,4,20,236,243,9,9,11,8,7,220,250,37,248,247,235,223,10,9,218,209,251,34,16,20,18,208,70,224,225,214,28,0,17,6,230,39,236,222,42,62,20,222,57,250,33,216,247,53,16,28,28,7,223,8,201,49,225,244,241,200,251,245,242,18,219,215,20,6,204,19,250,227,206,216,30,246,235,219,24,230,15,28,251,254,253,239,227,14,19,16,238,21,254,3,226,241,250,233,241,234,10,240,222,8,249,231,255,246,217,210,245,214,12,219,252,8,28,1,226,220,23,249,235,242,215,240,241,32,240,237,231,6,227,17,19,223,0,25,10,233,234,248,16,8,11,19,13,251,27,10,24,20,246,7,6,220,227,42,15,16,4,253,215,221,232,251,13,6,3,13,235,247,236,25,12,237,255,250,253,20,25,36,16,31,229,245,15,19,12,253,219,238,8,16,215,255,251,249,217,255,14,12,19,249,235,9,12,252,0,20,246,8,19,247,41,245,248,15,232,11,226,29,23,20,254,250,8,213,237,247,228,0,230,12,6,255,240,4,34,21,5,1,17,235,237,252,227,7,28,249,230,1,18,234,242,246,223,232,244,16,21,218,29,225,32,250,242,1,8,4,230,16,255,25,21,18,22,245,239,223,15,222,247,212,232,8,0,239,223,250,208,231,249,251,10,7,233,223,19,218,223,253,208,249,237,234,216,246,31,26,15,27,250,22,249,10,235,30,12,24,204,11,19,245,9,29,249,6,247,20,21,5,248,236,237,22,240,238,234,0,14,5,241,40,221,4,202,249,13,25,17,231,14,246,235,210,0,242,19,249,237,243,1,220,218,221,230,244,12,247,8,218,230,240,22,8,16,0,217,5,210,17,11,24,251,12,18,220,19,5,229,221,3,15,21,231,27,10,10,228,0,225,251,255,2,249,8,34,36,1,37,254,241,246,250,17,27,247,21,232,244,254,15,14,231,241,6,4,230,248,0,248,220,254,234,13,17,223,236,0,250,252,254,215,3,11,226,234,35,8,229,234,223,26,10,237,4,11,19,229,21,231,223,16,234,225,245,234,25,15,244,234,224,223,248,252,251,237,218,244,228,23,16,239,252,240,232,236,235,246,255,10,242,18,22,217,27,255,222,24,241,254,230,243,28,234,227,224,226,217,5,248,254,18,4,223,236,211,215,252,244,8,224,21,24,228,7,6,232,239,3,229,231,244,236,242,236,245,17,234,1,4,12,3,227,251,0,244,11,11,9,214,11,229,234,0,243,242,246,234,252,252,21,216,232,10,10,243,248,213,232,24,243,3,13,7,0,15,236,223,229,205,13,237,11,6,20,4,19,8,234,253,255,17,24,255,23,229,2,226,19,1,250,29,226,25,213,13,251,8,245,250,233,249,27,238,208,214,245,6,14,224,227,13,241,235,245,27,7,239,225,5,31,10,22,207,24,17,246,31,207,209,234,240,0,9,251,225,239,227,16,215,230,40,27,6,17,221,250,13,8,24,222,19,2,225,249,22,13,17,206,7,229,251,248,6,255,216,242,218,28,235,1,240,245,33,5,12,28,4,248,235,33,19,248,235,234,216,8,237,232,239,212,8,7,222,21,12,0,14,26,245,246,13,13,17,22,14,0,25,3,253,237,239,234,242,249,242,30,239,239,17,35,16,30,13,248,251,11,210,229,7,210,214,10,39,15,221,9,239,10,254,33,12,246,3,216,239,238,223,242,250,240,255,18,0,238,218,232,238,4,1,59,236,11,19,244,0,247,208,1,252,255,22,22,217,249,27,247,12,3,0,224,3,12,223,246,209,17,21,14,221,12,244,2,25,242,250,252,9,223,27,21,2,13,225,11,2,242,235,13,25,225,219,221,241,9,248,3,15,228,15,253,215,1,10,7,219,9,254,27,221,227,16,11,0,27,31,23,18,3,38,247,10,4,233,213,206,219,24,220,0,237,241,230,249,6,234,240,222,237,19,5,246,14,218,11,239,2,223,19,7,233,218,209,232,249,7,245,10,250,32,244,220,237,11,5,247,254,4,24,24,30,19,15,4,8,11,255,247,3,230,8,222,216,249,10,17,255,16,7,29,249,229,215,42,8,3,18,30,236,12,239,248,255,236,224,230,3,247,19,5,250,233,17,3,242,226,5,2,205,246,20,245,242,9,234,18,225,209,230,11,250,21,25,30,231,5,6,243,9,7,226,228,19,213,20,222,255,234,233,238,234,208,11,247,253,234,7,4,247,220,24,224,230,24,237,243,15,14,24,213,5,248,236,13,6,28,220,33,31,240,245,246,19,250,255,11,229,209,224,241,5,242,15,248,227,21,232,216,216,247,249,246,239,238,7,21,15,245,253,237,248,237,253,219,21,222,27,28,17,241,242,234,237,233,250,11,1,4,241,234,235,237,36,246,212,235,231,3,252,8,24,253,8,239,219,10,253,245,31,237,233,244,9,209,17,227,2,9,7,216,13,18,218,227,240,230,13,4,6,0,226,239,4,249,1,231,3,235,21,10,225,251,252,236,252,20,246,220,16,217,249,253,1,5,232,30,249,247,215,43,243,32,16,17,55,246,41,220,8,12,245,9,47,39,231,249,17,2,214,233,243,42,230,243,23,192,39,226,27,13,206,41,241,232,250,2,243,31,24,14,9,27,48,8,29,242,221,236,213,244,2,50,202,24,8,247,255,37,24,12,28,224,249,15,235,242,219,16,44,35,191,254,45,233,2,6,1,228,25,222,249,17,13,26,10,247,7,52,234,9,34,218,224,23,4,11,226,18,233,245,25,239,212,44,0,67,217,218,16,41,3,207,228,247,3,14,45,244,22,40,51,222,29,2,229,51,45,26,222,53,12,17,248,255,30,245,241,228,43,248,26,26,203,254,248,21,236,247,227,16,51,47,244,233,235,32,38,14,39,227,14,221,245,213,234,41,48,238,57,8,184,231,237,244,5,36,79,254,19,235,252,12,214,56,46,31,222,9,4,243,251,12,55,205,221,54,244,251,37,222,251,15,9,28,46,12,62,253,28,15,38,12,52,254,13,24,250,254,254,237,228,1,29,253,37,237,227,240,51,34,9,17,241,67,16,239,247,45,207,46,241,70,31,30,20,24,17,30,63,242,29,36,9,2,250,18,57,15,246,56,54,248,8,208,30,55,227,66,22,64,226,3,243,10,21,252,30,237,60,245,236,14,37,21,3,25,239,41,251,250,246,251,207,236,13,1,224,235,222,25,39,39,234,62,50,5,13,245,